01
03
01
00
FE
FD
FF
02
00
FE
FE
FE
FF
01
01
01
01
01
FF
FD
F9
F9
FD
03
01
FB
F9
F9
FC
FF
00
01
00
FF
FC
F8
F5
F5
FC
02
00
FA
F6
F5
F7
FC
FF
00
FF
FD
F7
F4
F2
F4
FB
00
FE
FA
F6
F3
F4
F9
FD
FF
FE
F9
F4
F0
F0
F6
FD
02
00
FA
F5
F2
F3
F7
FC
FF
FC
F6
F1
EE
F0
F9
FF
01
00
F8
F2
EF
F1
F5
FB
FE
FD
F6
F0
ED
F0
FB
01
FF
FC
F9
F0
EA
EC
F1
F9
FE
FE
FB
F3
EE
F0
FC
07
07
00
FF
F3
E8
E8
EF
FB
FF
FF
FF
FC
F8
F7
00
12
14
0E
08
FC
F3
F2
F9
FD
FF
00
00
00
FF
FF
07
1C
1F
18
10
05
FC
FD
FF
FF
00
01
02
01
01
01
08
18
22
1B
14
05
FE
FF
00
00
00
02
02
01
01
02
08
16
20
19
12
05
FF
00
00
FF
01
00
02
01
02
03
0C
1D
20
1F
13
08
02
01
01
FF
FF
00
01
01
01
05
10
1B
15
18
16
08
04
04
02
00
01
00
00
00
02
06
0D
10
09
08
08
05
04
06
03
00
01
00
00
00
01
05
07
05
03
01
00
01
02
04
03
00
01
01
02
01
00
FE
FD
00
02
00
FE
FD
FE
00
01
01
00
00
01
FF
FD
FA
FA
FF
04
01
FC
F9
F9
FC
FF
00
01
00
FF
FD
F9
F6
F7
FE
02
01
FD
F8
F5
F9
FD
FF
00
FF
FD
F9
F6
F4
F5
FD
01
FF
FC
F8
F4
F6
FB
FE
FF
FE
FA
F6
F3
F3
F7
FE
01
FF
FC
F8
F4
F7
F9
FD
FF
FD
F8
F4
F1
F3
F9
FF
01
00
FB
F7
F4
F5
F8
FC
FE
FD
F8
F3
F0
F4
FD
00
FF
FE
FB
F6
F0
F1
F5
FB
FF
FE
FB
F5
F1
F4
FE
05
04
00
00
F7
EE
EE
F4
FB
FF
FF
FF
FC
F9
F8
00
0F
10
0B
07
FD
F6
F6
FA
FD
FF
00
00
00
FF
FF
06
17
1A
13
0C
03
FC
FD
FF
FF
00
00
02
01
01
01
06
12
1B
15
10
05
FE
FF
00
01
00
01
01
01
01
01
06
10
18
14
0F
06
00
00
00
FF
00
00
01
01
01
03
0A
18
19
18
0F
06
01
01
01
FF
FF
00
01
00
00
04
0D
18
10
13
10
07
04
04
02
01
01
00
00
00
01
05
0A
0D
07
04
06
05
04
05
03
00
00
00
00
00
01
04
05
03
02
00
FF
00
02
04
02
00
00
01
02
01
00
FF
FE
00
02
01
FF
FE
FE
00
00
01
01
01
01
FF
FD
FA
FA
FE
03
01
FD
FB
FA
FD
FF
00
00
00
FF
FD
FA
F6
F7
FD
03
03
FF
FA
F7
F9
FD
FF
FF
FF
FE
FA
F7
F4
F7
FE
02
00
FD
F9
F6
F7
FB
FE
FF
FF
FC
F8
F4
F3
F8
FF
01
FD
F9
F7
F5
F7
FA
FD
FF
FD
FA
F6
F4
F4
FA
FF
FF
FD
F9
F7
F5
F6
F9
FC
FE
FE
FA
F5
F3
F5
FC
FF
FD
FB
FB
F7
F3
F4
F7
FC
FF
FE
FD
F7
F4
F6
FE
03
02
FF
01
FA
F1
F1
F6
FC
FF
FF
FE
FD
FA
FA
02
0E
0D
09
07
00
F8
F7
FB
FD
FF
FF
00
00
FF
FF
06
16
16
11
0C
04
FD
FE
FF
FF
00
00
02
01
00
01
05
11
19
13
10
05
FE
FF
00
00
00
01
01
01
01
01
04
0E
15
11
0D
05
00
00
00
FF
00
FF
01
01
01
02
08
14
14
12
0C
05
02
01
01
FF
FF
00
00
00
00
04
0A
14
0F
0F
0C
05
04
04
01
00
01
00
00
00
01
04
08
0B
05
04
04
03
03
05
02
00
00
00
00
00
01
04
05
03
02
FF
FF
00
02
03
02
FF
00
00
01
01
00
FF
FE
00
02
01
FF
FF
FF
00
00
01
00
00
00
FF
FD
FB
FA
FF
03
01
FD
FC
FB
FD
FF
00
01
00
FF
FD
FA
F7
F8
FD
00
FE
FC
FA
F8
FA
FE
FF
00
FF
FE
FB
F7
F5
F7
FB
FD
FB
FB
FA
F7
F8
FB
FE
FF
FF
FC
F9
F5
F4
F8
FD
FF
FE
FB
FA
F6
F8
FA
FD
FF
FE
FB
F8
F4
F4
FB
FE
FF
FE
F8
F8
F5
F6
FA
FD
FF
FE
FB
F8
F5
F5
FC
FE
FC
FA
F9
F8
F4
F5
F8
FC
FF
FE
FD
F9
F6
F8
FE
03
02
FE
00
FC
F3
F3
F8
FD
00
FF
FE
FD
FB
FB
02
0D
0D
08
07
00
FA
F9
FC
FE
00
FF
00
00
FF
FF
06
14
14
10
0D
04
FE
FE
FF
FF
00
00
02
01
00
00
05
10
17
13
0F
05
FF
00
00
00
00
00
01
00
00
01
04
0E
17
11
0D
05
00
00
00
FF
00
FF
01
01
01
02
07
12
15
13
0B
05
02
01
01
FE
FE
00
00
00
00
02
08
10
0D
0F
0C
05
03
03
01
00
00
00
00
00
01
03
06
09
04
03
05
03
03
04
02
00
FF
00
00
FF
00
03
04
03
01
FF
FF
00
01
03
02
FF
00
00
01
00
00
FF
FD
FF
01
FF
FF
FF
FF
00
00
00
00
00
00
FF
FE
FB
FA
FE
01
FE
FC
FC
FC
FE
FF
00
00
FF
FF
FD
FB
F8
F9
FE
FE
FD
FB
FB
FA
FB
FD
FF
00
FF
FE
FB
F8
F6
F8
FB
FB
F7
F8
F9
F8
F9
FC
FE
00
FF
FC
F9
F6
F5
F9
FB
FB
F8
F8
F9
F7
F9
FA
FD
FF
FE
FC
F8
F5
F6
FB
FD
FE
FC
F9
FA
F7
F7
FA
FD
FF
FE
FC
F9
F5
F6
FE
00
FF
FC
FC
FA
F5
F6
F9
FD
FF
FE
FE
FA
F7
F8
FF
04
02
00
01
FB
F5
F5
F9
FD
00
FF
FF
FE
FC
FC
03
0D
0C
08
06
FF
FB
FA
FD
FF
00
FF
00
00
FF
FF
05
14
15
0F
0A
03
FE
FF
FF
FF
00
FF
02
00
00
00
04
10
19
14
0E
04
FF
FF
00
00
FF
00
01
01
00
00
04
0D
17
14
0E
05
00
00
00
FF
FF
FF
00
01
00
02
07
12
17
15
0D
06
02
01
01
FE
FE
FF
00
00
00
02
07
0F
0D
10
0E
05
03
03
01
00
00
00
00
00
00
02
06
09
04
03
05
04
03
04
02
FF
FF
FF
00
FF
00
02
04
03
01
FF
00
01
01
03
02
FF
FF
00
01
00
00
FF
FE
FF
FF
FE
FF
FF
FF
00
00
00
00
00
FF
FF
FE
FC
FC
FD
FD
FA
FA
FC
FC
FE
FF
FF
00
FF
FF
FD
FB
F9
F9
FB
FB
FA
FB
FB
FA
FC
FE
FF
FF
FF
FE
FB
F9
F7
F9
FD
FD
F9
FA
FB
F9
FA
FC
FE
00
FF
FC
F9
F7
F7
FC
FE
FD
FB
F9
FA
F9
FA
FB
FE
00
FE
FC
F8
F6
F7
FD
FF
FD
FB
F8
F7
F7
F8
FB
FD
FF
FE
FC
F8
F6
F8
FE
00
FC
FA
FA
F7
F6
F7
FA
FD
FF
FE
FE
FA
F8
F9
00
05
02
FE
00
FD
F7
F7
FA
FE
00
FF
FF
FE
FC
FC
04
0F
0F
08
07
03
FC
FB
FD
FF
00
FF
00
00
FF
FF
05
15
16
11
0D
05
FE
FF
FF
FF
00
FF
01
00
00
00
04
10
1A
14
0F
05
FF
FF
00
00
FF
00
00
00
00
01
04
0D
1B
13
0E
05
00
00
00
FF
FF
FF
00
00
00
02
08
10
18
17
0E
06
02
01
00
FE
FE
FF
00
00
00
01
08
10
0E
12
10
06
03
03
01
00
FF
00
00
00
00
02
06
0A
06
04
07
04
02
04
02
FF
FF
00
FF
FF
00
02
04
03
01
FF
FF
01
01
03
02
FE
FF
00
01
00
00
FF
FE
FE
FB
FB
FC
00
FF
00
00
00
00
00
FF
FF
FE
FD
FC
FD
FD
FB
FC
FD
FD
FE
FF
FF
00
FF
FF
FD
FC
FB
FC
FD
FB
F8
F9
FB
FB
FC
FE
FF
00
FF
FE
FB
FA
FA
FA
FC
F9
F5
F7
FA
FA
FB
FD
FF
FF
FF
FD
FA
F9
F9
FC
FD
FB
F9
F8
F9
F9
FB
FC
FE
FF
FE
FC
F9
F7
F9
FF
00
FE
FE
FB
FA
F9
FA
FC
FE
FF
FE
FC
F9
F8
F9
02
02
FE
FD
FD
FA
F8
F8
FA
FE
FF
FE
FE
FA
F9
FA
01
07
04
FF
01
FD
F8
F8
FB
FE
00
FF
FF
FE
FC
FC
03
0E
0E
07
06
00
FC
FC
FE
FF
00
FF
00
00
FF
FF
04
14
17
10
0C
05
FE
FE
00
FF
00
FF
02
00
00
00
04
10
1B
16
11
08
FF
FF
00
00
FF
00
00
00
00
01
05
0C
19
15
10
06
00
00
00
FF
FE
FF
00
00
00
02
09
12
18
17
0D
06
02
01
00
FE
FE
FF
00
00
00
02
0A
12
0F
13
10
05
03
03
01
FF
FF
00
00
00
00
03
07
0A
06
05
06
05
02
03
02
FF
FE
00
00
FF
00
02
03
03
01
FF
00
00
00
02
01
FF
FF
00
00
00
00
FF
FE
FC
F7
F6
FA
FE
FF
00
00
00
00
00
FF
FF
FE
FD
FC
FA
F4
F4
F7
FD
FD
FE
FF
00
00
FF
FF
FE
FD
FC
FB
FB
F9
F6
F8
FC
FC
FD
FE
FF
FF
FF
FE
FC
FC
FC
FC
FD
FB
F8
F9
FB
FB
FB
FD
FF
FF
FF
FD
FB
FA
FB
FE
FD
FD
FA
F9
FA
FA
FC
FD
FE
00
FE
FC
FA
F9
FB
FF
FF
FC
FC
FC
FA
FA
FB
FC
FE
FF
FE
FC
FA
F9
FB
03
02
FE
FE
FF
FB
F9
FA
FC
FE
FF
FE
FD
FB
FA
FC
03
08
05
02
04
FF
FA
F9
FB
FE
00
FF
FF
FE
FC
FD
04
0F
0E
09
08
01
FD
FC
FE
FF
00
FF
00
00
FF
FF
04
12
14
0F
0A
04
FE
FF
FF
00
00
00
01
00
00
00
04
0E
18
13
0D
04
FF
00
FF
00
FF
FF
00
00
00
01
05
0E
1C
17
0F
06
00
00
00
FE
FE
FF
00
00
00
03
0A
14
1A
1B
11
07
01
01
00
FE
FE
FF
00
00
00
03
0B
13
0E
13
12
05
03
03
01
FF
FF
00
00
FF
00
03
07
0A
06
04
06
04
02
03
02
FF
FE
00
00
FF
00
02
03
03
01
FF
FF
00
01
02
01
FE
FF
00
00
00
FF
FF
FF
FD
F7
F4
F8
FE
FF
00
00
00
00
00
FF
FF
FF
FE
FC
F7
EF
ED
F3
FB
FE
FE
FF
FF
00
FF
FF
FE
FD
FD
FA
F6
F0
EF
F3
FA
FC
FD
FF
FF
FF
FF
FF
FD
FD
FC
FB
F9
F7
F4
F6
FB
FC
FD
FE
FF
FF
FF
FD
FC
FC
FB
FD
FC
FC
FC
FC
FC
FC
FC
FD
FE
00
FE
FD
FB
FB
FD
00
FE
FE
00
FF
FC
FB
FB
FD
FE
FF
FF
FD
FB
FA
FC
02
02
FF
FE
00
FB
FA
FA
FC
FE
FF
FF
FE
FC
FB
FC
03
08
03
00
03
FF
FA
FA
FC
FF
00
FF
FF
FE
FD
FD
05
0F
0D
08
08
02
FD
FC
FE
FF
00
FF
00
FF
FF
FF
06
14
14
11
0D
05
FF
FF
FF
00
00
FF
01
00
00
00
04
11
19
15
0F
05
00
FF
00
00
00
FF
FF
00
00
01
05
10
1D
15
0E
05
00
00
00
FE
FE
FF
00
00
00
03
0B
13
1A
19
10
06
01
01
01
FE
FE
FF
FF
FF
00
03
0B
12
10
14
11
06
02
02
01
00
FF
00
FF
FF
00
03
08
0A
06
05
06
04
02
02
01
FF
FE
FF
00
FF
00
02
03
02
01
FF
00
00
01
01
00
FF
FF
00
00
00
FF
FF
FF
FD
F7
F4
F8
FE
FF
00
FF
00
00
00
FF
FF
FF
FE
FC
F8
EF
EE
F4
FB
FE
FF
FF
FF
00
00
FF
FE
FE
FD
FB
F5
EB
EA
F1
FA
FD
FE
FF
FF
FF
FF
FF
FE
FD
FD
FA
F2
ED
EC
F3
F8
FC
FD
FE
FF
FF
FF
FE
FD
FC
FC
F9
F4
F4
F5
F7
F9
FC
FD
FD
FF
00
FE
FD
FD
FC
FD
FD
FA
FB
FC
FB
FB
FB
FC
FD
FE
FF
FF
FD
FC
FB
FE
03
00
FF
00
01
FD
FB
FB
FC
FE
FF
FF
FE
FD
FB
FD
04
0A
05
04
05
00
FB
FB
FD
FF
00
FF
FF
FE
FD
FE
05
10
0D
08
08
02
FE
FC
FE
FF
00
FF
FF
00
FF
FF
06
14
13
0E
0A
03
FF
FF
00
FF
00
00
01
00
00
00
04
11
19
14
0E
04
FF
00
00
00
00
FF
00
00
00
01
06
12
1F
16
0F
05
01
00
00
FE
FE
FF
00
00
00
03
0B
15
1D
1A
0F
06
01
01
00
FF
FE
FF
FF
FF
00
03
0B
11
10
13
10
06
02
02
00
FF
FF
00
FF
00
00
03
07
09
06
05
05
03
01
02
01
FE
FE
00
00
FF
00
02
03
02
01
00
FF
00
00
01
01
FF
FF
00
00
00
00
00
FF
FD
F9
F6
F9
FE
FF
00
00
00
00
00
FF
FF
FF
FF
FD
F9
F1
EF
F5
FB
FE
FF
00
FF
00
00
FF
FE
FF
FE
FC
F5
EB
E9
F1
FA
FE
FE
FF
FF
FF
00
FF
FE
FE
FE
FA
F1
EA
E9
F1
FA
FD
FE
FF
FF
FF
FF
FE
FD
FD
FD
F9
F1
EF
F1
F6
FA
FC
FD
FD
FF
FF
FF
FE
FD
FC
FD
F9
F5
F5
F7
F8
FA
FC
FD
FE
FF
FF
FE
FE
FD
FC
FE
FF
FC
FB
FB
FC
FB
FB
FC
FC
FF
00
FF
FE
FD
FC
FE
04
07
03
01
01
FE
FB
FB
FD
FF
00
FF
FF
FE
FE
FF
06
10
0D
09
06
01
FE
FD
FE
FF
00
FF
00
00
FF
FF
06
15
13
10
0C
04
FE
FF
FF
00
00
00
01
00
00
FF
04
12
18
14
0E
03
FF
00
00
00
00
FF
00
00
00
01
06
11
1F
15
0D
03
00
00
00
FE
FE
FF
00
00
00
03
0B
15
1D
1B
10
05
01
01
00
FE
FE
FF
FF
FF
00
03
0B
11
10
14
11
05
02
02
01
00
FF
FF
FF
00
00
03
06
08
05
05
05
02
01
02
01
FE
FE
00
00
FF
00
02
03
02
01
00
FF
00
00
01
00
FF
FF
00
00
00
00
FF
FF
FD
F9
F7
FA
FE
FF
00
FF
FF
00
00
FF
FF
FF
FF
FE
FA
F2
F1
F6
FC
FE
FF
FF
00
00
00
FF
FF
FF
FF
FD
F6
EE
ED
F4
FB
FE
FE
FF
FF
00
00
FF
FE
FE
FE
FB
F4
EC
EC
F3
FB
FE
FE
FF
FF
00
FF
FE
FE
FE
FD
FA
F2
EE
F0
F4
FA
FD
FE
FE
FF
00
FF
FE
FD
FD
FD
F9
F3
F1
F4
F5
FA
FC
FD
FE
FF
00
FF
FE
FD
FD
FD
FC
F7
F7
F7
F8
FA
FB
FC
FD
FF
FF
FF
FE
FD
FD
FE
00
02
00
FB
FD
FB
FB
FC
FD
FF
00
FF
FF
FF
FE
FF
06
0D
08
03
02
FE
FD
FD
FE
FF
00
00
FF
00
00
00
06
14
11
0E
08
02
FF
FF
00
00
00
FF
01
00
00
00
04
12
19
14
0D
04
FF
FF
00
FF
00
FE
00
00
00
01
05
11
1C
15
0D
04
00
00
00
FF
FD
FF
FF
00
00
02
0A
14
1C
18
0D
05
01
00
00
FE
FF
FF
00
FF
00
03
0A
11
10
14
11
05
01
01
00
00
FF
FF
00
00
00
03
06
07
05
05
05
02
01
01
00
FE
FE
FF
FF
00
00
01
02
02
00
FF
FF
00
00
00
00
FE
FF
00
00
00
00
00
FF
FE
FA
F8
FB
FE
FF
FF
FF
00
00
FF
FF
FF
00
FF
FE
FB
F5
F4
F8
FD
FE
FF
00
00
00
00
FF
FF
FF
FF
FE
F8
F1
F0
F6
FC
FF
FF
FF
FF
FF
00
FF
FF
FF
FF
FD
F6
EF
EE
F4
FC
FE
FF
FF
FF
FF
FF
FF
FE
FE
FE
FC
F5
F1
F2
F6
FB
FE
FE
FE
00
00
FF
FE
FE
FE
FE
FB
F6
F4
F6
F7
FA
FD
FE
FE
FF
00
FF
FE
FE
FD
FD
FC
F8
F8
F8
F8
FB
FD
FD
FD
FF
FF
FF
FE
FE
FD
FD
FE
FE
FD
FA
FB
FC
FC
FC
FD
FF
00
FF
FF
FF
FE
FE
02
07
02
FC
FC
FD
FD
FD
FE
FF
00
FF
FF
00
FF
FF
05
0D
08
02
00
FF
FE
FF
FF
00
00
00
00
00
00
00
04
0D
11
0C
05
00
FF
00
00
FF
00
FE
FF
FF
00
00
05
11
18
12
0B
03
00
00
00
FF
FD
FF
FF
FF
00
02
0A
13
1A
17
0D
05
00
00
00
FE
FF
FF
FF
00
00
03
0A
10
0F
13
0F
03
01
01
00
FF
FE
FF
FF
00
00
02
05
07
04
05
05
02
00
00
00
FE
FE
00
FF
FF
00
01
02
01
00
FF
00
00
00
00
00
FE
FE
00
FF
00
00
FF
FF
FE
FB
F9
FC
FF
FF
00
FF
FF
00
FF
FF
FF
FF
FF
FE
FB
F6
F5
F9
FE
FF
FF
FF
FF
00
FF
FF
FF
FF
FF
FE
FA
F4
F3
F7
FD
FE
FF
FF
FF
00
00
FF
FF
FF
FF
FE
F9
F3
F2
F7
FC
FF
FF
FF
FF
00
FF
FF
FE
FF
FE
FC
F8
F5
F6
F9
FC
FE
FF
FF
FF
FF
FF
FE
FE
FE
FF
FC
F7
F7
F8
F9
FC
FD
FE
FF
FF
00
FF
FE
FE
FD
FE
FD
F9
F8
F9
F9
FB
FD
FD
FD
FF
00
FF
FF
FE
FE
FE
FD
FC
FB
FA
FA
FC
FD
FD
FE
FF
00
FF
FF
FF
FE
FE
00
03
00
FB
FA
FD
FE
FE
FE
FF
00
FF
FF
FF
FF
FF
03
08
03
FD
FC
FE
FE
FF
FF
00
00
FF
00
FF
FF
FF
02
06
07
01
00
FF
FF
00
FF
FF
FF
FE
FF
00
FF
00
04
0B
0C
08
05
01
FF
00
00
FE
FC
FF
FF
00
FF
02
08
14
13
0E
0A
04
00
00
00
FE
FE
FF
FF
FF
00
02
09
0F
0D
10
0B
02
00
00
FF
FE
FE
FF
FF
FF
FF
01
05
06
04
04
04
01
00
00
FF
FE
FD
FF
FF
FF
00
00
01
01
00
00
FF
00
00
00
FF
FE
FE
00
FF
FF
00
FF
FF
FE
FC
FA
FC
FE
FF
FF
FF
FF
00
FF
FF
FF
FF
FF
FE
FC
F8
F7
FB
FE
FE
FF
FF
FF
FF
FF
FF
FF
FF
FF
FE
FB
F6
F6
FA
FD
FF
FF
FF
FF
FF
FF
FF
FF
FF
FF
FE
FA
F5
F5
F9
FD
FF
FF
FF
FF
00
FF
FF
FF
FF
FE
FD
F9
F7
F7
F9
FD
FE
FE
FF
FF
00
FF
FE
FE
FE
FF
FD
F8
F8
F8
F9
FD
FD
FE
FF
FF
00
FF
FE
FE
FE
FE
FD
F9
F9
FA
FA
FD
FE
FE
FE
FF
FF
FF
FE
FE
FE
FE
FE
FC
FB
FB
FC
FE
FE
FE
FE
FF
00
FE
FF
FE
FE
FF
FF
00
FD
FB
FB
FE
FF
FE
FF
FF
00
FF
FF
FF
FF
FF
00
04
00
FC
FB
FD
FE
FF
FF
00
00
FF
00
00
FF
FF
01
04
03
FD
FD
FE
FE
FF
FF
FF
FF
FD
FF
FF
FF
00
02
06
04
00
FE
FF
00
00
FF
FE
FB
FE
FF
FF
FE
00
05
0C
09
03
03
02
00
FF
FF
FE
FE
FF
FF
FF
FF
00
05
0B
09
09
05
01
00
00
FF
FE
FD
FF
FF
FF
FF
00
03
05
03
04
02
00
FF
FF
FF
FE
FC
FF
FF
FF
00
00
00
00
00
FF
FF
FF
00
00
FF
FE
FE
FF
FF
FF
FF
FF
FF
FE
FC
FB
FC
FE
FF
FF
FE
FF
00
FF
FE
FE
FF
FF
FE
FD
F9
F8
FB
FE
FE
FE
FF
FE
FF
FF
FE
FE
FF
FF
FE
FB
F7
F7
FA
FE
FF
FE
FF
FF
FF
FF
FF
FF
FF
FF
FE
FA
F6
F7
FA
FE
FF
FF
FF
FF
FF
FE
FF
FF
FF
FF
FD
F9
F7
F9
FB
FE
FE
FE
FE
FF
00
FE
FE
FF
FE
FF
FD
F9
F9
F9
FA
FE
FD
FE
FE
FF
00
FE
FE
FF
FE
FE
FD
FA
F9
FB
FB
FD
FE
FD
FE
FF
00
FF
FE
FE
FE
FF
FE
FB
FA
FA
FC
FE
FE
FE
FF
FF
FF
FE
FF
FE
FE
FE
FF
FE
FB
FA
FA
FD
FF
FF
FF
FF
00
FF
FF
FF
FF
FE
FF
FF
FD
FB
FB
FC
FE
FF
FF
FF
00
FF
FF
FF
FF
FF
FF
FF
FF
FC
FC
FE
FE
FF
FF
FE
FE
FC
FE
FF
FF
FF
00
01
FF
FD
FD
FE
FF
00
FF
FE
FA
FE
FE
FF
FE
FF
01
03
00
FC
FE
FF
FF
FF
FF
FD
FD
FE
FF
FF
FE
FE
01
03
01
00
FF
FF
FF
FF
FF
FD
FC
FF
FF
FF
FF
FF
00
01
01
01
00
FF
FF
FF
FF
FD
FB
00
FF
FF
FF
FF
FF
00
00
FF
FF
FF
FF
FF
FF
FE
FD
