FF
FD
FE
00
02
05
04
00
FD
FF
02
02
01
FE
FE
FF
FF
FE
FF
02
09
0A
08
01
FD
02
09
09
04
01
FF
FE
00
00
01
08
0E
0E
09
01
FC
04
0E
12
0D
06
02
00
FF
00
06
09
0E
0D
08
FE
FA
04
10
15
13
0E
05
00
FD
FF
06
09
0C
0B
07
FC
FC
08
13
18
14
13
08
01
FC
FB
03
07
08
08
03
FD
FF
0D
16
1C
19
13
08
00
FC
F8
FD
03
03
02
FB
F9
04
0E
1B
22
20
13
04
FF
FE
FA
F8
FB
FC
FB
F5
F5
FD
08
17
28
26
15
04
00
00
FE
FD
FA
FA
F7
F3
F0
F3
FB
0A
11
13
07
01
00
00
FF
FE
FD
FC
FA
F3
ED
EE
F4
FC
01
00
00
01
00
FF
FD
FF
FF
FF
FC
F4
ED
EF
F5
FC
FF
FF
00
00
01
FD
FD
FF
FE
FE
FB
F2
EB
EF
F4
FE
01
00
00
01
FD
FE
FC
FF
FE
FC
F6
ED
EB
EA
F2
FB
00
FF
00
02
FE
00
FF
FF
FF
FA
F4
EF
F1
EE
F0
FA
FF
FE
FF
00
FE
FF
FE
FF
FE
FB
F7
F7
F9
F8
F7
FB
FE
FD
FE
00
FD
00
FF
FF
FF
FC
FC
FD
FE
FF
FF
FE
FF
FE
FE
01
FD
FF
FD
FE
FF
02
04
03
FF
FC
FE
00
00
00
FF
FE
FE
FF
FF
FF
02
08
0A
06
FE
FA
FF
05
07
04
01
FF
FE
00
00
02
08
0C
0B
05
FD
FA
03
0C
0F
0B
05
02
00
FF
FF
06
09
0D
0A
03
FE
FD
05
0F
12
10
0A
04
00
FD
FE
05
0A
0B
07
03
FE
FF
03
0C
11
0F
0D
05
00
FD
FB
01
07
08
05
02
FF
00
05
0E
13
0F
0C
05
00
FC
FA
FC
01
04
FF
FB
FB
01
07
13
1A
17
0E
02
FF
FE
FB
FA
FB
FC
FC
F7
F7
FC
04
10
1F
1E
10
02
FF
00
FD
FC
FB
FA
F8
F5
F3
F5
FB
05
0C
0C
05
01
00
00
FF
FE
FE
FD
FB
F5
F1
F1
F7
FC
01
00
01
00
00
FF
FC
FF
FF
FF
FD
F7
F0
F2
F8
FD
FF
FF
00
00
00
FD
FD
FF
FF
FE
FC
F5
EF
F2
F6
FE
01
00
FF
02
FD
FF
FD
FF
FE
FC
F8
F0
EF
EF
F5
FD
00
FF
FF
02
FE
00
FF
FF
FF
FB
F6
F2
F4
F1
F3
FA
FF
FE
FE
00
FD
00
FF
FF
FE
FC
F8
F9
FA
F9
F8
FB
FE
FE
FE
00
FD
00
FF
FF
FF
FD
FD
FD
FE
FF
FF
FE
FF
FE
FE
01
FE
FF
FD
FE
FF
01
04
02
FE
FA
FC
00
00
00
FE
FE
FF
FF
FE
FF
02
08
09
06
FD
F9
FD
05
06
03
01
FF
FE
00
FF
01
07
0B
0B
06
FD
F8
00
08
0C
09
04
01
00
FF
FE
05
08
0B
0B
04
FB
F8
01
0B
0F
0E
08
02
00
FD
FD
03
08
0A
08
03
FB
FD
05
0D
10
0D
09
04
00
FC
FB
00
05
07
05
01
FE
01
08
0D
10
0D
09
03
FF
FD
F9
FC
00
02
00
FC
FC
03
07
10
16
12
0A
00
FE
FF
FB
FA
FC
FB
FB
F8
F8
FC
03
0C
19
18
0C
01
FF
FF
FD
FD
FB
FB
F9
F6
F3
F5
F9
02
08
09
04
02
00
00
FF
FE
FE
FD
FB
F6
F2
F2
F8
FC
00
00
01
01
FF
FF
FC
FF
FF
FF
FD
F8
F2
F3
F8
FD
FF
FF
00
FF
FF
FD
FD
FF
FE
FE
FD
F6
F1
F3
F6
FD
00
FF
FF
01
FC
FF
FD
FF
FE
FC
F8
F3
F1
F1
F6
FC
00
FF
FF
02
FE
00
FE
FF
FF
FB
F8
F5
F6
F3
F5
FB
FF
FE
FE
FF
FC
00
FF
FF
FF
FC
FA
F9
FB
FA
F9
FB
FE
FE
FE
00
FC
00
FF
FF
FF
FD
FD
FD
FE
FF
FF
FE
FF
FE
FE
01
FE
FF
FD
FE
FE
01
04
02
FE
F9
FB
FF
FF
FF
FE
FE
FF
00
FE
FE
01
08
09
04
FD
F9
FC
02
05
02
00
FF
FE
00
FF
FF
06
0C
0B
05
FD
FA
FF
06
09
08
03
00
00
FF
FE
02
08
0C
0A
03
FC
FB
01
09
0C
0C
07
02
00
FD
FE
01
06
0A
07
02
FA
FB
03
0A
0E
0B
09
03
00
FC
FB
FF
02
05
06
00
FB
FF
09
0F
11
0D
08
02
FF
FD
FA
FD
FF
00
00
FD
FB
04
0B
12
17
12
09
FF
FF
FE
FB
FA
FC
FB
FA
F9
F9
FE
04
0D
18
16
09
00
00
FF
FD
FC
FB
FB
F9
F7
F5
F6
FA
02
08
09
05
02
00
00
FE
FE
FE
FD
FC
F7
F3
F3
F7
FB
FF
00
01
01
FF
FF
FC
FE
FF
FF
FD
F8
F3
F3
F8
FC
FF
FF
00
FF
FF
FD
FD
FF
FF
FE
FD
F7
F1
F3
F6
FD
00
FF
FF
01
FB
FF
FD
FF
FE
FD
FA
F5
F3
F1
F6
FC
00
FF
FF
01
FE
00
FF
FF
FE
FB
F9
F6
F7
F5
F5
FB
FF
FE
FE
FF
FC
FF
FE
FF
FF
FC
FA
FA
FB
FB
F9
FB
FE
FE
FE
00
FC
00
FF
FF
FF
FE
FD
FD
FF
FF
FF
FE
FF
FF
FE
00
FE
00
FE
FE
FE
00
03
01
FF
FA
FB
FE
FF
FF
FE
FE
FF
FF
FE
FD
FF
06
08
04
FF
FA
FC
01
02
01
FF
FF
FE
00
FF
FF
03
0A
0A
04
FD
FA
FF
05
07
06
03
01
FF
00
FF
02
04
0A
08
02
FB
FC
02
09
0C
0B
07
02
00
FD
FD
01
04
07
06
00
FB
FE
05
0B
0F
0C
0A
03
00
FC
FB
FE
02
04
04
FE
FD
02
08
0D
11
0F
09
02
00
FD
FA
FC
FE
00
FF
FB
FB
06
09
13
18
14
0B
02
00
FF
FB
FA
FA
FA
FA
F8
F9
FE
05
0E
19
17
0C
01
00
FF
FD
FD
FC
FA
F8
F7
F5
F6
FB
04
0A
0A
05
02
00
00
FE
FE
FE
FD
FC
F7
F3
F3
F8
FB
FF
00
01
01
FF
FF
FD
FF
FF
FF
FD
F9
F3
F3
F8
FC
FE
FF
00
FF
FF
FD
FD
FF
FF
FE
FD
F7
F2
F3
F6
FD
00
FF
FF
01
FB
FF
FD
FF
FE
FD
FA
F5
F3
F1
F5
FC
00
FF
FF
01
FE
00
FE
FF
FF
FC
F9
F7
F7
F5
F5
FB
FF
FE
FE
FF
FC
FF
FF
FF
FF
FD
FB
FB
FC
FB
FA
FB
FE
FE
FE
00
FC
00
FF
FF
FF
FE
FD
FD
FE
FF
FF
FE
FF
FE
FE
00
FE
00
FE
FE
FE
FF
01
01
FE
FB
FC
FE
FF
FF
FE
FE
FF
FF
FE
FE
00
02
04
04
FF
FC
FD
01
03
01
FF
FF
FE
00
FF
FF
04
05
06
05
00
FD
01
06
08
06
02
00
FF
FF
FF
02
05
04
04
03
FD
FC
02
08
0C
0A
07
02
00
FD
FE
00
04
03
01
01
FC
FD
05
0B
0F
0B
08
03
01
FC
FB
FE
02
02
FF
FE
FD
01
0A
0F
12
0E
09
04
01
FD
F9
FB
FD
FF
FD
FA
FB
06
0B
14
19
17
0E
05
01
FE
FB
F9
F8
FA
FA
F7
F9
FE
06
0F
1B
1A
10
04
00
FF
FD
FC
FB
F9
F7
F6
F5
F7
FC
04
0B
0B
06
01
00
00
FF
FE
FE
FD
FC
F7
F3
F3
F7
FB
FF
00
00
00
FF
FF
FD
FF
FF
FF
FD
F8
F4
F3
F7
FC
FD
FF
00
FF
FF
FD
FD
FF
FF
FE
FD
F7
F2
F3
F6
FD
00
FF
00
00
FB
FF
FD
FF
FE
FD
FA
F6
F2
F1
F6
FC
00
FF
FF
01
FE
FF
FE
FF
FF
FC
FA
F8
F7
F5
F5
FB
FF
FE
FE
FF
FC
00
FF
FF
FF
FD
FB
FB
FC
FB
FA
FB
FE
FE
FE
FF
FC
00
FF
FF
FF
FE
FE
FE
FF
FF
FE
FE
FF
FF
FE
01
FE
FF
FE
FE
FF
00
01
FF
FE
FC
FD
FE
FF
FE
FD
FE
FF
FF
FF
FE
00
03
02
01
FE
FC
FE
02
04
01
FF
FF
FE
00
00
FF
02
05
04
01
FE
FE
03
07
09
06
02
01
FF
FF
FF
01
01
04
02
FF
FD
FF
06
0B
0C
0A
06
02
00
FD
FD
00
00
02
00
00
FD
00
06
0A
0E
0B
0A
05
01
FC
F9
FD
FD
FF
FF
FD
FD
01
08
0E
12
11
0C
06
01
FC
F8
F9
FA
FA
FB
FA
FB
05
0C
16
1D
1A
11
06
01
FE
FA
F7
F7
F7
F7
F7
F8
00
09
13
1E
1D
12
04
00
FF
FD
FC
FA
F9
F7
F6
F5
F8
FD
05
0B
0C
05
02
00
00
FF
FE
FE
FC
FB
F7
F4
F4
F7
FB
FF
00
00
00
FF
FF
FD
FF
FF
FF
FD
F8
F4
F3
F7
FB
FE
FE
FF
FF
FE
FD
FD
FF
FF
FE
FD
F8
F2
F3
F6
FC
FF
FF
FF
00
FB
FF
FD
FF
FE
FD
FB
F6
F3
F1
F6
FC
FF
FF
FF
01
FE
FF
FE
FF
FF
FC
FA
F8
F8
F6
F6
FB
FF
FE
FE
FF
FC
FF
FE
FF
FF
FD
FB
FB
FC
FB
FA
FC
FE
FE
FE
FF
FC
00
FF
FF
FF
FE
FE
FE
FF
FF
FE
FE
FF
FF
FE
00
FD
FF
FE
FF
FE
00
01
00
FF
FC
FD
FE
00
FF
FE
FE
FF
00
FF
FF
00
03
03
02
00
FE
FF
02
04
02
00
FF
FE
FF
FF
FF
02
04
04
00
FF
FD
02
07
09
07
04
00
FF
FF
FC
00
00
02
03
FF
FD
FF
04
0A
0E
0E
09
03
00
FC
FA
FC
FE
FF
01
FF
FE
FF
06
0D
12
10
0D
06
01
FC
F7
F7
FB
FB
FF
FE
FE
02
0B
12
15
13
0E
06
01
FD
F7
F4
F5
F6
F9
F8
FB
06
0D
17
1D
1B
12
07
00
FE
F9
F6
F4
F4
F4
F4
F8
00
09
13
1F
1E
12
04
00
FF
FD
FC
F9
F8
F6
F6
F5
F9
FE
08
0E
0F
07
02
00
FF
FF
FF
FE
FD
FC
F7
F4
F4
F8
FB
FF
00
00
00
00
FF
FD
FF
FF
FF
FD
F9
F4
F3
F8
FB
FD
FE
00
FF
FF
FD
FD
FF
FF
FE
FE
F9
F3
F3
F6
FC
FF
FF
FF
00
FA
FF
FD
FF
FE
FD
FB
F7
F4
F2
F6
FC
FF
FF
FF
01
FD
FF
FE
FF
FF
FC
FA
F9
F8
F6
F7
FB
FE
FE
FE
FF
FC
FF
FE
FF
FF
FD
FB
FB
FC
FC
FB
FC
FE
FE
FE
FF
FC
00
FF
FF
FF
FE
FD
FE
FF
FF
FF
FE
FF
FF
FE
00
FD
00
FE
FE
00
FF
01
00
00
FE
FE
FF
FF
FF
FE
FE
FF
FF
FE
FE
00
01
02
03
02
00
00
03
04
02
00
FE
FE
00
FE
FD
00
01
02
04
02
00
03
08
0B
0A
05
01
FF
FE
FC
FB
FE
00
00
02
00
FF
05
0C
11
11
0A
03
FF
FD
F8
F6
FB
FE
FD
00
FE
FF
07
10
15
13
0E
05
00
FC
F6
F1
F4
FA
FA
FE
FE
03
0E
14
17
15
0E
06
00
FC
F7
F2
EE
F3
F4
F7
FB
09
10
19
1D
1A
11
06
00
FE
FA
F6
F3
F0
F1
F2
F7
02
0A
13
1D
1C
11
04
00
FF
FD
FB
FA
F8
F5
F5
F5
F9
FE
08
0E
0F
08
03
00
00
FF
FE
FE
FD
FB
F8
F5
F4
F7
FB
FF
00
01
00
FF
FF
FD
FF
FF
FF
FD
F9
F5
F5
F8
FB
FD
FF
00
FF
FE
FD
FD
FF
FF
FF
FD
F9
F4
F5
F7
FD
FF
FF
FF
00
FA
FF
FD
FF
FE
FD
FB
F8
F5
F4
F8
FC
FF
FF
FF
00
FE
FF
FE
FF
FE
FC
FB
F9
F9
F8
F8
FC
FF
FE
FE
FF
FC
FF
FF
FF
FE
FD
FB
FC
FC
FC
FB
FC
FE
FE
FE
FF
FC
00
FF
FF
FF
FE
FE
FE
FF
FF
FF
FE
FF
FE
FF
00
FE
00
FE
FE
FE
00
01
00
01
FF
00
00
00
FF
FE
FE
FF
FF
FE
FD
FE
02
02
02
02
01
01
05
06
02
00
FF
FE
FF
FE
FB
FB
01
03
03
03
02
06
0B
0E
0A
04
00
FF
FF
FC
F8
F7
FD
01
02
01
04
0A
11
13
11
09
02
00
FD
F8
F4
F3
F8
FE
00
01
06
0D
13
16
12
0E
05
00
FC
F6
F1
EF
F2
F9
FC
01
07
12
15
18
15
0F
06
00
FC
F7
F1
EE
ED
F1
F4
FB
0A
10
19
1D
1A
10
05
00
FE
FA
F6
F2
EF
EF
F0
F8
02
0A
13
1C
1B
10
03
00
FF
FD
FC
FA
F7
F5
F5
F6
F9
FE
07
0D
0F
08
03
00
FF
FF
FE
FE
FD
FB
F8
F6
F6
F8
FC
FF
00
01
00
FF
FF
FD
FF
FF
FF
FD
FA
F6
F5
F9
FC
FD
FE
00
FF
FE
FD
FD
FF
FE
FE
FD
FA
F5
F5
F8
FD
FF
FF
FF
00
FB
FF
FD
FF
FE
FD
FB
F8
F6
F5
F8
FC
FF
FE
FF
00
FE
FF
FE
FE
FF
FC
FB
FA
FA
F8
F9
FC
FF
FE
FE
FF
FC
FF
FF
FF
FF
FD
FC
FC
FC
FC
FB
FC
FF
FE
FE
FF
FC
00
FF
FF
FF
FE
FE
FE
FE
FF
FE
FE
FF
FF
FE
00
FE
FF
FE
FE
FE
FE
00
01
02
00
00
01
00
00
FE
FF
FF
FF
FE
FD
FC
FD
FF
02
02
02
04
07
06
02
00
FF
FE
00
FE
FB
F9
FA
FF
02
03
05
09
0C
0D
09
03
00
FF
FF
FC
F8
F5
F7
FC
00
05
08
0C
10
11
11
08
02
FF
FD
F8
F3
F1
F3
F9
00
07
08
0E
14
16
12
0C
03
00
FC
F6
F1
EE
EF
F4
FD
06
08
12
17
18
13
0D
05
00
FC
F6
F2
EE
ED
EE
F4
FD
0A
11
17
1A
17
0F
05
00
FE
FA
F6
F2
EF
EF
F0
F8
03
0A
12
1A
1A
0F
03
00
FE
FD
FC
F9
F7
F5
F5
F7
FB
00
07
0D
0E
07
03
00
FF
FF
FE
FE
FD
FC
F9
F7
F7
F9
FC
FF
00
00
00
FF
FF
FD
FF
FF
FF
FE
FA
F7
F7
FA
FC
FD
FF
00
FF
FE
FD
FD
FF
FF
FE
FD
FA
F6
F7
F9
FE
FF
FF
FF
00
FB
FE
FD
FF
FE
FD
FC
F9
F7
F5
F9
FD
FF
FF
FF
00
FE
FF
FE
FF
FF
FD
FC
FA
FA
F8
F9
FD
FF
FE
FF
FF
FC
FF
FF
FF
FF
FD
FC
FC
FD
FD
FB
FD
FF
FF
FE
FF
FC
00
FF
FF
FF
FE
FE
FE
FF
FF
FE
FF
FF
FF
FF
FF
FE
FF
FE
FE
FE
FE
FE
FE
00
00
01
01
00
FF
FE
FE
FF
FF
FE
FD
FC
FC
FB
FE
02
03
04
07
06
03
00
FF
FF
FF
FE
FB
F9
F8
F9
FF
04
05
09
0D
0D
09
03
00
FF
FF
FC
F9
F5
F4
F7
FF
05
09
0E
11
11
0E
07
01
FF
FD
F9
F5
F3
F1
F5
00
07
0B
0F
13
13
10
0B
03
00
FC
F6
F3
F0
EF
F2
FE
06
0A
11
14
15
12
0C
04
00
FC
F7
F2
EF
EE
EE
F5
FF
0A
10
15
19
16
0F
04
00
FE
FA
F6
F2
F0
F0
F2
FA
04
0B
12
19
18
0E
03
00
FE
FE
FC
F9
F7
F5
F7
F9
FD
01
08
0C
0D
06
02
00
00
FF
FE
FE
FD
FC
F9
F8
F9
FB
FD
00
00
00
00
00
FF
FE
FF
FF
FF
FD
FB
F8
F8
FB
FD
FE
FF
FF
FE
FE
FC
FD
FF
FF
FE
FE
FA
F7
F8
F9
FD
FF
FF
FF
FF
FB
FF
FD
FF
FE
FD
FB
F9
F7
F6
FA
FD
FF
FF
FF
FF
FE
FF
FF
FF
FF
FD
FB
FA
FA
F9
F9
FD
FF
FF
FE
FE
FC
00
FF
FF
FF
FE
FC
FD
FD
FD
FB
FD
FF
FF
FF
FE
FC
00
FF
FF
FF
FF
FE
FE
FE
FF
FF
FF
FF
FF
FF
FF
FE
FF
FF
FE
FE
FF
FF
FE
FE
FD
FE
00
00
FF
FE
FE
FF
FF
FE
FD
FD
FD
FD
FD
FD
FE
01
05
05
02
00
FF
FE
FF
FE
FC
FA
FB
FB
FD
FE
02
07
0A
0C
08
03
00
FF
FF
FC
F9
F6
F7
F9
FE
01
06
0A
0E
10
0E
07
01
FF
FD
FA
F6
F3
F3
F7
FF
03
07
0B
11
12
0E
09
02
00
FC
F8
F4
F1
F1
F6
FE
04
06
0F
13
13
0F
0A
04
00
FC
F8
F3
F0
F0
F2
F7
FF
09
10
15
18
13
0E
04
00
FE
FB
F6
F3
F1
F2
F4
FC
05
0B
11
19
18
0E
03
00
FE
FE
FC
F9
F8
F7
F8
FA
FE
02
08
0C
0C
06
02
00
FF
FF
FF
FE
FD
FC
FA
FA
FB
FD
FE
00
00
00
00
00
FF
FE
FF
FF
FF
FE
FC
FA
FA
FC
FE
FE
FF
00
FF
FF
FD
FE
FF
FF
FE
FE
FA
F8
F9
FA
FE
FF
FF
FF
FF
FB
FF
FD
FF
FE
FD
FC
FA
F8
F7
FA
FD
FF
FF
FF
FF
FE
FF
FE
FF
FF
FD
FB
FA
FA
F9
FA
FD
FF
FF
FF
FF
FC
FF
FF
FF
FF
FE
FC
FC
FD
FC
FB
FD
FF
FF
FE
FF
FC
FF
FF
FF
FF
FE
FE
FE
FF
FF
FF
FF
FF
FF
FF
FF
FE
00
FF
FE
FF
FF
FF
FE
FE
FD
FD
FE
FF
FF
FE
FF
FF
FF
FF
FE
FE
FF
FE
FE
FD
FC
FD
FF
01
00
FF
FF
FF
00
FF
FD
FD
FE
FE
FE
FC
FB
FF
03
07
05
02
00
FF
FF
FD
FB
FA
FC
FD
FD
FC
00
04
09
0A
0A
05
01
00
FD
FA
F7
F7
F9
FC
FE
FF
01
08
0D
0E
0B
07
02
00
FD
F8
F4
F3
F6
FB
FD
01
04
0B
0F
10
0E
08
02
00
FD
F8
F4
F2
F3
F7
FA
FE
07
0C
11
15
12
0C
03
00
FE
FB
F8
F4
F3
F5
F7
FC
03
09
0F
15
14
0D
02
00
FE
FE
FD
FA
F9
F9
FA
FB
FE
02
07
0B
0B
05
01
00
FF
FF
FF
FE
FD
FD
FC
FB
FC
FE
FE
00
00
00
00
FF
FF
FE
FF
FF
FF
FE
FD
FB
FC
FE
FE
FE
FF
00
FF
FF
FD
FE
FF
FF
FF
FE
FC
FA
FC
FC
FF
FF
FF
FF
FF
FB
FF
FE
FF
FE
FE
FC
FA
F9
F9
FB
FD
FF
FF
FF
FF
FE
FF
FF
FF
FF
FD
FC
FA
FB
F9
FA
FD
FF
FF
FF
FE
FC
FF
FF
FF
FF
FE
FC
FD
FD
FC
FB
FD
FF
FF
FF
FF
FC
00
FF
00
FF
FE
FE
FE
FF
FF
FE
FF
FF
FF
FF
FF
FE
00
FF
FF
FF
FF
FF
FE
FE
FD
FD
FF
FF
FF
FF
FF
FF
FF
FF
FF
FF
FF
FE
FE
FD
FC
FD
FF
FF
FF
FF
FF
FF
FF
FF
FE
FE
FF
FF
FE
FD
FC
FD
FF
00
01
00
00
FF
FF
FE
FD
FE
FF
FE
FE
FD
FD
FE
00
03
05
04
00
FF
FE
FC
FA
FC
FD
FE
FE
FD
FF
02
06
08
08
06
02
00
FE
F9
F7
F8
FC
FD
FD
FF
01
07
0B
0B
0A
06
01
00
FD
F9
F6
F5
F8
FC
FC
FE
04
09
0C
0F
0C
08
02
00
FE
FC
F8
F6
F6
F9
FA
FD
02
06
0A
10
10
0B
02
00
FF
FE
FE
FB
FA
FA
FB
FC
FE
00
05
08
09
05
01
00
FF
FF
FF
FF
FE
FD
FD
FC
FC
FE
FF
00
00
00
00
00
FF
FE
FF
FF
FF
FE
FD
FC
FD
FE
FE
FE
FF
00
FF
FF
FD
FE
FF
FF
FE
FE
FD
FB
FD
FD
FF
FF
FF
FF
FF
FB
FF
FE
FF
FF
FE
FD
FB
FA
FA
FC
FE
FF
FF
FF
FF
FE
FF
FE
FF
FF
FD
FC
FB
FB
FB
FB
FE
FF
FF
FF
FE
FD
FF
FF
FF
FF
FE
FD
FD
FE
FD
FC
FE
FF
FF
FF
FF
FC
00
FF
FF
FF
FF
FE
FF
FF
FF
FE
FF
FF
FF
FF
FF
FE
FF
FF
FF
FF
FF
FF
FE
FE
FD
FE
FF
FF
FF
FE
FF
FF
00
FE
FF
FF
FF
FE
FE
FD
FD
FD
FF
FF
FF
FF
FF
FF
FF
FF
FF
FF
FF
FF
FE
FD
FD
FE
FF
FF
FF
FF
FF
FF
FF
FF
FF
FF
FF
FF
FE
FD
FD
FE
FF
00
00
00
00
FF
FF
FE
FE
FE
FE
FE
FE
FD
FD
FE
00
01
01
02
01
00
FE
FC
FB
FD
FE
FE
FD
FE
FE
02
03
04
04
04
01
00
FE
FC
FA
FA
FD
FE
FD
FD
01
04
07
09
07
04
00
00
FF
FD
FB
FA
FB
FC
FC
FD
00
03
06
08
07
04
01
00
FF
FF
FD
FD
FC
FC
FC
FC
FD
FF
01
04
05
03
01
00
00
FF
FF
FF
FE
FE
FD
FC
FD
FE
FE
00
01
00
00
00
FF
FE
FF
FF
FF
FE
FD
FD
FD
FE
FE
FF
FF
FF
FF
FF
FD
FE
FF
FF
FF
FE
FD
FC
FD
FD
FF
FF
FF
FF
FF
FC
FF
FE
FF
FE
FE
FD
FC
FB
FB
FD
FE
00
FF
FF
FE
FE
FF
FF
FF
FF
FE
FD
FD
FC
FC
FC
FE
FF
FF
FF
FE
FD
FF
FF
FF
FF
FF
FD
FE
FE
FD
FD
FE
FF
FF
FF
FE
FD
00
FF
00
FF
FF
FE
FF
FF
FF
FF
FF
FF
FF
FF
FF
FE
