02
04
02
01
0d
04
09
02
10
01
02
2a
04
0a
07
03
02
08
05
02
04
01
0a
09
02
02
03
02
09
07
07
04
06
0b
08
03
09
0f
22
2c
31
21
15
07
03
04
02
03
04
01
06
12
1d
2d
41
4e
5c
50
4b
42
27
05
07
05
06
01
0e
21
32
41
49
54
5f
61
56
54
49
28
04
05
03
0f
08
1c
2c
2b
2b
3b
3f
4f
57
4c
4a
37
10
0b
07
03
03
0a
10
21
28
33
44
53
63
5d
5d
3c
0e
05
01
02
09
08
03
08
17
21
4b
64
75
6b
5b
36
0d
06
0d
01
06
00
00
14
07
19
52
78
74
63
51
1c
05
05
08
02
01
00
00
06
0c
1b
42
35
22
20
10
07
0f
09
07
01
01
00
01
04
0b
18
2a
1b
02
03
03
05
0a
03
07
08
00
03
01
10
09
12
22
10
05
03
03
01
06
03
08
06
07
03
0a
04
10
08
16
07
05
02
06
06
05
06
11
02
09
05
08
06
0b
07
09
05
03
04
03
06
05
08
07
04
0a
04
07
06
04
05
09
03
0b
06
05
04
04
03
04
09
07
04
03
0b
04
06
09
04
09
41
04
26
27
12
02
03
03
01
0d
05
09
02
11
01
02
28
04
0a
06
03
02
08
05
01
03
01
0b
08
02
02
03
02
09
06
07
04
07
0b
07
05
1d
33
3a
2a
24
15
0c
03
03
04
01
03
04
01
0e
41
6c
75
64
4b
38
27
21
0e
0e
04
07
05
06
13
62
80
83
77
61
46
34
2e
20
0e
0b
0f
03
05
06
4f
88
85
62
47
43
4c
3a
2d
2a
12
09
05
07
0c
11
4a
74
53
45
4f
60
63
5d
40
30
18
10
08
04
05
0b
3d
45
38
40
3f
4b
4d
61
56
33
16
08
04
04
06
0e
1b
30
2b
2e
45
34
3b
59
56
24
0f
16
05
02
05
08
04
09
0c
0b
1a
1e
34
52
1f
06
08
04
05
10
0a
07
01
00
00
02
0c
14
34
45
1f
02
03
03
05
0b
03
07
08
00
03
02
17
13
25
44
12
05
05
03
01
05
02
07
06
08
0a
0d
08
15
0d
21
08
06
02
06
06
05
06
10
02
10
0c
0d
07
0e
0a
0c
07
06
04
03
06
06
08
06
04
0a
05
0b
07
05
05
0c
03
0c
06
06
04
04
03
03
09
06
04
05
0d
04
07
09
04
0b
42
04
26
27
12
02
03
02
01
0d
04
09
02
10
01
03
29
04
0a
06
03
02
09
05
01
03
01
0a
08
02
02
03
02
09
06
06
04
06
0b
07
06
0f
08
07
03
08
04
04
02
04
04
01
02
04
01
14
38
2a
12
09
04
08
03
08
06
0d
03
08
04
05
12
47
43
34
1c
0c
04
03
07
05
05
09
10
02
06
07
57
5a
3b
2e
20
12
11
04
03
0b
03
05
04
08
0b
1b
60
4d
2c
2a
35
36
1f
0f
03
07
04
0b
07
04
06
21
74
49
3e
41
3a
40
2b
16
09
03
02
05
03
04
06
1b
6e
7e
6f
61
63
3e
33
22
11
04
04
17
04
02
05
08
1c
31
37
2a
28
1f
27
25
0a
03
08
03
05
0f
0a
08
03
02
01
02
0a
12
25
18
16
03
03
03
05
0a
02
07
07
00
03
02
16
10
1b
1c
0c
06
05
03
01
06
02
07
06
08
08
0d
06
14
0d
17
08
08
03
07
07
05
05
10
02
09
08
0a
06
0d
0b
0d
09
07
05
03
06
05
07
07
05
0a
05
0a
06
06
06
0b
05
0e
07
06
05
04
03
04
09
07
04
05
0b
05
09
08
07
10
43
04
27
27
11
02
03
03
01
0c
04
09
01
10
01
02
29
03
0a
06
03
02
08
05
01
04
01
0a
09
02
02
03
02
08
06
07
04
06
0b
07
03
07
03
07
03
08
03
03
02
03
04
02
03
04
01
03
06
03
04
05
03
07
02
07
06
0d
03
07
04
06
02
03
04
08
07
06
03
03
07
05
04
08
0e
02
06
05
16
05
06
0b
04
05
07
02
02
0a
02
05
04
07
0b
17
19
05
03
04
0f
0f
0d
06
02
06
04
0b
06
04
06
1e
32
1b
15
0e
0c
0e
11
0d
07
02
02
05
03
03
07
2c
60
5a
4f
3f
3a
1d
10
11
07
04
03
16
04
02
05
13
2a
3e
43
31
23
15
14
15
07
03
08
03
05
10
0a
08
05
06
03
02
04
0c
12
09
14
02
03
03
05
0b
03
08
07
00
03
02
13
09
0f
0b
0b
05
04
03
01
06
03
07
06
08
11
0d
06
11
09
0f
06
07
03
07
06
05
06
10
03
0a
09
0a
06
0e
0a
0a
08
06
04
03
06
05
08
07
05
0a
05
09
06
08
08
09
07
0d
06
06
05
03
03
04
09
07
04
04
0b
06
09
08
0b
0f
42
03
27
28
11
