02
04
03
01
0e
07
14
09
18
0b
0b
2c
04
0a
07
03
09
09
07
02
04
04
11
07
02
06
0a
04
0a
06
07
04
03
0b
07
03
07
06
08
01
06
02
09
04
03
04
02
03
04
01
02
05
02
08
07
03
06
02
0c
0a
0d
03
09
05
04
01
02
03
08
0e
0a
08
04
0a
08
07
07
0e
02
07
03
10
03
04
0b
08
06
07
04
05
10
05
03
02
07
0c
06
02
01
02
02
0d
0a
08
08
06
0a
03
0a
04
02
06
01
02
08
07
01
00
04
07
0a
0a
04
00
03
01
02
07
0c
03
04
00
00
10
01
01
09
07
03
03
14
03
02
06
08
02
02
00
00
02
01
01
0c
03
02
09
03
05
11
09
07
01
01
00
03
00
07
02
02
12
02
05
04
07
0a
03
09
08
03
04
03
0f
03
02
04
07
06
04
06
02
06
03
08
08
09
06
09
03
08
01
08
05
06
02
07
08
05
06
12
03
06
07
07
06
0a
04
06
05
02
04
04
07
07
09
08
05
0a
04
07
06
05
04
06
02
09
06
08
07
04
03
04
0b
07
04
05
08
05
03
02
03
06
42
03
2a
28
14
02
03
02
01
0f
14
46
46
54
3a
21
2e
04
0a
08
03
09
09
06
02
04
23
46
42
38
2f
27
07
09
06
08
04
03
0a
07
04
08
33
3f
2f
2e
21
2c
0d
03
03
02
03
03
01
01
04
0d
3e
3f
35
36
21
2e
1c
0e
03
08
05
04
01
01
02
25
50
44
34
28
2a
2e
2b
11
0e
02
07
02
0f
02
06
32
4f
3c
41
2b
20
36
29
0d
02
07
0c
06
02
02
08
22
4a
37
39
33
1e
2f
21
11
04
02
06
01
01
08
0d
1a
35
3c
3c
42
20
20
0f
08
01
02
06
0b
02
03
03
1d
47
30
26
29
19
15
0e
19
03
02
05
08
02
02
01
0c
22
27
1d
19
0c
12
14
06
05
12
09
07
01
02
00
07
1e
1f
17
0a
18
16
0d
06
06
0b
03
09
08
03
04
08
21
22
26
14
10
17
0b
09
02
05
02
06
08
08
06
0e
15
2d
21
18
0f
13
08
0b
08
05
06
11
03
07
08
0b
17
2f
24
13
11
0d
0a
06
08
07
09
09
06
0b
06
0b
1b
20
19
13
12
19
0f
0b
07
04
03
04
0b
07
07
13
21
0f
0a
09
17
13
48
06
2b
28
14
02
04
02
01
0e
06
21
2b
34
1d
08
29
04
0a
06
03
09
09
06
01
03
0b
3c
42
3a
33
13
05
09
05
07
04
02
0a
07
03
07
1e
45
49
49
42
23
0a
03
03
01
03
03
01
02
04
06
2d
54
51
4f
47
38
14
0d
03
07
04
04
01
01
03
14
42
67
54
3d
4a
3e
1b
0b
0d
01
06
03
0f
02
04
22
48
63
6a
3f
3e
4b
2b
13
02
07
0b
06
03
01
02
18
4d
60
66
49
3b
53
36
1d
03
03
06
01
02
07
08
16
5d
6c
65
50
40
69
39
19
02
02
06
0c
03
03
03
27
7f
86
81
53
3c
4f
3a
21
02
02
05
08
02
02
02
26
7b
93
6a
3c
20
52
40
0f
05
11
09
07
01
02
00
22
6b
70
4c
22
2c
5a
37
0f
05
09
03
08
08
03
04
20
5a
6c
8e
2f
1d
57
2f
12
02
06
03
08
09
0a
08
19
4a
8b
7f
3c
21
46
28
15
0a
05
06
12
04
09
0b
13
45
9d
9d
4f
34
41
26
14
0b
08
08
08
07
0b
0a
11
41
7e
71
55
57
64
30
16
0d
04
02
04
0b
07
0c
1a
37
54
4f
40
79
60
64
17
33
28
13
03
04
03
01
0e
05
0c
03
12
03
03
2c
04
0a
06
02
09
0a
06
02
04
02
0b
09
04
03
04
02
09
06
07
04
02
0b
07
03
07
03
07
03
09
04
05
02
03
04
01
03
03
01
02
05
02
03
06
06
0a
04
07
05
0d
03
08
04
04
01
01
03
07
07
0a
14
11
12
05
03
07
0e
01
08
02
11
02
04
0a
03
0a
15
11
0e
12
02
03
02
07
0c
06
02
01
02
03
0d
0f
16
0f
0e
13
03
0b
04
02
06
01
01
08
08
02
02
14
10
0f
12
12
02
04
01
02
07
0c
03
04
00
02
1b
0e
0b
0e
11
14
06
16
02
01
05
08
03
02
00
06
15
10
0a
11
0b
16
14
04
05
12
09
07
01
02
00
08
17
15
0d
07
16
1c
14
05
06
0a
03
0a
08
03
05
0e
2d
1b
10
0b
0d
28
17
09
02
06
02
07
09
0b
06
0f
1c
2d
15
13
0e
26
17
0c
09
05
06
12
04
09
0b
11
26
36
20
13
10
1c
18
0a
08
07
09
09
07
0b
08
0d
21
23
1a
14
14
2b
1b
0f
09
04
03
04
0c
08
08
0c
18
20
18
11
1a
2b
58
13
2e
28
14
