02
04
03
01
13
07
0d
03
13
02
03
30
05
0c
07
04
0a
0b
08
03
06
04
0e
0b
05
05
04
02
0b
07
07
06
04
0d
08
07
0a
06
0a
07
0c
06
05
02
04
04
02
04
04
01
02
09
06
06
0a
08
0b
06
08
05
0f
03
09
05
05
01
02
07
0e
0b
0f
10
0a
10
06
02
08
11
02
06
03
12
03
0a
15
07
0d
16
0b
0b
10
01
03
02
09
0d
07
03
02
06
0c
12
12
18
0f
0f
12
05
0c
04
03
07
01
02
09
0d
0b
10
18
15
12
17
17
08
06
03
02
07
0c
03
04
06
11
35
1b
10
17
17
1f
12
1c
04
02
06
09
03
02
07
18
2b
1d
12
17
08
19
20
09
06
14
0b
09
01
03
05
1c
25
1e
12
06
16
1a
1c
0d
09
0c
04
0a
0a
03
06
22
30
1b
17
0a
0c
1d
21
13
04
08
03
09
08
0a
06
25
24
2a
19
13
0a
17
1d
15
09
06
07
13
03
06
09
23
2c
34
1c
14
10
1b
1b
10
09
07
0a
09
06
0a
08
25
39
21
18
1a
26
36
22
12
06
05
04
04
0d
0a
0c
23
4b
27
1e
23
28
37
68
17
32
2d
17
03
04
13
2d
67
51
6d
52
53
3b
36
4d
19
0e
07
03
09
0a
18
2f
5c
4a
55
44
3d
38
3b
2a
22
0c
07
05
03
0c
18
32
56
49
46
37
34
2d
39
31
22
0b
02
03
03
02
0f
2e
4e
4c
45
3e
41
34
40
39
2e
0c
08
04
05
02
0a
1f
49
56
52
40
34
3e
45
3d
2a
17
02
06
02
11
09
16
3f
58
45
51
33
2e
58
45
25
0b
07
0b
07
03
07
0d
23
57
3f
56
3d
2e
5a
46
25
0d
03
06
01
02
0e
12
20
4b
54
45
40
50
67
3c
1d
0a
02
07
0b
02
0b
11
34
63
5f
57
52
3b
43
36
25
07
02
05
08
03
09
11
2d
57
55
3e
39
18
42
3d
12
06
11
0a
08
01
04
0c
2b
4c
46
31
1d
29
48
3a
15
09
0a
03
09
08
03
0d
2a
4d
51
5a
28
20
50
3b
1c
05
06
03
07
08
08
0c
31
4f
68
5a
39
23
47
3a
1c
0a
05
07
11
02
06
15
28
53
6d
65
46
43
63
3e
18
08
07
08
08
05
0a
0c
27
5d
58
51
43
7b
92
48
1b
06
04
04
03
0b
0a
0c
15
73
44
45
44
6d
86
8f
27
36
2a
14
03
04
03
13
3a
46
41
1f
2e
25
3c
52
12
0c
08
03
0a
0b
07
15
2e
43
35
1b
15
1a
35
28
1a
09
08
05
04
0b
09
14
2f
41
25
10
17
14
33
2b
11
07
02
03
04
01
02
13
22
3e
23
14
1e
12
37
2e
1c
07
09
05
05
01
02
0c
1d
3b
2a
29
1f
25
37
2a
13
13
02
07
03
11
03
0c
1d
2c
21
30
21
1d
41
22
0b
04
08
0c
07
03
02
07
0e
24
28
28
22
21
39
17
0e
05
03
07
01
02
08
0c
0a
0f
25
21
23
1f
23
08
05
02
02
07
0c
03
04
05
0b
1c
17
13
1e
15
0b
06
19
04
01
06
0a
03
02
03
09
12
13
0c
1a
0b
09
0e
05
06
12
0a
08
01
02
02
0b
0e
18
10
0a
17
0e
0b
06
08
0b
04
0a
08
02
04
0c
1b
17
17
0d
0c
10
0a
09
02
07
03
07
08
09
06
10
0d
1d
14
14
0a
0d
07
0d
09
06
07
14
03
07
14
10
0f
16
14
10
0f
0c
0c
07
09
08
0a
09
06
0b
0e
14
0f
0d
0c
0d
12
0f
0c
0f
08
05
03
04
0c
0b
0e
17
15
08
09
09
0d
0a
4c
0a
36
2f
16
03
04
03
02
12
14
1f
06
14
08
0c
35
06
0c
07
03
0a
0b
07
03
05
12
1b
0c
04
07
0d
06
0c
07
07
05
03
0c
07
04
09
12
11
04
08
06
0c
05
05
05
02
03
03
01
02
06
03
0e
0f
06
0a
04
0e
08
10
04
09
05
05
01
02
04
07
0d
11
14
0f
11
0b
06
0a
11
02
08
03
12
03
06
0d
05
0c
11
0e
0b
15
04
04
03
08
0d
07
03
02
02
03
0f
11
12
0e
0d
14
04
0b
04
02
06
01
02
08
09
01
01
0c
0f
12
10
0c
02
04
01
02
08
0d
03
04
00
00
13
06
04
0f
0b
07
04
1a
03
01
05
09
03
02
00
01
07
06
04
11
06
07
0c
05
06
14
0b
09
01
02
00
03
04
0f
07
06
14
08
08
05
07
0b
03
09
08
03
04
07
15
0b
09
07
0b
0a
08
08
02
07
03
08
09
09
06
11
08
12
08
0e
08
0a
05
0b
09
06
07
13
03
07
15
12
0e
11
0b
0b
0b
08
0a
06
08
08
0a
09
05
0a
0b
11
0c
0a
09
0b
0e
0b
08
0b
07
04
03
04
0c
0a
0e
14
11
07
07
07
0b
09
4d
06
33
2f
16
