03
07
0a
04
2a
02
01
10
02
09
04
0d
01
02
04
02
04
07
07
09
02
03
02
02
09
0a
01
04
02
05
08
02
03
02
04
03
07
15
21
31
2c
22
0f
09
03
08
0b
06
05
07
05
27
42
4b
50
5c
4e
41
2d
1d
12
06
01
04
05
04
28
49
54
56
61
5f
54
49
41
32
21
0e
01
06
0b
10
37
4a
4c
57
4f
3f
3b
2b
2b
2c
1c
08
0f
03
05
0e
3c
5d
5d
63
53
44
33
28
21
10
0a
03
03
07
06
0d
36
5b
6b
75
64
4b
21
17
08
03
08
09
02
01
05
05
1c
51
63
74
78
52
19
07
14
00
00
06
01
0d
09
0f
07
10
20
22
35
42
1b
0c
06
00
00
01
02
08
03
0a
05
03
03
02
1b
2a
18
0b
04
01
00
01
01
07
03
06
01
03
03
05
10
22
12
09
10
01
03
00
08
07
06
05
06
06
02
05
07
16
08
10
04
0a
03
07
06
08
08
05
06
03
04
03
05
09
07
0b
06
08
05
09
02
11
03
04
04
05
06
0b
03
09
05
04
06
07
04
0a
04
07
12
27
26
04
41
09
04
09
06
04
0b
03
04
07
09
04
03
06
0a
04
28
02
01
11
02
09
05
0d
01
03
03
02
04
07
06
09
02
03
02
02
08
0b
01
03
01
05
08
02
03
01
04
03
03
0c
15
24
2a
3a
33
1d
05
07
0b
07
05
07
04
0e
0e
21
27
38
4b
64
75
6c
41
0e
01
04
05
03
0f
0b
0e
20
2e
34
46
61
77
83
80
62
13
06
0c
07
05
09
12
2a
2d
3a
4c
43
47
62
85
88
4f
06
05
04
08
10
18
30
40
5d
63
60
4f
45
53
74
4a
11
06
04
04
08
16
33
56
61
4d
4b
3f
40
38
45
3d
0b
05
02
05
16
0f
24
56
59
3b
34
45
2e
2b
30
1b
0e
0a
10
05
04
08
06
1f
52
34
1e
1a
0b
0c
09
04
08
03
0b
05
03
03
02
1f
45
34
14
0c
02
00
00
01
07
02
05
01
03
05
05
12
44
25
13
17
02
03
00
08
07
06
05
06
06
02
06
08
21
0d
15
08
0d
0a
08
06
07
08
06
06
03
04
06
07
0c
0a
0e
07
0d
0c
10
02
10
03
04
04
06
06
0c
03
0c
05
05
07
0b
05
0a
04
06
12
27
26
04
42
0b
04
09
07
04
0d
05
04
06
09
03
03
06
0a
04
29
03
01
10
02
09
04
0d
01
02
03
02
04
06
06
09
02
03
02
02
08
0a
01
03
01
05
09
02
02
01
04
04
02
04
04
08
03
07
08
0f
06
07
0b
06
04
08
03
0d
06
08
03
08
04
09
12
2a
38
14
01
04
06
02
10
09
05
05
07
03
04
0c
1c
34
43
47
12
05
0b
08
04
05
03
0b
03
04
11
12
20
2e
3b
5a
57
07
06
04
07
0b
04
07
03
0f
1f
36
35
2a
2c
4d
60
1b
06
04
03
05
02
03
09
16
2b
40
3a
41
3e
49
74
21
05
02
04
17
04
04
11
22
33
3e
63
61
6f
7e
6e
1b
0a
0f
05
03
08
03
0a
25
27
1f
28
2a
37
31
1c
08
02
0a
05
03
03
03
16
18
25
12
0a
02
01
02
03
08
02
06
01
03
05
06
0c
1c
1b
10
16
02
03
00
07
07
05
05
07
07
03
08
08
17
0d
14
06
0d
08
08
06
07
07
05
06
03
05
07
09
0d
0b
0d
06
0a
08
09
02
10
03
04
05
06
07
0e
05
0b
06
06
06
0a
05
0a
05
07
11
27
27
04
43
10
07
08
09
05
0b
05
04
07
09
04
03
06
0a
03
29
02
01
10
01
09
04
0c
01
03
03
02
04
07
06
08
02
03
02
02
09
0a
01
04
01
05
08
02
03
02
04
03
02
03
03
08
03
07
03
07
03
07
0b
06
04
07
03
0d
06
07
02
07
03
05
04
03
06
03
01
04
06
02
0e
08
04
05
07
03
03
06
07
08
04
03
02
06
0b
07
04
05
02
0a
02
02
07
05
04
0b
06
05
16
05
06
04
06
0b
04
06
02
06
0d
0f
0f
04
03
05
19
17
07
03
03
05
02
02
07
0d
11
0e
0c
0e
15
1b
32
1e
05
02
04
16
03
04
07
11
10
1d
3a
3f
4f
5a
60
2c
0a
10
05
03
08
03
07
15
14
15
23
31
43
3e
2a
13
03
0b
05
03
03
02
14
09
12
0c
04
02
03
06
05
08
03
06
01
03
04
05
0b
0b
0f
09
13
02
03
00
07
08
06
05
06
07
03
07
06
0f
09
11
06
0d
11
08
06
07
08
05
06
03
04
06
08
0a
0a
0e
06
0a
09
0a
03
10
03
03
05
06
06
0d
07
09
08
08
06
09
05
0a
05
07
11
28
27
03
42
0f
0b
08
09
06
0b
04
04
07
09
04
