93
00
15
51
00
00
02
00
00
00
00
01
00
00
03
00
1D
04
00
00
00
00
00
00
0D
04
09
00
09
00
08
0C
00
00
00
00
00
00
00
00
00
00
00
00
25
00
24
13
00
00
00
00
00
00
00
00
00
00
00
46
0B
00
00
00
00
00
00
00
00
00
00
00
00
00
00
00
00
00
02
00
00
00
00
00
00
00
00
00
00
00
00
00
00
01
00
00
02
01
01
00
00
00
00
00
00
00
00
00
01
00
00
0A
03
02
01
01
00
00
00
00
01
01
01
01
00
00
00
01
02
02
01
01
00
00
01
01
01
01
00
00
00
00
08
06
00
00
01
01
00
00
00
00
00
00
00
00
00
00
00
00
00
00
00
00
00
00
00
00
00
00
06
00
00
00
00
00
00
00
00
00
00
00
00
00
00
04
00
0B
07
02
00
00
03
00
00
00
00
00
00
00
00
00
00
16
08
0D
1D
10
16
01
00
00
00
00
00
00
00
3C
0F
1E
00
20
0B
3D
47
14
03
00
00
00
00
00
00
00
2C
4A
08
14
02
13
4C
00
27
2D
00
00
00
00
07
1D
00
03
35
12
16
25
47
01
18
24
08
08
1E
00
0A
00
00
01
14
02
02
00
11
08
00
00
00
00
00
00
03
0B
01
02
06
0D
06
17
00
00
00
00
00
00
00
00
00
13
00
00
1D
03
0B
04
00
00
00
00
00
00
00
00
00
01
00
14
00
00
00
00
00
00
00
00
00
00
00
00
00
00
01
00
00
00
00
00
00
00
00
00
00
00
00
00
00
00
00
00
00
00
00
04
00
00
00
00
00
00
00
00
00
00
00
00
01
00
01
07
01
00
00
00
00
00
00
00
00
01
01
01
00
00
01
06
00
00
00
00
00
00
00
01
01
01
00
00
00
00
06
07
00
00
00
00
00
00
00
00
00
00
00
00
00
00
00
00
00
00
00
00
00
00
00
00
00
00
05
01
01
01
00
00
00
00
00
00
00
00
00
00
00
04
00
00
00
02
00
00
00
00
00
00
00
00
00
00
00
00
00
0C
04
09
12
09
09
01
00
00
00
00
00
00
00
0B
00
00
00
01
09
2C
21
07
02
00
00
00
00
00
02
05
0F
23
07
06
00
0A
2C
00
09
0F
00
00
00
00
04
32
0C
02
13
0B
00
15
32
02
0C
27
0F
05
18
07
0A
05
00
01
16
02
00
00
12
09
00
00
00
00
00
00
03
08
01
04
03
0D
00
19
01
00
00
00
00
00
00
00
00
09
00
0E
19
01
03
02
00
00
00
00
00
00
00
00
00
01
05
0C
00
00
00
00
00
00
00
00
00
00
00
00
00
01
01
00
00
00
00
00
00
00
00
00
00
00
00
00
00
00
00
00
00
00
00
01
00
00
00
01
00
00
00
00
00
00
00
00
00
00
00
04
01
00
00
01
01
00
00
00
00
01
00
00
00
00
01
05
00
00
00
00
01
00
01
00
00
00
00
00
00
00
06
05
00
00
00
00
00
00
00
00
00
00
00
00
00
00
00
00
00
00
00
00
00
00
00
00
00
00
00
00
00
00
00
00
00
00
00
00
00
00
00
00
00
02
00
00
00
01
00
00
00
00
00
00
00
00
00
00
00
00
00
0A
06
07
0D
06
0B
00
00
00
00
00
00
00
00
00
00
09
00
03
07
25
1F
05
00
00
00
00
00
00
06
00
12
18
02
04
00
0A
0D
00
0D
0B
00
00
00
00
03
28
12
01
09
05
00
14
26
02
05
31
0F
04
14
12
07
07
00
01
10
02
00
01
11
0C
00
00
00
00
00
00
04
05
04
05
02
0F
00
15
01
00
00
00
00
00
00
00
00
0B
00
0A
16
01
05
04
00
00
00
00
00
00
00
00
00
01
06
08
00
00
00
00
00
00
00
00
00
00
00
00
00
01
01
00
00
00
00
00
00
00
00
00
00
00
00
00
00
00
00
00
00
00
00
0A
01
00
01
01
00
00
00
00
00
00
00
00
00
00
00
02
01
01
01
01
00
00
01
01
00
00
00
00
00
00
01
06
00
01
00
00
00
00
01
01
00
00
00
00
00
00
06
08
00
00
00
00
00
00
00
00
00
00
00
00
00
00
00
00
00
00
00
00
00
00
00
00
00
00
00
00
00
00
00
00
00
00
00
00
00
00
00
00
00
02
00
00
00
00
01
00
00
00
00
00
00
00
00
00
00
00
03
06
03
06
0A
05
07
00
00
00
00
00
00
00
00
06
00
11
00
06
05
31
19
05
00
00
00
00
00
00
06
00
12
17
02
04
01
0A
06
07
11
08
01
00
00
00
04
1B
1B
01
08
03
00
11
24
04
04
2A
0E
03
10
09
09
03
00
01
0D
02
00
01
0E
08
01
00
00
00
00
00
03
03
03
02
01
08
00
17
01
00
00
00
00
00
00
00
00
07
02
07
0C
03
04
02
00
00
00
00
00
00
00
00
00
01
00
0A
00
00
00
00
02
00
00
00
00
00
00
00
00
01
01
00
00
00
00
00
00
00
00
00
00
00
00
00
01
00
00
00
00
00
00
00
01
00
01
01
00
00
00
00
00
00
00
00
00
00
00
01
01
01
01
01
00
00
00
00
00
00
00
00
00
00
01
03
00
01
01
01
00
00
01
00
00
00
00
00
00
00
04
08
00
00
00
00
00
00
00
00
00
00
00
00
00
00
00
00
00
00
00
00
00
00
00
00
00
00
00
00
00
00
01
00
00
00
00
00
00
00
00
00
00
01
00
03
00
00
01
00
00
00
00
00
00
00
00
00
00
00
03
00
05
0A
0C
05
04
00
00
00
00
00
00
00
00
00
02
08
00
0B
0C
25
16
04
00
00
00
00
00
00
02
00
14
1B
03
04
03
0C
06
00
0B
04
00
00
00
00
02
15
14
01
04
02
01
0D
1B
02
00
24
07
00
0B
0A
05
01
00
01
0C
01
00
03
0A
02
00
01
00
00
00
00
01
01
00
02
04
03
04
0B
02
09
00
00
00
00
00
00
00
05
02
04
09
03
05
03
00
00
00
00
00
00
00
00
00
01
04
03
03
00
00
00
02
00
00
00
00
00
00
00
00
01
01
00
00
00
00
00
00
00
00
00
00
00
00
00
01
01
01
01
00
00
00
00
01
01
01
00
00
00
00
00
00
00
00
00
00
00
00
00
01
01
01
01
00
00
01
00
00
00
00
00
00
00
00
00
01
01
01
01
01
01
01
01
00
00
00
00
00
00
02
05
00
01
02
02
02
01
01
00
00
00
00
00
00
00
00
00
00
00
00
00
00
00
00
00
00
00
00
00
00
00
00
00
00
00
00
00
00
00
00
00
00
00
00
03
00
00
01
00
07
00
00
00
00
00
00
00
00
00
01
00
04
03
09
05
05
00
00
00
00
00
00
00
00
01
00
0D
00
05
07
1A
14
05
00
00
00
00
00
00
03
00
0D
17
03
06
00
05
05
06
07
00
00
00
00
00
02
0E
0E
01
07
02
06
10
0F
04
00
23
01
02
13
03
01
00
01
01
0F
01
01
03
0A
02
02
00
00
00
00
00
00
00
04
00
04
09
06
03
01
0B
00
00
00
00
00
00
00
04
00
01
07
05
09
05
01
00
00
00
00
00
00
00
00
02
08
00
08
00
00
00
06
00
00
00
00
00
00
00
00
01
01
00
00
00
00
01
03
00
01
00
00
00
00
00
01
01
01
01
01
01
00
00
01
01
01
00
00
00
00
00
00
01
01
01
00
00
00
02
01
00
00
01
00
01
01
00
00
01
00
00
00
00
00
02
01
01
01
01
00
01
01
01
01
00
00
00
00
00
01
05
02
04
02
02
01
01
01
01
00
00
00
00
00
00
00
00
05
01
00
00
01
00
00
00
00
00
01
00
00
00
00
00
04
00
01
00
00
00
00
00
00
00
03
0B
00
00
00
00
09
00
00
00
00
00
00
00
00
00
02
05
04
04
0B
03
03
00
00
00
00
00
00
00
00
06
0A
0C
00
05
04
12
13
05
03
00
00
00
00
00
02
00
0F
10
02
05
07
0A
12
02
08
07
00
00
00
00
02
08
06
02
0A
04
07
07
00
20
2D
52
06
49
1A
0C
00
04
0D
23
00
23
1C
02
1B
1A
28
00
5F
00
19
00
1B
00
00
00
00
25
00
00
00
00
2C
00
00
00
00
00
00
11
00
0D
11
44
34
00
15
2C
00
00
24
00
10
00
00
00
00
2F
36
00
0D
0C
00
07
00
22
18
2C
00
00
00
00
5B
17
0A
16
00
00
00
00
00
3E
00
00
00
00
00
00
42
9A
1B
53
00
00
00
00
0F
36
00
00
00
34
00
07
68
41
00
3D
0C
00
22
00
05
00
00
00
6E
4F
00
71
00
00
21
4D
00
00
03
00
00
00
00
00
00
50
7D
00
23
4E
00
43
6A
22
00
0C
1E
00
7B
00
20
00
00
00
00
5D
00
03
00
14
00
00
01
40
20
0D
00
00
00
00
25
00
00
48
00
5B
26
00
0B
37
00
3C
99
00
2A
00
1F
54
30
17
00
1C
00
00
38
5F
00
02
00
65
00
00
00
2D
00
06
43
19
00
3A
00
00
00
00
49
1F
00
1F
00
00
00
00
46
00
03
00
34
00
03
47
20
33
00
08
00
00
3A
15
22
00
5C
18
3E
00
2F
2C
00
00
00
1B
00
20
02
10
00
00
