01
04
00
01
02
0D
00
09
00
01
00
00
00
00
00
16
05
00
00
0B
03
00
03
03
00
16
10
00
00
04
00
33
0C
01
00
02
16
02
07
00
02
03
04
02
00
00
00
34
03
0B
00
0D
09
01
10
00
24
05
05
00
04
00
01
00
32
00
00
06
00
00
02
01
04
0C
02
05
00
00
00
67
00
02
01
07
00
0D
00
02
00
00
00
00
02
00
0C
06
00
00
00
00
01
00
00
00
04
02
0F
04
00
00
00
05
18
00
07
06
00
00
00
00
13
1A
01
03
0B
00
02
01
00
0A
00
00
00
07
0A
04
00
05
11
08
00
00
00
03
0C
0C
06
05
00
04
11
02
19
17
00
00
12
0B
01
00
03
00
00
00
03
00
0D
02
43
34
01
15
00
01
00
03
00
02
09
00
07
0F
01
03
47
48
00
00
0F
09
02
00
00
00
00
00
00
05
00
0B
37
75
02
00
14
09
00
00
00
00
05
00
00
06
00
10
5B
6F
04
00
03
04
08
00
00
01
11
00
00
12
06
1B
6F
3A
00
02
01
00
03
00
00
00
04
01
00
00
05
1D
56
1F
08
07
03
0D
07
00
01
04
00
01
03
0F
00
09
00
03
00
00
00
00
00
15
04
00
00
09
01
00
03
03
00
15
0F
00
00
05
00
34
0D
00
00
01
16
03
08
00
00
05
04
01
00
00
00
36
04
0B
00
0C
0A
01
0F
00
23
05
03
00
00
00
01
00
2E
00
00
06
00
00
03
01
05
0C
01
04
00
00
00
66
00
02
00
07
00
0C
00
01
00
00
00
00
02
00
0C
07
00
00
00
00
01
00
00
00
01
00
0B
02
00
00
00
08
17
00
09
04
00
00
00
00
16
1E
04
06
0C
00
04
01
00
0A
00
00
00
0A
0D
08
08
09
19
10
00
00
00
03
0C
0B
06
04
00
06
18
16
2E
1B
00
00
11
08
01
00
03
00
00
00
02
00
10
1F
71
36
05
19
00
00
00
03
00
02
08
00
07
0F
00
25
7F
41
00
00
0F
0A
06
00
00
00
01
00
00
05
00
2B
8A
5F
00
00
0C
08
00
01
00
00
07
00
00
06
06
45
C9
4D
00
00
03
0A
09
00
00
03
10
00
01
21
45
86
CC
1C
00
03
01
00
02
00
00
00
05
00
00
00
34
32
2D
02
08
09
02
0E
07
00
00
04
00
01
02
0E
00
09
00
03
00
00
00
00
00
15
03
00
00
0B
03
00
02
03
00
16
10
00
00
05
00
32
0D
00
00
01
19
02
09
00
02
04
05
01
00
00
00
35
04
0C
00
11
09
01
0F
00
25
06
05
00
01
00
01
00
30
00
00
05
00
00
00
00
05
0C
01
04
00
00
00
66
00
02
01
06
00
08
00
00
00
00
00
00
02
00
0E
0C
00
00
00
00
00
00
00
00
00
00
06
00
00
00
00
03
17
00
08
06
00
00
00
00
12
27
08
0B
0D
03
07
00
00
0A
00
00
02
11
10
13
22
11
23
15
00
00
00
02
0C
0D
05
04
00
09
2E
42
52
23
00
04
13
08
01
00
03
00
00
00
04
00
2A
4A
98
44
08
1A
00
00
00
01
00
02
09
00
08
14
2F
5C
92
4D
00
00
11
08
02
00
00
00
01
00
0C
2A
36
59
81
71
00
00
01
07
00
00
00
00
06
05
39
7A
70
5F
BC
64
00
00
01
04
09
00
00
04
11
00
29
9F
89
B5
B8
20
00
02
02
00
02
00
00
00
06
00
00
00
15
28
25
00
08
07
03
0F
08
00
01
04
00
01
03
0F
00
09
00
03
00
00
00
00
00
17
04
00
00
0B
02
00
02
03
00
14
0F
00
00
04
00
31
0D
01
00
02
16
03
0A
00
01
06
07
01
00
00
00
36
04
0C
00
0F
0C
01
10
00
1C
00
04
00
01
00
02
00
30
00
00
00
00
00
00
00
00
00
02
05
00
00
00
67
00
03
00
00
00
00
00
00
00
00
00
00
02
01
0A
03
00
00
00
00
00
00
00
00
00
00
05
00
00
00
00
01
17
00
07
05
00
00
00
00
1E
2D
13
06
12
04
09
00
00
09
00
00
01
1A
25
30
26
1B
35
1C
00
00
00
01
0D
0A
05
0D
11
29
7A
72
45
21
00
09
14
05
01
00
02
00
0F
28
48
4E
6F
6F
A3
34
0F
1B
00
00
00
04
00
02
21
7C
98
7B
50
75
A4
22
00
00
0E
09
05
00
00
00
09
99
B9
8B
35
68
A6
3B
00
00
00
08
00
00
00
00
06
33
87
AA
86
90
E1
31
00
00
01
06
08
00
00
04
10
00
0F
6C
AE
C7
B2
0B
00
02
02
00
00
00
00
00
05
01
00
00
34
32
25
00
08
07
02
0E
07
00
00
05
01
02
02
10
00
08
00
03
00
00
00
00
00
18
04
00
00
0B
02
00
03
04
00
18
12
00
00
05
00
31
0D
02
00
03
17
04
09
00
03
05
07
02
00
01
00
34
05
0C
00
10
0B
00
0F
00
22
04
04
00
01
00
01
00
2B
00
00
00
00
00
00
00
00
00
01
05
00
00
00
65
00
02
00
00
00
00
00
00
00
00
00
00
00
00
09
00
00
00
00
00
00
00
00
00
18
00
0C
00
00
00
00
00
1A
00
00
00
00
00
17
1C
2A
2C
29
31
1E
02
0B
02
00
0A
26
3D
32
2A
2D
00
08
25
3B
0A
00
00
00
00
0E
0E
68
8E
67
3A
50
42
2B
1F
00
06
17
09
02
00
04
00
58
8C
83
46
70
54
69
35
13
1E
01
00
00
02
00
02
30
71
A4
82
72
75
5A
17
00
00
12
0E
07
00
00
00
03
4B
CD
CE
73
5B
49
20
00
00
07
0E
00
00
00
00
06
0C
A8
FF
CB
8A
7B
15
00
00
02
0E
0A
00
00
02
10
00
28
A2
AC
AA
52
00
00
05
01
00
01
00
00
00
06
00
01
00
20
18
0F
00
07
06
01
0E
05
00
00
03
00
02
03
0F
00
08
00
04
00
00
00
00
00
18
04
00
00
0A
02
00
03
03
00
16
0F
00
00
06
00
32
0D
00
00
04
17
05
0C
00
04
07
07
01
00
00
00
35
04
0C
00
11
12
0B
1A
05
26
06
05
01
02
00
01
00
2E
00
00
0E
00
00
2D
36
1C
0E
01
04
00
00
00
64
00
03
00
0B
00
0B
2C
4D
19
00
00
00
03
00
06
00
00
00
00
1A
2B
2C
52
75
6D
1E
1D
07
00
00
00
00
18
00
19
3D
35
21
67
70
84
87
71
62
2D
04
09
0A
00
09
06
36
54
4F
85
4A
35
37
52
31
00
03
00
07
0C
0D
23
7C
8E
57
8E
4F
30
1E
04
11
18
0E
02
00
04
00
28
B0
C7
46
42
39
53
13
0D
1B
04
08
00
0A
00
02
25
CA
E2
8C
3C
44
30
00
00
00
12
0D
07
00
00
00
03
5F
B9
D0
6E
46
00
00
00
00
06
0F
00
00
00
00
07
18
70
C1
AB
59
1B
00
00
00
03
10
0A
00
00
02
10
00
11
4C
42
1B
02
00
00
02
02
00
00
00
00
00
06
00
00
00
06
00
0E
00
08
09
02
0E
06
00
01
04
00
01
02
0F
00
09
00
02
00
00
00
00
00
16
04
00
00
0A
03
00
0A
06
03
16
10
00
00
04
00
32
0C
01
00
04
2D
2A
2E
1F
0C
07
07
02
00
00
00
35
04
0B
00
2C
62
6B
86
72
63
0B
05
00
05
00
02
00
2F
00
00
62
73
71
92
A0
85
29
02
03
00
00
00
67
00
02
13
5B
5C
7E
9B
D5
9D
29
02
00
04
00
0A
01
00
00
3D
85
8B
84
91
CB
E4
5B
27
17
00
00
00
00
18
00
6E
AE
A3
69
84
A0
AC
84
5B
48
28
09
0A
08
00
0C
64
9F
AB
6C
73
4D
2F
2A
34
1F
00
02
00
06
0D
0C
49
9E
A8
6F
61
31
07
16
00
08
14
0A
03
00
04
00
1A
6E
B0
6B
43
11
1E
0A
06
16
00
06
00
08
00
03
11
56
98
81
2B
06
00
00
00
00
0C
06
02
00
00
00
01
1F
5C
53
0C
08
00
00
00
00
00
07
00
01
00
00
07
09
15
13
02
0D
05
00
00
00
02
08
09
00
00
01
10
00
00
0D
01
00
00
00
00
03
00
00
00
00
00
00
04
00
01
00
03
00
0D
00
07
07
02
0E
07
00
01
04
00
01
01
0E
00
08
00
03
00
00
00
00
00
18
05
00
00
0A
06
0E
1D
1E
0B
15
0F
00
00
05
00
33
0D
03
00
05
52
83
94
7A
45
0D
06
01
00
00
00
33
04
0B
01
47
88
7C
AA
A8
AA
27
05
00
06
00
02
00
30
00
02
71
8C
6C
9D
C2
C5
41
02
04
00
00
00
67
00
02
21
8A
9E
8B
85
B1
B1
42
02
00
04
00
09
03
00
00
17
6F
99
71
62
75
A7
50
1A
14
00
00
00
00
17
00
2E
7B
7E
51
43
45
62
56
27
20
1D
06
08
09
00
0C
1A
54
60
4A
1C
00
05
0C
16
0D
00
03
00
07
0D
0C
20
36
2A
0F
11
00
00
06
00
00
10
0A
03
00
03
00
08
0D
13
00
09
00
1B
02
00
0E
00
05
00
0A
00
02
07
00
06
0B
00
00
00
00
00
00
0D
05
02
00
00
00
00
00
00
02
00
09
00
00
00
00
00
00
00
01
00
00
05
00
00
01
00
0B
05
00
00
00
01
00
08
00
00
04
0F
00
00
0D
01
00
00
00
00
02
02
00
01
00
00
00
04
00
02
00
04
00
0E
00
07
08
04
0E
05
00
