00
11
00
00
00
00
00
00
00
00
00
00
00
02
00
14
02
14
01
00
00
00
00
00
00
00
00
00
00
00
0A
00
0A
00
00
00
00
00
00
00
00
00
0B
14
09
00
00
02
00
00
00
00
00
00
00
00
00
00
3C
00
0C
0E
07
11
00
00
00
00
00
00
00
00
00
00
00
05
00
19
0B
49
00
00
00
00
00
00
00
00
00
00
00
00
00
03
17
3E
00
00
00
00
00
00
00
00
00
00
01
00
01
00
02
00
00
00
00
00
00
00
00
00
00
00
00
00
00
01
01
00
00
00
00
00
00
00
00
00
00
01
02
01
01
04
00
05
00
00
00
00
00
00
00
00
01
02
02
04
03
04
07
17
00
00
00
00
00
00
00
00
00
00
00
09
02
01
02
13
00
00
00
00
00
00
00
00
00
00
0C
00
08
04
06
13
01
00
00
00
00
00
00
00
00
2E
0F
06
17
00
00
10
19
00
00
00
00
00
00
00
00
55
14
19
41
00
00
00
3E
02
00
00
00
00
00
00
00
30
04
06
01
00
0F
28
00
32
20
00
03
00
00
00
00
00
1D
03
00
00
28
00
00
07
00
01
12
00
01
08
00
09
0F
01
00
00
00
08
00
03
01
00
00
00
00
00
00
00
02
00
00
00
0C
00
04
00
00
00
00
00
00
00
00
00
0E
07
00
01
00
04
00
00
00
00
00
00
00
00
00
00
1A
00
09
09
05
0A
00
00
00
00
00
00
00
00
00
00
00
0A
05
12
09
2C
00
00
00
00
00
00
00
00
00
00
00
00
00
01
0E
0D
00
00
00
00
00
00
00
00
00
00
00
00
00
00
00
00
00
00
00
00
00
00
00
00
00
00
00
00
00
00
00
00
00
00
00
00
00
00
00
00
00
01
01
00
00
01
00
04
00
00
00
00
00
00
00
00
01
01
01
01
01
01
03
0D
00
00
00
00
00
00
00
00
00
02
00
03
00
00
00
09
00
00
00
00
00
00
00
00
00
00
10
12
07
00
02
08
02
00
00
00
00
00
00
00
00
36
0E
00
08
00
00
06
02
00
00
00
00
00
00
00
00
21
10
15
29
0D
00
00
11
02
00
00
00
00
00
00
00
13
01
00
00
01
0D
09
00
2C
0C
00
00
00
00
00
00
00
03
01
00
00
17
00
00
04
00
00
0A
00
03
00
00
00
0A
00
00
00
00
05
00
00
01
00
00
00
00
00
00
00
01
00
00
00
0E
00
03
00
00
00
00
00
00
00
00
00
09
00
00
03
01
04
01
00
00
00
00
00
00
00
00
00
06
02
08
08
05
08
00
00
00
00
00
00
00
00
00
00
00
08
05
10
08
1D
00
00
00
00
00
00
00
00
00
00
00
01
00
01
09
03
00
00
00
00
00
00
00
00
00
00
01
01
01
00
00
00
00
00
00
00
00
00
00
00
00
00
00
00
00
01
00
00
00
00
00
00
00
00
00
00
00
01
01
00
01
01
00
01
00
00
00
00
00
00
00
00
01
02
02
02
01
01
03
0B
00
00
00
00
00
00
00
01
01
02
02
02
01
00
00
07
00
00
00
00
00
00
00
00
00
00
11
0B
04
01
02
07
01
00
00
00
00
00
00
00
00
30
05
00
02
02
00
04
00
00
00
00
00
00
00
00
00
20
0C
00
20
04
00
00
08
00
00
00
00
00
00
00
00
11
00
00
01
00
08
00
0D
0D
01
00
00
00
00
00
00
00
00
01
01
00
10
00
01
03
00
00
02
00
00
00
00
00
07
00
00
00
01
04
00
00
00
00
00
00
00
00
00
00
00
00
01
00
0D
00
02
00
00
00
00
00
00
00
00
00
05
00
00
03
00
02
06
00
00
00
00
00
00
00
00
00
06
03
08
07
04
07
00
00
00
00
00
00
00
00
00
00
00
06
05
0E
08
16
00
00
00
00
00
00
00
00
00
00
00
00
01
02
08
00
00
00
00
00
00
00
00
00
00
00
01
01
01
01
00
00
00
00
00
00
00
00
00
00
00
00
00
00
00
01
00
00
00
00
00
00
00
00
00
00
01
01
02
00
01
02
00
00
00
00
00
00
00
00
00
01
02
02
02
02
01
02
03
0A
00
00
00
00
00
00
00
01
01
03
08
05
01
01
02
07
00
00
00
00
00
00
00
00
00
00
10
0D
04
02
06
06
01
00
00
00
00
00
00
00
00
1D
04
01
04
04
00
04
00
00
00
00
00
00
00
00
00
18
09
00
1A
02
00
00
05
00
00
00
00
00
00
00
00
0F
00
00
02
00
06
06
16
05
00
01
00
00
00
00
00
00
00
01
00
00
0F
00
05
01
00
00
00
00
00
00
00
00
05
00
00
00
01
03
00
00
03
00
00
00
00
00
00
00
01
00
01
00
08
00
03
07
00
00
00
00
00
00
00
00
01
00
00
03
00
02
06
00
00
00
00
00
00
00
00
00
09
02
04
06
03
06
00
00
00
00
00
00
00
00
00
00
00
06
05
0B
06
16
00
00
00
00
00
00
00
00
00
00
00
01
01
01
07
0A
00
00
00
00
00
00
00
00
00
00
01
01
01
01
00
00
00
00
00
00
00
00
00
00
00
00
00
01
00
01
00
01
00
00
00
00
00
00
00
00
01
01
02
01
01
02
00
00
00
00
00
00
00
00
00
01
01
02
02
03
01
02
02
08
00
00
00
00
00
00
00
01
01
03
06
05
02
01
01
06
00
00
00
00
00
00
00
00
00
00
0C
05
05
03
06
06
00
00
00
00
00
00
00
00
00
20
03
0C
01
02
01
03
03
00
00
00
00
00
00
00
00
1C
05
01
1B
00
00
00
04
02
00
00
00
00
00
00
00
0F
00
00
00
00
03
02
0C
0B
00
03
00
00
00
00
00
00
00
01
03
01
09
00
02
03
01
00
00
02
00
00
00
04
04
00
00
00
01
02
00
03
02
01
00
00
00
00
00
00
02
00
00
01
04
00
02
00
00
00
00
00
00
00
00
00
00
04
00
01
00
01
05
00
00
00
00
00
00
00
00
00
04
02
02
04
03
0A
00
00
00
00
00
00
00
00
00
00
00
05
05
07
08
1B
00
00
00
00
00
00
00
00
00
00
00
00
01
01
06
10
00
00
00
00
00
00
00
00
00
00
00
01
01
01
01
02
00
00
00
00
00
00
00
00
00
00
00
00
00
01
01
06
00
00
00
00
00
00
00
00
00
00
01
00
01
02
00
03
00
00
00
00
00
00
00
00
01
01
02
03
01
02
02
07
00
00
00
00
00
00
00
00
01
02
05
05
02
02
01
05
00
00
00
00
00
00
00
00
00
01
06
05
03
02
05
05
00
00
00
00
00
00
00
00
00
08
04
07
01
03
00
03
01
01
00
00
00
00
00
00
00
11
07
00
11
00
00
00
02
01
00
00
00
00
00
00
00
07
00
00
00
00
04
04
07
02
01
07
00
00
00
00
00
00
00
01
00
01
01
00
0F
03
01
00
01
01
00
00
00
08
00
01
00
01
01
02
01
05
03
02
00
00
00
00
03
05
01
01
02
02
04
0A
03
07
00
00
00
00
00
00
00
00
09
05
03
02
00
01
05
03
00
00
00
00
00
00
00
01
05
17
01
05
04
0B
01
01
00
00
00
00
00
00
00
00
00
03
02
09
09
17
02
01
00
00
00
00
00
00
00
00
00
00
00
00
06
0A
00
00
00
00
00
00
00
00
00
00
00
00
01
00
01
02
00
00
00
00
00
00
00
00
00
00
00
00
00
01
01
06
00
00
00
00
00
00
00
00
00
00
00
00
01
02
00
04
01
00
00
00
00
00
00
00
01
01
02
02
01
01
02
05
00
01
01
01
03
00
00
00
00
01
04
05
01
01
01
05
03
02
00
00
00
00
00
00
00
01
06
03
02
01
04
04
04
00
00
00
00
00
00
00
00
0B
05
04
03
06
01
07
05
02
00
00
00
00
00
00
00
0C
01
04
0B
04
00
00
01
03
03
00
00
00
00
00
00
08
02
06
03
01
01
07
06
09
01
0D
01
00
00
00
01
07
0A
01
05
02
04
00
00
26
12
5C
12
06
00
46
21
20
6B
13
00
00
00
2F
14
00
00
21
37
3C
00
54
00
00
00
58
3C
10
37
00
46
00
0C
1B
00
0B
00
1D
00
2E
00
00
00
4F
00
00
3B
26
26
16
00
00
00
16
43
00
78
00
00
6A
00
00
00
19
00
82
00
26
3B
00
00
00
24
00
00
39
00
00
00
00
00
1C
03
00
00
00
00
00
10
00
38
00
17
4E
00
00
08
00
00
00
4C
46
00
00
22
00
00
4F
11
00
16
21
00
00
1F
00
13
00
00
00
00
3E
30
4B
00
2A
7A
1B
52
00
2A
00
00
3E
13
11
32
09
22
00
00
00
00
00
00
39
44
00
00
00
00
04
5D
05
00
00
00
00
00
4F
00
00
00
25
00
00
20
30
00
00
00
00
04
18
00
74
4C
4A
00
00
00
00
00
04
00
00
88
39
0D
00
07
62
2C
00
0C
00
3F
00
00
3B
00
47
00
00
00
00
21
2D
39
36
00
00
00
13
0B
23
00
0D
00
00
0D
00
00
5B
3D
00
00
00
00
00
41
3F
10
2F
00
37
00
00
00
00
36
15
00
00
4F
00
25
00
00
5A
2D
00
13
4C
