02
0B
00
00
01
01
01
00
0B
00
09
08
02
0F
07
00
00
05
0F
00
00
0E
00
01
00
00
00
02
06
00
03
04
00
04
05
00
00
00
01
09
00
00
00
04
04
01
07
05
00
01
02
01
02
01
00
06
00
00
00
01
00
13
08
11
08
02
09
01
04
10
00
00
00
00
01
07
12
11
0F
17
0E
0B
09
08
07
01
0D
00
16
05
01
17
02
0B
07
0A
1F
1C
0F
0E
0C
0A
12
03
00
00
05
03
0F
0D
02
00
06
0D
01
03
15
10
0D
01
00
00
00
00
00
00
00
00
1B
01
06
08
0E
0D
09
07
03
03
00
00
07
00
04
00
0A
07
04
02
0F
0A
0E
0D
05
00
0C
03
01
04
06
03
0E
10
0E
0E
08
17
11
0B
04
05
06
06
05
01
07
00
3A
04
03
06
02
01
01
00
02
04
08
09
01
06
00
69
06
0E
02
0E
08
02
0C
00
06
02
02
07
05
03
09
03
0D
01
01
02
14
01
00
00
00
01
03
02
03
04
02
3E
06
00
00
0B
01
02
00
00
00
04
07
02
01
07
01
37
01
05
01
01
02
0D
00
01
00
02
01
00
02
03
00
18
01
0C
01
00
01
01
03
00
09
02
09
09
04
11
09
00
00
07
0E
00
00
11
00
00
01
00
00
03
06
00
01
01
00
01
05
00
00
01
00
07
00
00
00
03
05
02
08
04
01
02
01
01
01
02
00
05
00
00
00
01
00
1E
09
0C
06
05
09
02
04
0E
00
00
00
00
02
08
14
16
0F
15
24
24
21
17
10
05
0D
00
17
06
03
16
02
0B
09
05
37
2A
19
15
14
11
18
0B
00
00
04
03
11
0B
05
01
08
10
02
04
1C
1B
15
03
00
00
00
00
00
03
04
00
1B
03
09
0A
13
15
0F
07
00
00
00
00
06
02
05
00
08
06
04
02
11
0F
12
0F
06
00
0B
01
02
03
0C
09
0D
11
0B
0E
09
19
15
10
05
05
09
05
05
05
09
00
3A
06
04
08
04
02
01
00
01
05
09
09
02
08
04
68
07
10
03
0E
08
00
0A
00
06
00
04
08
06
03
09
05
0D
01
02
01
14
01
01
00
01
00
03
02
05
03
02
41
05
01
00
0A
00
02
00
01
00
06
0A
02
01
08
00
36
01
03
00
00
02
09
01
02
00
02
01
00
01
02
01
1A
01
0D
02
01
00
00
01
00
0B
04
08
0B
02
12
09
00
01
06
0D
00
00
0D
00
00
01
00
00
03
05
00
02
05
00
02
07
00
01
00
01
08
02
00
00
02
05
01
08
06
03
04
02
04
01
03
01
05
00
00
00
01
00
18
0D
0E
34
2B
2D
1F
11
0F
00
00
00
00
00
09
11
11
12
1B
42
38
31
2A
29
1E
18
00
16
07
05
18
04
0C
10
10
33
2A
18
18
23
1D
24
1F
00
04
03
08
19
0E
0A
01
08
0E
02
08
2B
2F
1B
0D
00
00
00
00
01
06
07
00
1D
04
0A
11
1C
20
11
09
00
00
00
00
08
06
0A
01
13
0E
0A
07
22
1B
19
10
01
00
06
00
01
0A
15
0A
31
30
2F
2C
23
31
2B
1A
06
06
10
08
09
09
0D
00
48
14
14
18
11
08
02
01
01
07
0C
0A
04
0B
04
67
08
12
03
0D
05
01
00
00
02
01
06
09
08
06
0D
06
0D
02
01
02
05
00
02
00
02
02
05
02
05
04
03
42
06
01
00
0D
01
01
00
00
00
02
0B
00
01
07
02
36
01
04
00
00
01
0A
02
02
01
02
02
01
03
04
01
1B
01
0C
01
00
02
00
02
00
0A
01
08
0A
01
10
09
00
01
06
0F
00
00
0C
00
00
02
00
00
03
05
00
02
03
01
03
05
00
00
01
01
06
01
00
02
03
02
01
07
04
2F
35
2E
29
1A
13
0C
0D
05
04
04
02
00
17
0D
0F
4D
54
54
36
33
39
1D
16
18
0D
19
14
12
0F
12
17
80
84
80
77
74
49
3A
24
2D
21
1B
23
0E
0A
07
0A
85
68
46
43
44
3B
45
30
10
14
0D
16
22
18
0C
04
4C
39
22
26
40
4F
2C
11
00
00
00
00
11
14
08
00
64
33
2D
39
33
33
24
1A
00
00
00
00
0A
08
0A
00
52
35
23
22
37
31
3A
2E
08
00
06
00
03
07
11
0B
75
64
5A
61
6C
72
63
43
0C
0A
0F
12
0B
06
0B
00
80
59
60
5F
5C
51
33
0D
04
09
0C
0F
06
0B
07
65
29
34
26
26
19
0F
07
00
04
03
08
09
06
05
11
0B
0E
07
0A
09
0A
05
01
00
01
02
0A
02
01
04
04
44
05
02
01
0A
01
03
00
00
00
05
0A
02
01
07
00
35
01
04
01
01
02
05
01
01
01
03
01
01
02
03
00
19
00
0B
02
00
01
00
02
00
09
00
07
09
01
0E
07
00
00
04
0C
00
00
0D
01
01
00
00
00
03
04
00
02
03
1F
1F
16
04
01
01
00
05
00
00
02
03
02
00
07
04
54
5C
65
57
29
06
00
03
00
00
00
00
00
14
0B
0D
AF
AB
9B
8D
82
69
29
1C
20
0E
12
20
2E
26
27
1A
90
83
78
7B
90
86
85
5E
6C
4C
3D
3D
3B
48
62
85
C3
98
7B
66
73
57
2C
2E
4A
4C
35
45
6F
60
5E
45
9C
7C
4D
39
35
37
2B
06
52
18
05
2D
4A
57
50
3F
9B
74
44
3E
28
06
00
00
32
28
12
09
37
42
3E
37
79
72
53
53
57
28
10
3B
24
05
1A
16
29
4A
75
5B
6B
79
6A
6F
7D
8E
93
8F
39
40
4B
57
41
70
94
76
77
53
5D
63
6F
7C
7C
65
40
37
3A
3B
35
39
3D
96
2C
3B
3E
40
42
3E
2E
29
18
0F
1A
1F
1C
19
1B
1E
15
10
11
10
0D
0A
08
07
05
02
0B
05
03
00
02
44
04
01
00
09
00
00
00
00
00
0D
0C
01
00
06
00
31
00
03
00
00
00
05
00
01
00
02
00
00
00
00
01
17
00
0B
00
00
02
00
01
00
09
00
07
09
02
0D
06
00
00
03
12
03
03
0D
01
00
00
00
00
03
05
00
01
02
10
16
22
22
19
13
10
17
15
13
08
04
03
00
07
04
2B
29
23
23
2B
2A
1B
1F
31
30
22
1C
14
1F
09
0C
52
59
52
39
28
19
1B
31
63
68
63
54
59
41
36
12
52
4F
36
08
0C
06
0F
28
5F
9B
97
92
9B
96
95
A7
75
56
10
06
19
13
19
30
40
68
5F
77
A7
C6
94
75
4C
43
00
0C
19
25
2B
22
3E
48
45
91
9A
AD
8A
77
4F
36
00
06
16
19
2A
19
44
35
27
31
48
6D
74
7E
2E
29
00
06
17
18
1F
50
3F
1C
25
24
2A
63
E3
D4
2A
2E
18
09
0F
1B
25
5E
65
73
7D
81
7A
A1
FF
F2
41
1F
25
19
17
19
1F
2F
4F
6E
65
6B
6C
6C
7F
F9
17
22
1B
1C
17
11
0F
16
17
1E
21
28
23
23
24
48
0C
03
06
08
0E
0F
12
11
08
08
0C
09
06
03
02
46
05
00
00
09
00
00
01
00
01
15
0D
02
00
05
00
2F
01
04
00
00
00
08
02
07
00
02
00
01
02
01
00
18
01
0C
02
00
01
00
02
00
09
02
08
08
04
0E
09
00
01
03
10
00
00
0B
01
00
02
00
00
06
03
00
02
05
00
03
06
00
00
00
00
01
00
01
02
04
04
00
08
06
00
02
08
0A
0C
0E
0C
0F
12
13
0C
07
05
0C
07
11
0A
07
0A
0B
0F
1B
1C
1C
31
44
45
4D
50
4A
54
50
0B
09
02
00
00
00
0F
2C
5D
64
59
5B
4E
5E
7B
8B
13
16
08
09
0F
10
14
2F
44
49
37
3B
57
71
51
61
05
0F
0F
0F
11
1F
25
20
27
2E
28
38
41
43
37
4B
19
08
11
0F
0D
0F
13
13
20
20
0C
0F
1D
29
3A
5C
02
07
0B
0D
10
0F
15
21
24
0D
11
0B
0C
1F
64
65
00
03
00
00
00
00
16
32
42
37
3B
37
29
42
7F
86
30
00
00
00
00
00
05
15
2D
45
40
4C
43
37
46
B1
04
0D
00
02
00
01
03
07
2B
13
1E
23
25
21
1F
2C
0E
02
01
00
05
00
00
03
03
07
0C
08
05
04
03
43
04
00
00
0B
01
01
00
00
02
18
0F
03
00
06
00
34
02
05
01
00
02
0D
02
08
00
03
00
01
01
02
01
1B
01
0C
02
00
01
00
04
00
0A
02
08
0C
03
10
08
01
01
06
10
00
00
03
01
00
03
01
00
05
05
00
03
06
01
04
06
00
00
00
00
02
00
01
03
04
06
00
08
03
00
00
03
02
00
01
00
02
00
00
00
02
04
04
02
05
06
02
00
01
01
04
01
00
00
01
07
11
14
0E
05
0C
02
00
00
00
00
00
00
00
0C
13
10
20
13
17
1C
38
0F
0C
00
00
00
04
04
08
07
08
0A
09
0E
14
04
06
00
0A
00
00
05
0A
09
08
03
02
05
03
03
02
02
03
17
01
01
00
03
04
02
03
08
02
01
01
05
00
02
02
00
01
00
00
02
03
03
09
0E
01
0C
03
02
01
03
03
00
03
00
00
00
0C
02
0A
0E
09
0B
0F
0E
07
0A
0A
33
00
00
04
00
00
01
00
06
17
0E
11
0B
0B
0B
73
06
0D
01
10
08
00
0D
00
25
04
08
0B
0E
06
09
0D
0E
02
00
00
16
00
03
00
00
07
0A
02
03
03
02
3B
05
01
00
0D
01
02
01
00
02
1B
0F
03
02
07
02
35
03
06
01
01
01
0E
03
09
01
05
01
00
02
03
00
1C
