14
00
53
00
AD
00
00
66
05
00
00
00
00
01
01
01
18
00
00
56
00
00
00
00
00
0B
0B
00
08
00
00
00
00
00
00
00
00
00
00
00
00
48
0C
12
08
00
10
08
09
00
00
00
00
00
00
00
00
1F
00
01
05
04
00
00
00
00
00
00
00
00
00
00
00
02
02
00
1E
08
0B
00
01
00
00
00
00
00
00
00
00
02
00
00
00
02
00
05
00
00
00
00
00
00
00
00
00
00
00
00
00
00
05
01
00
00
00
00
00
00
00
00
00
00
00
00
00
03
00
00
00
00
00
00
00
00
00
00
00
00
00
00
00
00
06
00
00
00
00
00
00
00
00
00
00
00
00
00
00
00
0B
03
00
00
00
00
00
00
00
00
00
01
03
00
00
00
04
08
00
00
00
00
00
00
00
00
00
0C
04
04
04
00
05
04
00
00
00
00
00
00
00
00
00
00
00
04
00
05
03
00
00
01
00
00
00
00
00
00
00
03
00
07
04
01
0A
00
00
00
01
00
00
00
00
00
00
00
0B
09
09
00
00
00
1F
00
08
08
01
00
01
00
02
0E
12
00
0B
01
08
22
0D
01
22
38
72
00
00
0E
00
00
00
00
00
00
00
01
05
01
00
26
00
00
00
00
00
00
03
02
01
00
00
02
00
00
00
00
00
00
00
00
00
11
04
06
0C
01
03
03
02
00
00
00
00
00
00
00
00
08
00
00
01
00
00
00
00
00
00
00
00
00
00
00
00
03
01
00
08
02
03
01
00
00
00
00
00
00
00
00
00
00
00
00
00
00
00
05
00
00
00
00
00
00
00
00
00
00
00
00
00
01
01
01
00
00
00
00
00
00
00
00
00
00
00
00
00
02
05
00
00
00
00
00
00
00
00
00
00
00
00
00
00
00
04
02
00
00
00
00
00
00
00
00
00
00
00
00
00
00
03
02
00
00
00
00
00
00
00
00
00
01
01
02
02
01
02
02
00
00
00
00
00
00
00
00
00
02
04
01
02
01
01
00
00
00
00
00
00
00
00
00
00
01
00
01
00
06
01
00
00
00
00
00
00
00
00
00
00
0A
00
01
01
00
06
00
01
00
00
00
00
00
00
00
06
05
02
03
02
03
01
00
05
00
02
00
00
00
00
00
01
0A
03
00
02
01
01
0E
0C
01
1A
36
65
00
00
04
0A
02
00
00
00
00
00
01
04
03
00
19
00
00
00
00
00
03
03
01
01
01
00
06
00
00
00
00
00
00
00
00
00
05
01
04
09
01
01
02
01
00
00
00
00
00
00
00
03
05
01
01
01
00
00
00
00
00
00
00
00
00
00
00
0C
04
01
00
06
02
02
03
00
00
00
00
00
00
00
00
00
00
00
01
00
00
00
05
00
00
00
00
00
00
00
00
00
00
00
00
00
01
01
01
00
00
00
00
00
00
00
00
00
00
00
00
00
02
05
00
00
00
00
00
00
00
00
00
00
00
00
00
00
00
04
02
00
00
00
00
00
00
00
00
00
00
00
00
01
00
02
02
00
00
00
00
00
00
00
00
00
01
01
02
03
02
02
02
00
00
00
00
00
00
00
00
00
02
04
01
02
01
01
01
00
00
00
00
00
00
00
00
00
01
00
01
01
06
01
01
01
00
00
00
00
00
00
00
00
08
00
01
01
01
05
01
00
00
00
00
00
00
00
00
06
06
01
02
02
02
01
02
03
01
02
03
01
00
01
01
01
0A
01
00
01
01
00
0A
0E
00
16
3E
7C
00
00
03
00
00
00
00
00
00
00
00
03
03
00
1C
00
00
00
01
00
02
03
01
01
01
01
07
00
00
00
00
00
00
00
00
01
02
01
0D
08
01
02
03
02
00
00
00
00
00
00
00
02
05
01
01
01
00
00
00
00
00
00
00
00
00
00
00
0E
03
00
00
04
01
03
02
00
00
00
00
00
00
00
00
00
00
00
01
00
00
00
05
00
00
00
00
00
00
00
00
00
00
00
00
00
01
01
01
00
00
00
00
00
00
00
00
00
00
00
00
00
02
04
01
00
00
00
00
00
00
00
00
00
00
00
00
00
00
03
02
00
00
00
00
00
00
00
00
00
00
00
00
00
00
02
02
00
00
00
00
00
00
00
00
00
00
01
01
03
01
02
02
00
00
00
00
00
00
00
00
00
02
03
01
02
01
01
01
00
00
00
00
00
00
00
00
00
01
01
01
00
04
01
01
01
00
00
00
00
00
00
00
00
08
01
01
01
01
06
01
01
01
03
00
00
00
00
00
04
05
01
02
01
02
01
02
02
01
03
04
01
00
01
01
01
09
02
00
01
01
01
07
0B
00
10
2D
52
00
00
03
00
03
00
00
00
00
00
00
03
03
00
1B
00
00
00
00
00
01
02
03
00
01
01
06
00
00
00
00
00
00
00
00
01
02
03
07
08
01
02
02
01
00
00
00
00
00
00
00
02
05
00
06
01
00
00
00
00
00
00
00
00
00
00
00
0F
02
00
00
03
05
03
01
00
00
00
00
00
00
00
00
00
00
00
00
00
00
00
04
00
00
00
00
00
00
00
00
01
00
02
00
00
01
01
01
00
00
00
00
00
00
00
00
00
01
01
00
00
01
06
01
00
00
00
00
00
00
00
00
00
01
00
00
00
00
05
02
00
00
00
00
00
00
00
00
00
00
00
00
00
00
02
02
00
00
00
00
00
00
00
00
00
00
01
01
02
00
01
01
00
00
00
00
00
00
00
00
00
02
02
01
02
01
01
01
01
00
00
00
00
00
00
00
00
00
00
01
00
03
01
00
01
01
00
00
00
00
00
00
00
07
01
01
01
01
07
01
01
00
02
00
00
00
00
00
02
04
01
01
01
02
01
02
02
01
03
03
01
01
01
01
01
07
05
00
01
00
01
06
08
00
0C
19
50
00
00
08
00
00
00
00
00
00
00
01
02
01
00
18
00
00
00
01
00
03
01
01
01
01
00
02
00
00
00
00
00
00
00
00
01
0A
03
02
05
00
01
01
01
00
00
00
00
00
00
00
02
06
00
0C
01
00
00
00
00
00
00
00
00
00
00
00
0C
01
00
00
02
03
02
01
00
00
00
00
00
00
00
00
00
00
00
00
00
00
00
02
01
00
00
00
00
00
00
00
01
00
01
01
00
00
01
00
01
00
00
00
00
00
00
00
00
01
01
00
00
00
04
01
01
02
01
01
00
00
00
00
00
01
00
00
00
00
04
01
01
01
01
01
01
00
00
00
00
00
00
00
00
00
05
01
00
00
01
01
00
00
00
00
00
00
01
00
02
00
01
01
01
00
00
00
00
00
00
00
00
01
02
00
01
00
01
01
01
00
00
00
00
00
00
00
00
00
00
00
00
02
01
00
01
01
00
00
00
00
00
00
00
05
00
01
01
01
04
01
03
00
02
00
00
00
00
00
02
05
01
03
01
02
00
02
03
01
01
01
00
01
01
03
01
06
06
00
02
00
01
05
04
00
07
01
00
00
00
0A
22
00
00
00
00
00
00
00
02
00
00
11
00
00
00
00
00
01
00
01
01
01
00
00
00
00
02
00
00
00
00
00
00
05
09
02
04
00
01
00
01
00
00
00
00
00
00
00
01
04
00
03
00
00
00
00
00
00
00
00
00
00
00
00
0B
00
01
00
00
01
01
00
00
00
00
00
00
00
00
00
00
00
00
00
00
00
00
03
01
00
00
00
00
00
00
00
00
00
00
00
00
00
00
00
01
00
01
01
00
00
00
00
00
00
01
00
00
00
02
01
01
01
01
01
02
00
00
00
00
01
00
00
00
00
01
00
01
01
01
01
02
00
00
00
00
00
00
00
00
00
04
01
00
00
01
01
00
00
01
00
00
00
01
00
00
00
01
01
00
00
00
00
00
00
00
00
00
01
01
00
00
00
01
00
00
00
00
00
00
01
00
00
00
02
00
00
00
01
00
00
01
01
00
00
00
00
00
00
00
03
01
01
00
00
03
00
03
00
01
00
00
00
00
00
00
02
01
02
01
01
00
00
06
00
01
02
00
00
00
02
00
02
04
00
03
00
01
03
00
08
0C
16
02
13
07
03
00
01
04
09
00
09
07
01
07
07
0A
00
19
00
07
00
07
00
00
00
00
0A
00
00
00
00
0C
00
00
00
00
00
00
05
00
03
04
12
0E
00
05
0C
00
00
09
00
04
00
00
00
00
0C
0E
00
04
03
00
02
00
09
06
0C
00
00
00
00
18
06
03
06
00
00
00
00
00
10
00
00
00
00
00
00
11
29
07
16
00
00
00
00
04
0E
00
00
00
0E
00
02
1B
11
00
10
03
00
09
00
01
00
00
00
1D
15
00
1E
00
00
09
14
00
00
01
00
00
00
00
00
00
15
21
00
09
15
00
12
1C
09
00
03
08
00
20
00
08
00
00
00
00
18
00
01
00
05
00
00
00
11
09
03
00
00
00
00
0A
00
00
13
00
18
0A
00
03
0E
00
10
28
00
0B
00
08
16
0D
06
00
07
00
00
0F
19
00
00
00
1B
00
00
00
0C
00
02
12
07
00
0F
00
00
00
00
13
08
00
08
00
00
00
00
12
00
01
00
0E
00
01
13
08
0E
00
02
00
00
0F
06
09
00
18
06
10
00
0C
0C
00
00
00
07
00
08
00
04
00
00
