01
03
02
00
0b
02
07
00
0c
00
01
20
03
08
05
02
06
07
05
01
02
00
07
06
01
01
02
01
07
04
04
04
02
08
05
03
04
01
03
01
04
01
02
01
02
02
01
02
02
00
01
04
01
01
03
01
03
00
04
03
0a
02
06
03
03
00
01
01
04
03
04
07
03
07
02
01
06
0b
01
04
02
0b
01
03
07
00
04
08
04
04
07
01
02
01
06
09
05
02
01
01
01
08
07
09
06
04
07
01
07
02
02
04
00
01
06
05
00
00
06
07
07
08
05
00
02
01
01
05
08
02
02
00
00
10
04
02
09
08
09
03
11
01
01
04
05
01
01
00
00
0a
04
01
08
02
05
0a
02
04
0d
07
06
00
01
00
04
07
09
04
01
0c
06
07
03
05
07
02
07
06
02
02
08
12
06
02
03
05
0a
08
07
01
05
02
05
05
06
03
0b
0a
0b
02
06
04
08
06
07
05
04
04
0d
01
03
04
09
0d
0c
03
03
03
04
08
04
05
04
07
06
04
07
03
06
0f
04
03
04
03
09
08
07
04
03
02
03
09
06
05
07
1f
05
03
02
03
08
37
08
20
1e
0f
01
02
01
00
0d
06
0a
03
0d
01
01
1f
02
08
04
02
06
07
05
02
05
04
0b
09
05
05
02
01
07
04
04
03
02
08
05
05
08
06
0a
08
0b
06
03
01
02
03
01
02
02
00
01
08
07
06
0a
08
0b
07
06
03
09
02
05
03
03
00
01
07
0d
0a
0e
0e
09
0e
05
01
04
0b
01
04
01
0b
01
09
14
08
0d
14
0a
0b
0d
00
02
01
05
08
04
01
01
07
0e
10
11
17
0e
0e
11
05
08
02
01
04
00
01
05
0b
0d
14
19
14
10
16
1a
0a
05
02
01
04
08
01
02
08
17
36
20
12
15
15
21
15
14
03
01
04
06
01
01
09
1f
2f
22
16
16
08
1b
20
09
04
0c
07
05
00
01
05
21
2a
1e
14
06
11
1c
1e
0e
06
07
02
05
06
02
05
24
2d
1e
1c
0a
0a
1c
24
12
04
05
02
06
05
06
05
26
26
2d
1f
13
09
16
20
14
07
03
04
0c
01
04
07
25
2d
38
22
17
11
20
1c
11
06
04
06
06
03
06
06
2b
3c
27
1c
1e
30
3f
25
11
04
02
02
02
08
07
0a
27
46
2f
25
2c
31
42
54
16
23
1e
0f
01
02
08
15
2f
27
37
24
26
16
15
27
0b
07
04
02
06
06
0e
14
2a
25
29
20
1b
14
16
0f
11
05
04
03
01
09
13
12
29
26
21
18
18
12
18
14
0e
04
01
01
02
02
11
13
22
25
26
21
22
17
1b
19
16
06
05
02
03
02
0c
15
22
2c
2c
25
1a
1f
1d
1a
13
10
01
03
01
0b
0a
16
21
2e
23
2d
1c
1a
2a
1f
10
08
05
07
04
02
08
0e
17
2d
22
2c
23
1b
2a
20
13
0a
02
04
00
01
0e
13
1c
2e
30
29
25
35
3d
1f
10
08
01
04
07
01
0c
17
33
4b
39
2b
2f
29
38
27
18
05
01
03
04
01
0a
16
30
4e
41
27
23
11
38
33
0e
04
0b
06
05
00
04
10
2f
48
37
24
13
1c
3b
30
0f
06
07
02
06
05
02
0e
28
47
41
4a
1b
15
3f
33
14
04
04
02
05
05
05
0c
2b
4a
53
4c
29
17
3c
33
14
06
03
04
0b
01
03
10
20
49
60
56
37
31
4c
35
12
05
04
05
04
03
06
07
1d
4a
47
43
39
6c
7b
3f
14
04
03
02
02
07
06
08
0b
54
39
39
3c
65
75
77
24
25
1c
0d
01
02
10
27
5a
44
5b
49
49
39
33
40
15
0c
04
01
06
06
12
2b
51
3d
48
3b
37
36
39
28
1c
0a
04
02
02
06
0d
31
4a
3a
3c
31
2d
2a
34
2c
1f
0a
01
02
02
00
03
2b
46
40
37
31
34
2e
3a
32
27
09
05
03
03
00
01
14
40
47
41
31
2a
34
3e
37
24
0f
01
03
01
0a
02
06
34
47
38
3f
28
23
4b
3c
21
06
04
07
04
02
01
02
16
47
32
47
2e
23
4e
3d
1e
07
01
03
00
01
05
05
0f
36
40
34
30
36
4d
31
17
04
01
04
07
01
02
00
11
39
46
49
3e
26
21
20
19
04
01
03
05
01
01
00
0c
26
31
2c
28
0e
20
1f
09
04
0b
06
05
00
01
00
0a
1e
27
1d
13
1a
24
1c
0c
05
06
01
06
05
01
02
10
20
2b
2e
19
15
2c
1c
10
02
04
01
04
05
05
03
17
20
38
2c
23
18
22
1a
11
06
03
04
0b
01
03
0b
14
26
32
30
26
28
38
1d
0e
04
04
05
05
03
06
08
16
32
2e
29
20
39
49
21
10
04
02
02
02
07
06
08
0f
45
23
22
1e
2d
3e
49
10
24
1c
0d
01
02
02
16
2c
3d
3e
24
2f
27
38
44
13
08
04
02
06
07
05
19
28
3e
32
1c
19
1a
2f
2b
19
07
05
03
02
08
05
17
28
3e
23
12
17
13
2c
2e
13
06
01
02
02
00
01
16
1d
3d
21
15
1d
12
32
30
1a
06
05
03
03
00
01
0d
1b
39
24
20
1a
1e
35
2e
12
0d
01
04
01
0b
02
0b
1d
29
1d
28
1a
18
3c
28
0a
03
05
08
04
01
01
07
10
20
22
21
1d
1d
34
1a
0b
03
02
04
00
01
05
09
0c
13
1e
1a
1e
1d
21
08
03
01
00
04
07
02
02
06
0d
18
16
11
19
12
08
04
11
02
01
03
06
01
01
04
0c
11
11
0b
14
08
06
0a
03
04
0c
07
05
00
01
02
0d
0e
14
0d
08
10
08
07
04
05
06
02
06
05
01
02
0a
14
13
14
09
08
0c
08
06
01
04
02
04
05
06
04
0a
0a
15
10
0d
07
09
05
08
05
03
04
0c
01
04
0c
0a
09
11
10
0b
0a
07
08
04
05
05
06
06
04
06
09
0d
08
08
08
08
0a
0a
08
0a
05
03
01
02
08
06
09
0e
0d
05
06
06
08
06
32
07
24
1f
0e
02
02
01
02
20
20
18
04
0e
0a
18
2a
04
08
05
02
07
07
04
02
15
1b
15
07
03
08
17
0a
09
04
05
03
02
07
06
03
16
18
0d
03
06
07
17
0a
03
02
01
02
02
00
01
04
10
16
0d
06
0a
05
17
0d
0b
02
06
03
03
00
01
02
0b
16
14
15
0f
14
14
0a
06
0b
01
04
01
0c
01
04
09
12
0f
18
11
0e
1a
06
03
01
05
08
04
01
01
01
02
0f
13
14
0f
0e
18
03
07
03
01
04
00
01
06
05
01
01
13
12
10
0c
0d
01
02
01
01
05
08
01
02
00
00
0d
08
08
0e
09
05
03
10
02
00
03
07
01
01
00
00
05
07
04
0e
05
05
08
03
04
0b
06
05
00
01
00
01
04
0c
07
05
0e
09
07
03
05
08
03
07
05
01
02
05
0f
0c
0a
07
08
08
05
06
01
04
02
05
05
06
04
0a
06
11
09
0c
06
08
04
08
06
03
05
0d
01
04
0d
0b
0a
0c
0a
0a
0a
08
08
04
06
05
06
06
03
07
09
0d
0b
08
07
08
0d
0a
07
09
04
03
02
03
08
07
09
10
0e
04
05
05
08
06
33
05
24
1f
0f
02
02
01
01
0b
12
1a
04
0d
04
07
24
04
08
04
02
06
07
04
01
03
11
15
08
02
04
08
04
08
04
05
02
02
08
05
02
06
11
0e
02
05
04
07
03
03
03
00
01
02
00
01
03
02
0d
0b
04
07
02
09
05
0a
02
05
03
03
00
01
02
04
0b
0d
0f
0b
0b
07
04
06
0b
01
05
01
0c
01
04
08
04
09
0e
0b
08
0e
02
02
01
05
08
05
01
01
01
01
0a
0d
0e
0b
09
0e
02
07
03
01
03
00
00
05
06
00
00
09
0b
0d
0b
09
01
02
00
01
05
08
01
02
00
00
0d
04
03
0a
08
05
02
11
02
00
03
06
02
01
00
00
05
04
03
0b
03
04
08
02
03
0d
06
06
00
01
00
02
03
0b
05
03
0e
05
05
03
04
07
02
06
05
01
02
05
0e
08
06
05
07
06
05
05
01
05
01
05
06
06
04
0b
05
0c
06
09
05
07
03
07
06
03
04
0d
02
05
10
0d
09
0b
09
08
07
06
06
04
05
05
06
06
03
07
07
0b
08
07
07
07
0a
08
06
08
04
02
02
02
07
06
08
0d
0a
04
04
05
08
06
33
04
23
1f
0e
02
02
02
00
0b
08
0f
03
0d
05
08
23
03
08
05
02
06
07
05
01
02
05
0e
07
02
04
08
03
07
04
04
03
02
08
04
02
05
06
09
02
05
03
08
03
02
02
01
02
02
00
01
03
01
05
07
03
06
02
09
04
0b
02
05
03
03
00
00
02
04
06
09
0b
08
0a
07
03
07
0b
01
05
02
0c
01
03
09
02
06
08
07
06
0d
02
02
01
05
08
04
01
01
01
01
09
09
09
07
07
0c
02
07
02
01
04
00
01
05
05
00
00
06
08
0b
0a
06
01
02
00
01
05
08
01
02
00
00
0c
02
02
09
07
04
02
11
01
00
03
06
01
01
00
00
04
03
02
0b
03
04
07
03
03
0d
07
06
00
01
00
01
02
09
04
03
0c
04
05
03
04
07
02
06
05
02
02
04
0e
06
04
04
06
06
05
05
01
04
01
05
06
06
03
0a
04
0b
04
09
04
06
03
07
05
04
04
0c
01
04
0b
0a
09
0a
06
06
06
04
05
03
05
05
07
05
03
06
06
0b
07
06
05
07
08
07
04
07
04
03
02
02
08
07
0a
0d
0c
05
04
04
06
06
33
03
21
1f
0e
