01
02
02
00
09
03
09
01
0a
01
03
1c
02
06
04
02
05
06
04
01
02
02
08
04
01
01
02
01
06
04
04
03
01
07
04
02
04
02
04
01
03
01
03
01
02
02
01
02
02
00
01
02
00
03
03
01
04
01
04
03
08
01
06
03
02
00
01
01
03
04
04
04
02
06
02
01
04
09
01
04
01
0a
01
02
06
01
02
03
02
02
08
01
01
01
04
08
04
01
00
01
01
08
05
04
04
03
05
01
06
03
01
03
00
01
04
04
00
00
01
03
05
05
01
00
01
00
01
04
08
02
02
00
00
0a
00
00
06
04
02
01
0d
02
00
03
05
01
01
00
00
01
00
00
07
01
01
06
01
02
0b
06
04
00
01
00
01
00
04
01
01
0b
01
03
02
04
06
02
05
05
01
02
01
09
01
01
02
04
03
02
03
01
04
02
04
05
05
04
05
01
05
00
05
03
04
01
04
05
03
03
0b
01
04
04
04
03
06
02
03
03
01
03
02
04
04
06
06
03
06
02
04
02
02
02
03
01
05
03
05
04
03
02
02
07
04
02
02
05
03
02
01
02
03
2b
02
1c
1a
0d
01
02
01
00
09
05
10
0a
14
0d
0b
1d
02
06
04
01
05
05
04
01
02
03
0d
05
01
05
0a
02
06
04
04
02
01
07
04
02
04
05
06
00
03
01
08
03
01
02
01
02
02
00
01
03
02
08
05
01
03
01
0b
09
08
01
05
02
02
00
00
01
06
0d
07
06
03
07
08
07
04
08
01
04
01
0a
01
02
07
08
05
05
03
03
0d
05
01
01
05
07
03
01
00
01
01
09
07
06
05
04
07
02
06
02
01
03
00
01
05
04
00
00
03
05
07
06
02
00
01
00
01
04
08
02
02
00
00
0a
00
00
06
04
02
01
0d
01
01
03
05
01
01
00
00
01
00
00
07
02
01
05
02
03
0b
05
04
00
00
00
01
00
04
01
01
0c
01
02
02
04
06
02
06
04
01
02
01
0a
02
02
03
04
04
02
04
01
03
01
05
04
06
03
05
01
05
01
05
03
03
01
04
05
03
04
0b
01
03
04
04
03
06
02
04
03
01
02
02
04
04
05
05
03
06
02
04
04
03
02
03
01
05
04
05
04
02
02
02
07
04
02
04
05
02
02
01
02
03
2b
02
1b
1a
0d
01
02
01
00
09
0c
23
24
29
11
0e
1d
02
06
04
01
05
05
03
01
02
15
2d
2d
28
13
11
03
05
03
05
02
01
06
04
02
05
1c
29
1d
1d
13
12
06
02
02
01
02
02
00
00
02
07
21
23
1b
1f
14
17
0d
09
02
04
03
02
00
00
01
19
2e
20
19
10
14
16
14
0a
09
01
04
01
0a
01
03
1b
2b
1a
1b
10
0f
1d
14
08
01
04
07
04
01
00
02
0b
26
16
17
0f
0c
19
12
0c
02
01
04
00
00
05
04
05
1b
19
19
19
0f
11
09
05
00
01
03
07
01
02
00
05
1f
1b
0e
10
0c
09
02
0e
01
00
03
04
01
01
00
03
10
11
06
0b
04
02
06
02
03
0c
06
04
00
01
00
03
0c
0b
03
01
0a
02
03
02
04
06
01
06
04
01
02
02
0c
09
07
04
04
04
02
03
01
03
01
04
04
05
02
06
02
0a
04
07
03
04
01
04
04
03
03
0a
01
03
03
05
04
0a
06
05
03
01
03
02
04
04
06
05
03
07
02
05
07
05
04
05
03
06
04
06
04
02
01
02
06
04
03
09
09
04
02
01
03
04
2a
02
1a
19
0d
01
02
01
00
0a
0d
39
37
44
3b
1c
1f
02
06
05
01
05
05
04
01
02
18
2f
29
22
2b
21
05
06
03
05
02
01
06
04
02
05
26
29
20
1f
18
27
0b
01
02
01
02
02
00
01
02
09
30
30
2a
28
17
25
17
09
01
05
03
02
00
00
01
17
3b
38
2a
24
23
26
24
0c
09
01
04
01
0a
01
04
26
3c
33
39
28
1a
29
22
08
01
04
07
04
01
01
08
21
3b
32
33
34
1b
25
18
09
02
01
04
00
00
05
0d
1c
2a
35
35
3d
1a
19
0a
04
00
01
04
07
01
02
03
20
3e
23
23
26
15
13
0f
12
01
01
03
05
01
01
01
0d
1c
22
20
15
0b
15
13
05
02
0b
06
04
00
01
00
06
1b
1d
1a
0b
15
19
0e
05
03
07
02
06
05
02
02
08
1f
22
2b
15
10
19
0c
07
01
03
01
04
05
05
05
0b
19
31
26
17
10
15
09
09
05
03
04
0c
02
05
06
08
19
33
29
14
13
10
0a
05
05
04
06
06
03
07
05
09
1c
24
1c
12
14
1a
0f
08
05
02
01
02
07
04
06
10
21
0f
0b
0a
1b
15
34
05
1f
1a
0d
01
02
01
00
09
04
23
36
39
23
07
1a
02
06
03
01
05
05
04
00
02
0d
43
4c
45
3d
15
04
05
03
04
02
01
06
04
02
04
22
4c
52
52
4b
27
0b
01
01
00
01
02
00
01
02
06
31
59
54
54
4d
3e
16
08
02
04
02
02
00
00
01
11
45
68
51
3d
4a
47
21
0a
09
00
03
01
09
01
02
1b
4b
64
6b
3a
3d
50
36
15
01
04
07
03
01
00
01
12
49
5b
63
41
37
57
41
1e
02
01
03
00
01
04
05
12
56
5d
63
47
33
5c
3a
19
01
01
03
07
01
02
03
21
6e
77
7a
4d
2d
2c
1e
16
01
01
03
05
01
01
02
20
66
7d
5d
2c
15
25
19
05
03
0a
05
04
00
01
00
17
4f
4f
39
14
16
21
15
04
03
05
02
05
04
02
02
12
34
3b
5d
1a
0d
21
12
07
00
03
01
05
05
06
05
0d
22
42
48
22
0f
1c
0f
09
06
03
04
0c
02
06
07
0a
1f
4f
4c
2a
18
19
10
08
07
04
05
05
04
07
06
0b
22
3c
33
2b
29
25
14
0c
09
02
01
02
07
04
08
14
20
23
23
1c
2c
1d
31
0c
22
19
0c
01
02
01
00
09
03
07
02
0b
02
02
1b
02
06
03
01
05
06
04
00
02
01
0b
0a
07
05
03
01
06
03
04
02
01
06
04
02
04
05
0e
0d
0d
0b
06
01
02
02
00
01
02
00
01
01
01
0a
15
16
14
10
0b
03
08
01
05
02
02
00
00
01
08
11
1e
1c
12
17
0a
02
04
08
00
04
01
09
01
02
10
13
1e
1f
18
13
12
02
02
01
04
07
03
01
00
01
0d
1b
22
22
1e
15
16
05
08
02
01
04
00
01
05
04
0a
24
31
21
21
21
2e
10
07
00
01
03
08
02
01
00
11
38
39
30
1f
20
3c
2d
15
01
01
03
05
01
01
00
11
3b
44
2e
23
14
47
3b
0d
03
0b
06
04
00
01
00
15
3d
43
2b
18
22
55
33
0e
03
06
02
05
05
01
03
18
41
53
5d
23
18
50
2b
0f
01
04
01
05
06
06
05
13
3e
75
5f
2c
1b
3f
25
12
05
03
03
0b
02
05
07
0f
3c
7f
82
3e
2c
3d
21
11
06
05
05
05
04
07
06
0b
33
6a
61
45
48
5f
2b
0f
07
02
01
02
07
04
06
0d
28
4a
45
38
73
61
53
12
20
1a
0c
01
02
01
00
08
03
08
02
0b
01
02
1d
02
06
04
01
05
06
04
01
02
01
07
05
02
02
02
01
05
03
04
02
01
07
04
02
04
02
04
02
06
02
03
01
01
02
00
02
02
00
01
03
01
01
03
03
07
02
04
03
08
01
04
02
02
00
00
01
05
04
07
0f
0c
0d
03
02
04
08
00
05
01
0a
01
02
06
02
07
10
0e
0a
0b
01
02
01
05
07
04
01
00
01
01
07
0a
11
0c
0a
0e
02
07
02
01
04
00
00
05
04
01
01
11
0c
0b
0d
0e
01
02
00
01
04
08
02
02
00
02
17
0d
09
0a
0d
11
04
0e
01
00
03
05
01
01
00
07
15
0f
09
0c
08
15
11
03
03
0b
05
04
00
01
00
09
16
11
0a
06
0f
1c
13
04
03
06
02
06
05
02
03
0b
22
17
0d
08
09
27
16
07
00
04
01
04
06
07
04
0d
19
29
14
0f
0b
24
17
09
06
03
03
0b
02
06
08
0e
24
34
1d
10
0d
1b
17
07
06
05
05
05
04
07
05
09
1f
24
19
12
11
27
16
0c
07
02
01
02
07
05
05
08
16
1f
18
10
18
29
42
12
1f
1a
0d
01
02
02
00
09
03
08
01
0b
01
01
1d
02
06
04
01
06
06
03
01
02
01
06
05
02
02
02
01
05
03
04
02
01
07
04
01
04
02
04
02
05
02
03
01
01
02
01
01
02
00
01
03
01
01
03
03
05
02
04
03
08
01
04
02
03
00
00
01
04
04
05
0a
09
0a
03
01
04
09
00
05
01
0b
01
02
07
01
05
0b
07
07
0b
01
01
01
04
07
03
01
00
00
01
08
09
0b
07
07
0b
02
06
02
01
04
00
00
04
05
01
00
08
08
08
0a
08
00
02
00
01
04
08
01
02
00
00
0c
04
05
07
08
08
03
0f
01
00
03
05
01
01
00
00
05
04
03
09
06
07
08
02
03
0c
06
04
00
01
00
01
08
0a
06
03
0e
08
06
02
04
06
01
06
05
01
03
06
18
0c
06
05
07
0d
07
05
01
03
01
04
05
06
03
06
0a
11
07
09
07
0d
06
06
05
03
03
0c
02
05
05
08
0d
12
0c
08
07
09
07
04
05
04
05
05
04
06
05
07
0b
09
08
07
08
11
0c
07
04
02
01
02
07
05
05
06
08
0b
07
05
09
0f
31
07
1d
1a
0c
