01
0B
00
00
00
00
00
00
09
00
06
08
00
0D
07
00
00
04
0C
00
00
0B
00
00
00
00
00
01
05
01
04
03
00
01
04
00
00
00
00
06
00
00
00
03
05
03
07
00
00
00
00
00
00
00
00
05
00
00
00
02
00
06
04
06
03
02
06
00
03
0B
00
00
00
00
01
0B
07
0B
05
07
03
01
01
00
01
00
0A
00
14
07
0D
2B
0F
13
10
02
0E
0B
04
04
04
09
10
08
03
02
06
0E
1C
1D
08
0E
01
09
00
03
12
14
10
01
04
03
04
04
06
0C
06
04
16
02
07
06
0E
0D
08
02
00
00
00
02
06
04
04
01
02
01
00
01
0E
0B
0D
0C
08
04
0E
05
07
05
06
0A
00
03
02
04
00
12
0F
0F
0C
0B
0D
14
14
0C
1B
13
2B
00
00
03
00
00
00
00
02
06
0B
0D
09
0A
10
61
03
09
00
07
03
00
09
00
00
00
01
06
03
05
09
0A
09
00
00
00
0E
00
00
00
00
00
02
02
03
02
01
33
04
00
00
09
00
00
00
00
00
02
04
00
00
05
00
29
00
03
00
00
02
0B
00
00
00
00
00
00
00
00
00
14
00
09
00
00
00
00
01
00
08
00
05
0A
02
0C
08
00
00
05
0D
00
00
0D
00
00
02
00
00
02
06
02
03
02
00
00
04
00
00
00
00
07
00
00
00
04
07
04
07
01
00
01
00
00
00
00
00
03
00
00
00
02
00
0C
03
06
00
01
06
00
06
0A
00
00
03
0E
0F
15
16
18
0A
0C
03
02
00
00
02
00
06
02
2B
29
2B
3F
2B
44
38
1F
0F
0B
05
03
06
0C
13
1A
11
16
11
22
4B
60
43
38
02
09
01
02
1B
1F
1B
05
0C
0B
0A
0E
1D
2E
29
27
16
02
09
0A
16
1A
10
04
00
02
04
06
12
12
1C
18
01
01
01
01
14
13
12
12
11
0A
0D
05
0D
10
1B
2A
01
03
03
05
00
11
14
1B
1F
28
38
49
42
30
4A
48
2A
00
00
03
00
00
00
00
05
17
24
2B
2C
2B
26
83
04
0A
00
09
03
00
0A
00
00
01
05
0A
0B
0B
11
20
09
00
00
00
0D
00
00
00
00
00
00
01
04
04
08
37
04
00
00
09
00
01
00
00
00
03
09
00
00
07
01
29
01
02
01
00
02
06
02
00
00
00
00
00
00
01
00
15
00
09
00
00
00
00
00
00
0B
00
05
08
04
0F
07
00
01
03
0C
00
00
08
00
00
01
00
00
02
06
02
04
02
00
00
03
00
00
00
00
06
00
00
00
03
06
03
08
00
00
00
00
00
00
00
00
02
00
00
00
02
02
0B
05
09
02
02
07
00
09
1E
16
12
23
22
29
30
23
18
0D
15
03
01
07
0F
1C
20
30
49
6F
76
7C
7E
79
73
62
45
0E
13
18
27
36
3A
43
5C
65
82
75
9C
E7
FC
D4
92
03
13
17
28
37
3D
38
2C
52
57
49
AD
B3
FF
C0
84
14
0C
18
24
22
2E
2F
2C
22
2B
27
3B
49
70
87
69
03
07
12
1C
27
24
28
3A
31
1E
30
22
2E
50
8E
E6
02
04
0A
12
0F
1E
25
5C
76
8E
AC
9D
7B
76
BD
BD
28
01
01
03
00
00
05
1F
58
6F
67
57
47
3F
50
A5
04
0A
00
06
00
00
01
08
0B
17
1D
1D
1B
1F
19
21
0A
00
00
00
00
00
00
00
00
00
01
02
04
05
09
39
03
00
00
09
00
00
00
00
00
00
07
00
00
07
00
2B
00
02
00
00
01
07
00
00
00
00
00
00
00
01
00
14
00
09
00
00
00
00
00
00
08
00
06
07
02
0E
06
00
00
02
0B
00
00
08
00
00
00
00
00
02
05
01
03
01
00
00
03
00
00
00
00
04
00
00
01
05
01
04
09
00
00
00
00
00
00
00
00
03
00
00
00
01
01
0A
07
0B
00
01
07
04
1E
34
21
23
41
37
2C
23
18
0E
0D
22
05
19
41
5B
89
8C
8C
AE
DF
CF
A0
65
3F
37
3C
31
48
88
99
B4
CF
CC
B8
B1
D9
F3
89
68
7D
96
76
42
6D
9B
A6
A7
A3
D8
B5
A6
D8
A9
5B
96
83
8F
62
3C
74
8D
A5
A8
79
71
6E
6D
6C
32
19
22
35
48
50
2E
48
7C
96
9B
90
7C
6D
5A
41
1B
12
0A
15
25
50
54
0B
2B
4C
75
8C
96
AA
BC
55
48
41
3D
31
2A
42
2E
25
05
15
26
3E
6C
82
75
3A
27
28
23
1B
1A
1F
5E
03
09
00
00
07
25
2D
2D
0E
06
09
0C
0A
0D
14
14
09
00
00
00
00
00
00
00
00
00
06
01
03
07
0C
3E
03
00
00
07
00
00
00
00
00
01
08
00
00
07
00
26
00
02
00
00
00
02
00
00
00
00
01
00
00
00
00
14
00
0A
00
00
00
00
00
00
09
00
06
09
00
0E
08
01
00
02
0B
00
00
0B
00
00
00
00
00
03
04
01
02
04
00
01
03
00
00
00
00
05
00
00
01
04
03
03
09
00
00
00
01
00
00
01
0C
13
06
01
00
01
03
09
03
07
02
02
08
0A
28
4A
3D
36
3D
0F
09
0E
14
0C
09
1A
19
31
49
56
72
6A
66
43
72
36
34
39
2B
2A
30
35
74
5E
4E
54
5C
49
29
15
00
2C
1F
30
5B
5F
46
1A
70
52
25
28
26
28
00
0A
00
00
00
25
3B
46
31
0C
8C
43
25
23
19
06
0B
1B
00
00
00
00
1B
1A
1F
0B
78
56
2B
21
30
15
00
00
00
00
0E
0B
17
1C
26
32
38
43
4B
3F
46
43
38
1E
18
27
32
2D
23
17
2B
1C
2E
09
13
26
43
41
2B
11
19
1C
1A
16
10
0E
16
66
04
0B
00
00
0C
09
03
01
07
05
0B
0B
0B
07
09
05
09
01
00
00
00
00
00
00
00
00
07
02
01
01
04
37
06
01
00
0A
00
00
00
00
00
0E
0D
00
01
07
00
2B
00
03
00
00
01
04
01
00
00
01
00
00
00
01
00
16
00
09
00
00
00
00
01
00
08
00
05
09
00
0B
06
01
00
01
0B
00
00
0A
00
00
00
00
00
02
03
00
02
01
00
00
04
00
00
00
00
04
00
01
01
03
02
00
08
00
00
00
01
00
00
00
00
00
00
00
00
01
00
03
00
02
00
02
04
00
15
0B
00
00
00
06
04
02
0A
05
03
0C
17
2A
20
00
0E
00
00
00
00
15
16
12
00
02
06
05
47
5A
1F
00
00
00
00
00
00
00
00
00
0A
0B
06
04
49
5B
09
00
00
00
00
00
00
00
00
00
00
00
02
00
54
50
09
00
00
00
00
00
00
00
00
00
00
00
05
00
22
24
01
00
00
00
00
00
00
00
00
00
00
00
01
01
1B
23
0A
00
00
00
00
00
00
00
02
02
01
00
03
00
29
04
06
00
09
00
00
00
00
0E
03
02
00
01
00
52
03
0A
00
00
03
00
00
00
01
04
05
04
01
01
05
00
0A
00
00
00
00
00
00
00
00
05
08
02
01
02
03
2D
04
01
00
08
00
00
00
00
00
16
0C
00
00
05
00
28
01
03
00
00
01
08
01
06
00
02
00
00
00
02
00
16
00
09
00
00
00
00
01
00
08
00
05
09
02
0C
06
00
00
01
0C
00
00
08
00
00
03
00
00
02
02
00
01
02
00
01
03
00
00
00
00
00
00
01
00
02
03
00
08
01
00
00
00
00
00
00
00
00
00
00
00
00
00
04
00
00
00
02
01
00
00
00
00
00
00
00
01
02
09
04
00
04
07
06
00
02
06
00
00
00
00
00
00
0F
00
03
02
00
20
19
00
00
00
00
00
00
00
00
00
00
01
05
04
00
13
06
00
00
00
00
00
00
00
00
00
00
00
00
00
00
28
00
00
00
00
00
00
00
00
00
00
00
00
00
01
00
19
08
00
00
00
00
00
00
00
00
05
00
00
00
00
00
14
13
0A
0A
05
00
00
00
00
00
01
03
01
00
04
00
2A
03
04
0D
0D
08
00
00
03
0B
03
04
00
00
00
54
03
0C
00
00
00
00
00
00
1C
04
05
04
03
01
05
00
0A
00
00
00
00
00
00
00
00
05
07
02
02
01
03
30
04
00
00
0A
01
00
00
00
01
15
0C
00
00
05
00
2A
01
03
01
00
02
0B
01
07
00
00
00
00
00
00
00
16
01
09
00
00
00
00
02
00
0A
01
04
07
01
0C
07
00
00
04
0C
00
00
00
00
00
03
00
00
02
04
00
01
02
00
02
03
00
00
00
00
00
00
01
01
03
04
01
06
00
00
00
00
00
00
00
00
00
00
00
00
01
07
05
00
00
01
03
00
00
00
02
01
00
00
00
01
03
08
03
01
01
03
02
01
03
01
01
00
00
00
00
00
0D
00
03
00
00
12
0F
01
01
00
00
00
00
00
00
00
00
02
05
01
02
01
06
00
00
00
00
00
00
00
00
00
00
00
00
00
00
13
00
00
00
00
00
00
00
00
00
00
00
02
00
01
00
01
00
00
00
00
00
00
03
04
00
0A
00
00
00
00
00
04
04
01
00
00
0D
00
02
00
00
00
00
03
00
02
00
29
01
00
04
01
00
00
00
03
0D
04
04
00
00
00
55
04
0A
00
0A
04
00
0A
00
1B
03
04
04
06
01
05
00
0A
01
00
00
11
00
04
00
00
04
08
01
03
00
03
30
04
01
00
0B
00
00
00
00
00
14
0B
00
00
07
01
2A
02
03
00
00
03
0C
01
07
00
03
00
00
00
01
00
16
