00
00
00
00
00
00
00
00
08
08
09
00
10
00
01
01
00
07
02
05
03
01
09
00
17
00
07
13
04
08
00
08
02
00
01
00
00
00
01
17
01
10
00
06
0C
0B
00
02
03
00
00
00
00
00
00
01
00
02
00
01
02
01
03
05
02
00
00
00
00
00
00
00
00
05
06
02
00
02
00
04
01
00
00
00
00
00
00
00
00
01
03
07
0B
01
00
00
00
00
00
00
00
00
00
00
00
00
00
00
00
00
00
00
00
00
00
00
00
00
00
00
00
00
00
00
00
00
04
08
00
00
00
00
00
00
00
00
00
00
00
00
00
00
00
03
00
00
00
00
00
00
00
00
00
00
00
00
00
00
00
00
00
00
00
00
00
00
00
00
00
00
01
0E
06
00
03
00
00
00
00
00
00
00
00
00
00
00
00
05
00
01
02
03
01
00
00
00
00
00
00
00
00
00
00
0C
02
00
01
00
00
01
00
00
00
00
00
00
00
0B
05
03
1A
01
00
15
00
02
01
00
00
00
00
00
00
00
04
00
02
02
0A
00
05
00
02
13
00
01
00
00
01
04
00
01
00
04
00
00
07
01
00
05
00
00
00
04
00
03
03
00
0D
01
00
01
01
03
01
03
03
01
01
01
03
01
03
07
04
03
02
04
01
02
01
00
00
00
00
02
04
0B
02
05
06
03
03
02
02
00
00
00
00
00
00
00
00
06
02
02
02
01
03
03
02
00
00
00
00
00
00
00
00
04
03
03
01
03
01
07
01
00
00
00
00
00
00
00
00
01
02
03
05
02
01
02
00
00
00
00
00
00
00
00
00
00
00
00
00
01
01
02
00
00
00
00
00
00
00
00
00
00
00
00
00
00
02
03
00
00
00
00
00
00
00
00
00
00
00
00
00
00
00
01
00
00
00
00
00
00
00
00
00
00
00
00
00
00
01
01
00
00
00
00
00
00
00
00
00
00
01
04
03
01
02
01
00
00
00
00
00
00
00
00
00
01
02
04
01
01
03
02
01
00
00
00
00
00
00
00
00
02
02
04
01
04
01
04
02
01
00
00
00
00
00
00
00
07
02
02
06
04
03
06
02
02
01
00
00
00
00
00
01
03
03
03
03
02
02
02
03
03
03
04
00
01
01
03
01
01
02
00
02
02
02
02
04
01
00
03
00
00
00
03
00
02
02
00
0B
00
00
01
00
02
01
01
02
01
01
00
04
00
02
05
03
02
02
04
01
02
00
00
00
00
00
02
03
0C
01
03
04
02
02
01
02
00
00
00
00
00
00
00
01
05
01
01
02
01
02
02
01
00
00
00
00
00
00
00
00
04
03
02
01
03
01
06
00
00
00
00
00
00
00
00
00
01
01
02
04
02
01
02
00
00
00
00
00
00
00
00
00
00
00
00
00
01
01
01
00
00
00
00
00
00
00
00
00
00
00
00
00
00
02
02
00
00
00
00
00
00
00
00
00
00
00
00
00
00
00
01
00
00
00
00
00
00
00
00
00
00
00
00
00
00
01
01
00
00
00
00
00
00
00
00
00
00
01
03
02
01
01
01
00
00
00
00
00
00
00
00
00
01
01
03
01
01
02
01
01
00
00
00
00
00
00
00
00
01
01
03
01
03
01
03
02
01
00
00
00
00
00
00
00
05
02
01
04
03
02
04
01
01
00
00
00
00
00
00
01
02
02
02
02
01
01
02
02
02
03
03
01
01
01
02
00
01
01
00
01
01
01
02
02
01
00
04
00
00
00
02
03
08
02
00
0A
00
00
00
00
02
01
00
02
01
01
00
04
00
01
03
02
01
01
02
00
03
01
00
00
00
00
01
02
07
00
02
02
01
01
01
01
00
00
00
00
00
00
00
01
04
01
01
01
01
01
01
01
00
00
00
00
00
00
00
00
04
02
01
01
03
01
05
00
00
00
00
00
00
00
00
00
01
01
02
03
01
01
01
00
00
00
00
00
00
00
00
00
00
00
00
00
00
01
01
00
00
00
00
00
00
00
00
00
00
00
00
00
01
01
01
00
00
00
00
00
00
00
00
00
00
00
00
00
00
00
01
00
00
00
00
00
00
00
00
00
00
00
00
00
00
00
00
00
00
00
00
00
00
00
00
00
00
01
03
01
00
01
01
00
00
00
00
00
00
00
00
00
01
01
02
00
00
02
01
01
00
00
00
00
00
00
00
00
01
01
03
00
02
00
02
01
00
00
00
00
00
00
00
00
03
01
02
05
03
02
03
01
01
01
01
00
00
00
00
01
02
01
02
01
01
01
01
02
01
02
02
00
01
01
02
00
00
01
00
01
01
01
01
02
01
00
07
00
00
00
02
00
21
02
00
07
00
00
00
00
02
01
01
02
00
01
01
04
00
01
08
02
01
00
02
00
02
00
00
00
00
00
01
05
09
00
02
02
01
01
01
01
00
00
00
00
00
00
00
00
02
01
0A
01
01
01
01
01
00
00
00
00
00
00
00
00
03
02
01
01
03
01
05
00
00
00
00
00
00
00
00
04
01
01
02
03
01
00
01
00
00
00
00
00
00
00
00
01
01
00
00
00
00
00
01
00
00
00
00
00
00
00
00
01
00
00
00
00
01
04
01
00
00
00
00
00
00
00
01
00
00
00
00
00
00
00
01
00
00
00
00
00
00
00
00
00
00
00
00
00
00
01
01
00
00
00
00
00
00
00
00
00
00
00
02
01
00
01
00
01
01
00
00
00
00
00
00
00
00
01
02
00
00
02
00
01
04
00
00
00
00
00
00
00
02
01
02
00
01
00
01
01
01
01
00
00
00
00
00
00
02
01
04
04
02
02
03
00
01
00
05
00
00
00
00
01
02
01
01
01
01
01
01
02
02
02
02
00
01
01
01
00
00
02
00
01
01
01
01
02
00
00
08
00
00
00
07
07
26
01
00
06
00
00
00
00
01
00
03
02
00
01
00
04
00
01
07
02
01
00
02
00
02
01
00
00
00
00
01
04
07
00
04
02
01
01
00
01
00
00
00
00
00
00
00
00
02
01
0A
01
00
01
01
01
00
00
00
00
00
00
00
00
02
02
01
00
02
00
04
01
00
00
00
00
00
00
00
03
01
01
01
02
01
00
01
01
00
00
00
00
00
00
00
01
01
00
01
00
00
00
01
00
01
00
00
00
00
00
00
01
01
00
00
00
01
03
01
00
00
00
00
00
00
00
01
01
01
00
00
00
00
01
01
00
00
00
00
00
00
00
00
00
00
00
00
00
00
02
00
02
00
01
01
00
01
00
00
00
00
00
02
01
00
01
00
01
03
03
01
00
01
00
00
00
00
01
02
00
00
01
00
00
05
02
01
00
00
00
00
00
01
01
02
01
01
00
01
01
00
01
00
00
00
00
00
00
02
01
03
03
02
01
03
01
00
00
03
00
00
00
00
00
03
01
02
01
01
01
01
03
01
02
02
00
01
01
01
00
00
02
00
00
01
01
01
01
00
00
03
11
00
00
05
0F
00
01
00
05
00
00
00
00
01
00
00
02
01
01
00
08
00
01
03
01
00
00
02
00
00
01
01
00
00
00
01
02
06
00
01
01
01
01
01
01
01
01
01
00
00
00
00
00
01
00
03
00
00
01
00
00
01
02
01
01
00
00
00
00
01
01
01
00
01
00
02
00
02
01
03
01
00
00
00
02
00
01
02
01
01
00
00
00
01
01
02
01
00
00
00
00
01
00
01
00
00
00
00
00
00
00
01
01
00
00
00
01
00
00
00
00
00
01
00
00
00
00
00
01
01
00
00
00
00
00
00
00
00
00
00
00
00
00
00
00
00
01
00
00
00
00
00
00
00
01
00
01
00
01
01
00
00
00
00
00
01
00
02
00
00
00
00
00
03
02
01
00
00
00
00
00
00
01
01
00
00
01
00
01
03
01
01
01
00
00
00
00
00
01
01
00
00
00
00
01
00
00
00
00
00
00
00
00
02
01
01
02
01
01
02
00
00
00
03
01
00
00
00
00
01
00
01
00
00
01
00
02
01
01
01
00
00
00
00
00
00
01
00
00
00
00
00
00
00
00
14
00
00
23
12
00
18
00
00
1D
0B
0D
04
16
00
02
00
00
03
10
08
00
00
01
00
13
0E
02
0E
0A
09
00
00
00
00
00
01
00
00
02
0E
04
00
00
0C
10
00
00
00
00
00
0F
23
11
00
0D
00
12
0A
00
06
00
09
09
00
04
1D
04
0A
00
00
00
19
0B
05
00
00
03
00
03
00
00
00
00
10
00
06
00
04
00
1A
00
00
0E
14
13
0F
00
03
00
00
03
0D
06
00
02
0B
00
00
22
1B
00
08
00
08
00
00
00
09
18
0C
01
00
14
0A
00
00
00
00
06
0B
00
00
00
09
00
00
07
00
00
00
00
11
00
08
00
07
06
00
00
00
02
00
00
00
13
00
08
00
12
0D
00
03
06
0E
06
0E
00
00
00
11
00
00
00
12
00
0F
09
09
03
00
17
00
00
0B
00
00
16
00
00
01
00
14
0F
00
00
00
00
00
00
00
00
1A
18
0A
00
00
00
0B
01
09
01
00
00
00
24
09
00
05
0B
00
00
0D
08
03
00
00
12
0F
00
0B
00
14
0B
00
0D
0E
1D
02
00
01
00
07
00
05
00
08
00
00
11
10
00
01
