01
02
01
00
08
02
06
01
0a
00
01
1c
02
07
04
01
01
06
03
01
02
00
06
06
01
01
01
01
06
04
04
02
04
07
04
01
04
05
0e
0e
14
0d
0f
05
02
02
01
02
03
00
01
03
01
0a
17
26
33
30
3a
2f
20
03
04
03
04
00
01
02
03
0a
17
29
38
43
44
3d
39
22
03
03
02
0a
02
02
05
01
08
20
25
30
39
32
35
37
10
07
04
02
01
01
01
09
0a
10
20
2d
3f
41
46
3d
0d
03
00
01
05
05
00
00
04
05
20
31
48
50
49
37
0d
04
09
00
03
00
00
0d
02
08
28
45
53
50
45
1f
05
03
04
01
00
00
00
02
04
0c
23
21
1c
1a
10
06
09
06
05
00
00
00
00
01
06
0a
11
0f
01
02
02
03
06
02
05
05
00
01
00
09
04
08
0e
0a
03
02
01
00
04
01
05
04
04
01
06
02
09
04
0c
04
03
01
03
03
03
04
0b
01
04
02
05
03
07
04
05
03
02
02
01
04
03
05
04
03
06
02
04
04
03
03
05
02
06
04
03
03
02
02
02
05
04
02
01
07
02
04
05
02
06
2c
02
19
1a
0c
01
02
01
00
09
03
06
00
0b
00
01
1c
02
06
04
02
00
05
03
01
02
00
06
05
01
01
01
01
05
04
05
02
03
07
05
02
08
0e
1f
2c
2e
1f
0d
03
02
02
01
01
02
00
05
15
26
33
41
44
49
3c
2c
2a
15
02
05
03
04
00
11
2a
3f
4d
4c
49
48
40
2f
35
2a
13
02
03
02
0a
09
23
35
39
31
2f
30
3b
3c
35
2e
12
06
08
04
02
03
0b
14
22
2c
34
3c
43
48
3d
37
14
05
03
00
01
06
05
02
0a
1b
27
46
57
57
42
33
12
03
04
09
00
03
00
00
0e
07
19
47
5e
4b
36
28
07
01
03
05
01
00
00
00
05
0b
18
36
26
12
10
04
03
0a
06
05
00
00
00
00
03
09
16
26
15
01
02
02
03
07
02
04
05
00
02
00
0c
08
10
1f
0c
02
02
01
01
03
01
05
03
05
02
06
03
0b
06
11
04
03
01
05
04
03
03
0b
01
07
04
05
03
07
05
06
03
02
02
01
04
03
05
04
02
06
02
05
03
02
03
07
01
07
04
03
02
02
01
02
06
04
02
02
07
02
04
05
02
06
2c
02
1a
1a
0c
01
02
01
00
09
03
06
01
0b
01
01
1c
02
07
03
01
01
05
03
00
02
00
06
05
01
01
01
01
05
04
04
02
04
07
05
03
12
1e
21
1b
23
19
0d
03
01
02
01
01
02
00
0c
30
60
5f
47
35
34
2e
26
0d
09
02
04
02
04
08
37
54
6c
68
4e
32
2f
32
26
0f
08
0a
01
03
03
24
50
5d
4d
3a
33
31
29
2c
30
15
08
03
05
07
06
1d
48
39
2b
34
46
46
42
38
38
1d
0d
05
03
03
00
0c
25
22
25
28
30
37
47
4a
3a
1b
06
03
02
04
09
01
0c
0d
16
2b
20
26
44
48
29
11
0f
03
01
03
05
01
00
00
00
0a
10
21
3d
1d
06
05
02
03
0a
06
05
00
00
00
01
07
0c
23
32
17
01
01
02
03
06
01
05
04
00
01
00
0e
0b
18
2f
0c
03
02
02
00
03
01
05
04
05
06
08
05
0d
08
17
05
03
01
03
03
03
04
0b
01
0a
08
08
04
09
06
07
04
03
02
01
03
03
05
04
02
07
03
07
04
03
03
07
02
07
04
03
03
02
01
02
06
04
02
02
08
02
04
06
02
06
2c
02
1a
1a
0b
01
02
02
00
09
03
06
00
0b
00
01
1a
02
06
04
01
01
05
03
00
02
00
07
05
01
01
01
01
05
04
04
03
04
07
04
03
15
26
2d
1d
0d
03
02
01
01
02
00
02
03
00
06
28
33
40
41
30
17
07
06
04
09
02
05
03
04
11
4e
5a
46
3a
35
2c
18
0b
04
03
06
0a
01
03
05
47
69
58
38
25
28
37
25
10
09
02
03
03
04
08
11
47
56
37
32
37
3c
41
3c
1e
09
03
08
04
03
03
0e
47
39
29
32
2d
35
30
3c
2b
0a
02
03
02
02
04
09
22
34
2c
27
32
27
2a
35
2d
07
02
0e
03
01
03
05
04
0b
0f
0f
18
18
24
33
0d
02
05
02
03
0b
06
04
00
00
00
01
09
0e
23
2b
13
01
02
02
03
07
01
04
05
00
02
01
10
0d
19
2d
0b
03
03
02
00
03
01
04
03
05
07
09
04
0e
09
16
05
04
01
04
04
03
04
0b
01
0a
08
09
04
09
07
08
05
04
03
02
04
03
05
04
03
07
03
07
04
03
03
08
02
08
04
04
03
02
02
02
05
04
02
03
08
02
05
06
02
07
2d
02
1a
1a
0c
01
02
01
00
08
02
06
01
0b
00
01
1c
02
06
04
01
01
06
03
00
02
00
06
05
01
01
01
01
05
04
04
03
04
07
04
05
0f
08
04
02
05
02
02
01
02
02
00
01
02
00
17
47
37
16
08
03
05
02
05
04
08
02
05
02
03
07
40
52
41
21
0b
03
02
04
03
03
06
0a
01
04
05
30
47
3c
34
27
12
0d
03
01
07
02
03
03
05
07
18
48
39
1e
23
33
34
1b
0c
02
05
02
08
04
02
03
18
52
3c
2d
32
2f
36
26
12
07
02
01
03
02
02
04
12
49
5d
53
45
45
2a
29
1e
0e
02
02
0f
03
01
03
05
0e
17
1a
14
17
15
1f
1e
08
02
05
02
03
09
06
05
01
00
00
01
08
0d
1e
15
0f
01
02
02
03
06
01
04
04
00
01
01
0f
0c
15
17
08
04
03
01
00
03
01
04
03
05
05
08
04
0d
08
10
05
05
02
05
05
03
03
0a
01
06
05
06
04
08
07
09
06
05
03
02
03
03
05
04
02
06
03
07
04
03
04
07
02
09
04
04
03
02
01
02
06
04
02
03
08
03
06
06
03
0a
2e
02
1a
1a
0c
01
02
01
00
08
02
06
00
0a
00
01
1c
02
07
03
01
01
06
03
00
02
00
07
05
01
01
01
01
06
04
04
02
04
08
04
02
05
01
04
01
05
02
02
01
02
02
01
01
02
00
03
05
02
02
03
02
05
02
05
03
08
01
05
03
03
11
20
09
05
05
04
02
01
04
03
03
05
0b
01
03
03
46
33
14
0a
03
05
09
02
01
07
02
03
02
05
07
0c
3a
30
1d
15
15
15
0e
07
02
04
02
07
04
02
03
14
4b
27
27
27
1f
20
14
0c
04
01
01
03
02
02
04
12
4c
4e
44
3e
41
2a
1c
0f
08
02
02
0f
03
01
03
05
18
2c
30
25
1e
14
15
14
05
02
05
02
03
0a
06
05
02
02
00
01
05
0b
13
0b
0d
01
02
02
03
07
01
04
04
00
01
01
0f
0a
0f
0e
08
04
02
02
00
04
01
04
04
04
05
09
03
0d
08
0e
05
05
02
04
03
03
03
0b
01
06
05
06
04
09
07
08
05
04
03
02
04
03
04
04
03
07
03
05
03
04
04
07
03
09
04
03
03
02
01
02
06
05
02
03
06
04
06
05
05
0b
2d
02
1a
1a
0b
01
02
02
00
08
03
06
00
0a
01
01
1b
02
06
03
01
01
05
03
00
02
00
06
05
01
01
01
01
05
03
04
02
04
07
05
02
05
02
04
01
05
02
02
01
02
02
01
01
02
00
01
03
02
02
03
02
04
01
05
03
08
01
04
02
04
01
02
03
05
04
03
02
02
04
03
02
05
0a
01
04
04
12
03
04
07
03
04
05
01
01
07
01
03
02
04
07
19
1d
04
02
02
0b
0b
09
04
01
04
02
07
04
03
03
18
38
1c
14
10
0e
0d
0d
09
04
01
01
03
01
02
04
15
54
53
47
36
31
18
0d
0c
05
02
02
0e
02
01
03
06
16
23
29
20
18
0f
0f
0f
05
02
05
02
03
0a
06
05
02
02
01
01
03
08
0e
07
0d
01
02
01
03
07
01
05
05
00
01
01
0e
06
0c
09
07
03
03
01
00
04
01
04
03
05
09
08
04
0b
06
0b
04
05
02
04
03
03
03
0b
01
08
05
07
04
09
07
07
06
04
02
02
04
03
05
04
03
07
03
06
03
05
05
06
04
09
04
04
03
02
01
02
06
04
02
02
07
03
06
05
07
0a
2c
02
1b
1b
0b
01
02
02
00
08
02
05
00
0a
00
01
1c
02
07
04
01
00
05
03
01
02
00
06
05
01
01
01
01
05
03
04
02
03
08
04
02
05
01
04
01
05
02
02
01
02
02
01
01
03
00
02
04
01
02
03
02
04
01
04
03
08
02
05
02
04
01
01
03
05
04
03
02
01
04
03
02
05
09
01
04
02
0c
03
04
07
02
03
04
01
01
06
01
03
02
05
07
06
04
02
01
02
09
08
07
03
01
03
02
07
03
02
04
10
0c
07
07
02
02
05
09
07
04
01
01
02
01
02
04
26
2e
26
25
1f
1d
0f
08
0a
04
02
01
0e
03
01
03
12
22
30
32
23
17
0d
0b
0c
04
01
05
02
03
0a
06
05
04
04
03
01
02
07
0a
05
0d
01
02
02
03
07
01
04
04
00
02
00
0c
05
08
06
06
03
02
02
00
04
02
05
03
05
0d
08
03
0b
05
09
04
04
02
04
03
03
04
0b
01
05
06
06
04
09
06
06
04
03
02
02
03
03
05
04
03
06
03
05
03
05
05
06
05
09
04
03
03
02
02
02
06
04
02
02
07
04
06
05
07
0a
2d
02
1a
1b
0c
