0A
00
00
02
00
00
00
00
00
00
00
00
00
03
03
00
00
08
03
00
00
00
00
00
00
00
00
00
00
00
06
11
00
00
01
00
00
00
00
00
00
00
00
00
00
00
01
29
09
00
01
00
00
01
00
00
00
00
00
00
00
00
00
03
01
01
01
01
01
00
00
00
00
00
00
00
00
00
00
00
02
03
02
01
01
01
00
00
00
00
00
00
01
00
00
00
05
03
02
01
01
01
00
01
00
00
00
00
00
00
00
01
12
06
03
03
03
02
01
00
00
00
00
00
00
00
00
59
03
35
0B
06
06
09
01
00
00
00
00
00
00
00
0C
EE
14
00
00
0E
07
08
00
00
00
00
01
06
00
04
0F
6F
03
0D
00
03
00
00
00
00
00
00
00
08
00
00
09
30
00
00
03
00
00
00
00
00
00
00
00
0D
41
00
18
02
0C
00
00
00
00
00
00
00
00
00
01
00
00
00
05
5A
11
20
00
0A
00
00
00
00
00
00
00
00
00
15
07
03
0F
00
01
00
00
00
00
00
00
00
05
01
00
00
39
03
01
00
00
00
00
00
00
00
10
1D
13
13
00
00
00
00
09
00
04
02
00
00
00
00
00
00
00
00
00
04
06
00
04
06
02
00
00
00
00
00
00
00
00
00
00
00
04
0C
01
01
00
00
00
00
00
00
00
00
00
00
00
00
01
14
0B
00
00
00
00
00
00
00
00
00
00
00
00
00
00
08
01
00
01
00
00
00
00
00
00
00
00
00
00
00
00
09
01
01
01
01
00
00
00
00
00
00
00
00
01
00
00
05
01
01
01
01
01
01
00
01
00
00
00
00
00
00
00
12
02
01
01
01
01
01
00
00
00
00
00
00
00
00
00
36
04
05
02
01
01
02
00
00
00
00
00
00
00
00
07
56
00
00
02
0E
00
00
00
00
00
00
00
04
02
14
09
23
02
0A
04
02
04
01
00
00
00
00
00
04
02
0A
05
12
02
03
0A
08
00
00
00
00
00
00
00
03
1F
03
11
02
11
04
0A
02
01
00
00
00
00
00
00
00
06
02
05
11
07
0E
04
07
00
00
00
00
00
00
00
01
01
08
04
03
05
02
00
01
00
00
00
00
00
00
07
02
00
01
0F
03
00
07
02
02
00
01
01
02
05
0A
1F
05
01
01
06
04
08
00
04
02
00
00
00
00
00
00
00
00
00
05
07
01
04
05
02
00
00
00
00
00
00
00
00
00
00
00
07
0C
03
01
00
00
00
00
00
00
00
00
00
00
00
00
01
11
0C
00
00
00
00
00
00
00
00
00
00
00
00
00
00
0E
01
00
01
00
00
00
00
00
00
00
00
00
00
00
00
08
01
01
01
01
00
00
00
00
00
00
00
00
00
00
00
07
01
01
01
01
00
01
00
00
00
00
00
00
00
00
00
0E
01
01
00
01
01
01
00
00
00
00
00
00
00
00
00
33
04
04
01
01
01
02
00
00
00
00
00
00
00
00
09
51
01
00
05
0B
00
00
00
00
00
00
00
03
02
15
0A
15
04
08
04
02
06
02
00
00
00
00
00
04
06
09
06
10
02
07
0A
08
03
01
00
00
00
00
00
04
1C
08
11
02
0D
05
09
03
00
00
00
00
00
00
00
01
07
05
04
0F
07
0C
06
09
00
00
00
00
00
00
00
01
01
06
07
03
06
03
00
02
00
00
00
00
00
00
06
02
00
01
0D
03
00
08
03
02
00
01
02
05
06
09
1F
02
00
02
08
04
08
00
04
02
00
00
00
00
00
00
00
01
00
05
05
00
04
05
02
00
00
00
00
00
00
00
00
00
00
00
06
0A
03
02
01
00
00
00
00
00
00
00
00
00
00
00
00
0E
08
02
01
00
00
01
00
00
00
00
00
00
00
00
00
0D
01
01
01
00
00
00
00
00
00
00
00
00
00
00
00
09
01
01
01
01
00
01
00
00
00
00
00
00
00
00
00
05
01
01
01
01
01
01
00
00
00
00
00
00
00
00
00
0C
01
01
00
01
01
02
01
00
00
00
00
00
00
00
00
2C
03
03
01
01
01
02
00
00
00
00
00
00
00
00
06
3F
00
00
04
06
00
00
00
00
00
00
00
03
01
10
06
12
0B
05
03
03
06
02
00
00
00
00
00
04
05
06
05
0D
02
06
04
07
00
01
00
00
00
00
00
05
13
05
0C
01
0D
04
07
02
00
00
00
00
00
00
00
01
05
04
05
0A
06
0B
04
04
00
00
00
00
00
00
00
00
01
06
0A
02
02
03
00
02
00
00
00
00
00
00
05
01
00
01
0B
02
00
07
07
01
00
01
01
03
06
06
15
04
00
02
03
03
05
00
03
02
01
01
00
00
00
00
00
01
01
03
04
01
00
03
02
02
01
00
00
00
00
00
00
00
00
00
03
08
00
02
01
01
01
00
00
00
00
00
00
00
00
00
04
0C
09
02
01
01
01
00
00
00
00
00
00
00
00
00
00
08
01
02
01
01
01
00
00
00
00
00
00
00
00
00
00
00
01
01
01
01
01
01
00
00
00
00
00
00
00
00
00
05
01
01
01
01
01
01
01
00
00
00
00
00
00
00
00
09
01
01
00
01
01
02
01
00
00
00
00
00
00
00
00
22
02
04
01
01
01
02
00
00
00
00
00
00
00
00
05
44
00
00
00
03
00
01
00
00
00
00
00
03
01
0B
05
0E
08
04
00
01
03
01
00
00
00
00
00
03
03
06
04
0A
01
01
04
06
02
00
00
00
00
00
00
03
0F
08
09
01
07
02
01
02
00
00
00
00
00
00
00
01
04
03
04
09
05
0A
02
05
00
00
00
00
00
00
00
00
01
04
08
01
02
02
01
01
00
00
00
00
00
00
04
01
00
01
07
01
00
04
04
02
00
01
01
03
05
05
0B
02
00
01
03
02
03
00
02
07
04
02
01
00
00
00
00
00
01
03
04
00
03
03
03
02
01
01
01
00
00
00
00
00
00
01
05
06
03
01
02
01
01
01
00
00
00
00
00
00
00
00
03
0C
09
02
01
01
01
00
00
00
00
00
00
00
00
00
03
09
01
01
01
01
01
00
00
00
00
00
00
00
00
00
00
05
01
01
01
01
01
00
00
00
00
00
00
00
00
00
00
08
01
01
01
01
01
01
01
00
00
00
00
00
00
00
00
06
02
01
01
01
01
02
01
00
00
00
00
00
00
00
00
1A
02
04
01
01
01
02
00
00
00
00
00
00
00
00
03
2C
06
03
00
04
01
01
00
00
00
00
00
03
01
0C
05
13
07
04
02
02
03
01
00
00
00
00
00
04
00
07
04
0A
01
06
05
0A
03
00
00
00
00
00
00
04
0F
07
07
01
05
01
02
02
01
00
00
00
00
00
00
02
07
01
03
05
04
09
05
04
00
00
00
00
00
00
00
00
00
04
04
01
04
03
00
03
00
00
00
00
00
00
05
05
00
01
04
01
01
04
02
02
00
01
01
02
0A
04
08
08
01
01
00
02
06
00
03
05
04
02
01
00
00
00
02
01
01
02
03
01
03
02
03
06
08
02
00
00
00
00
00
00
00
02
04
04
02
05
01
01
06
05
00
00
00
00
00
00
00
00
03
06
0B
02
01
01
02
05
00
00
00
00
00
00
00
00
01
09
01
01
01
00
01
03
00
00
00
00
00
00
00
00
00
02
01
01
01
00
00
02
00
00
00
00
00
00
00
00
00
05
01
01
01
01
00
01
00
00
00
00
00
00
00
00
00
08
02
01
00
01
01
01
01
00
00
00
00
00
00
00
00
10
01
03
01
01
01
02
01
00
00
00
00
00
00
00
03
25
02
02
01
00
01
01
00
00
00
00
00
03
02
0F
0A
10
06
06
02
02
04
00
00
00
00
00
00
03
01
04
02
05
01
03
06
05
01
00
00
00
00
00
00
01
0B
02
08
01
04
01
01
02
01
00
00
00
00
00
00
02
04
02
01
08
03
06
02
06
00
00
00
00
00
00
00
00
00
02
03
01
02
02
00
02
00
00
00
00
00
00
02
05
01
01
07
01
01
06
01
04
00
01
01
01
05
03
08
05
01
01
04
01
00
27
52
19
00
0F
00
21
00
00
12
32
00
00
00
27
00
2D
00
7F
35
14
00
00
00
00
44
3C
21
00
00
00
40
0B
37
34
00
3E
10
23
00
36
00
00
1B
00
8C
11
00
00
00
4F
02
00
00
00
48
00
00
13
00
00
00
23
09
00
00
00
09
30
69
01
00
30
06
61
00
00
1B
49
00
44
00
00
00
00
00
20
00
00
0A
00
00
66
3C
00
00
03
14
09
51
00
00
00
9C
4E
22
1C
00
47
00
02
08
00
30
00
2C
28
26
00
00
00
38
00
26
00
00
55
00
00
00
00
38
00
00
28
00
37
19
00
00
18
08
4A
00
00
25
49
21
00
08
51
00
00
42
86
45
27
10
31
00
00
00
17
33
00
00
47
00
00
00
00
75
00
48
00
76
33
35
00
10
32
35
57
30
03
00
00
46
09
84
54
00
40
2C
6C
12
0E
31
30
00
6A
00
81
44
3B
39
36
00
0B
2B
00
00
00
2E
00
5C
15
47
3C
00
00
33
00
00
06
00
2C
00
00
00
00
28
00
6A
00
00
59
00
00
00
00
88
12
00
3D
1C
12
00
44
00
29
4C
12
00
0F
