00
3E
19
01
00
00
00
00
00
00
00
00
00
0A
01
00
32
02
00
00
00
00
00
00
00
00
00
00
00
00
14
11
1F
00
00
00
00
00
00
00
00
00
00
00
00
00
01
00
00
00
00
00
00
00
00
00
00
00
00
00
00
00
00
00
03
00
00
00
00
00
00
00
00
00
00
00
00
00
00
00
00
00
00
00
00
00
00
00
00
00
00
00
00
00
00
00
00
00
00
00
00
00
00
00
00
00
00
00
00
00
00
00
00
00
00
00
00
00
00
00
00
00
00
00
00
00
00
00
00
00
00
00
00
00
01
00
00
00
00
00
00
00
00
00
00
30
56
2E
00
00
02
01
00
00
00
00
00
00
00
00
1D
04
14
0F
0B
00
03
02
00
01
00
00
3C
0B
00
00
03
05
18
06
00
0A
04
01
00
00
00
06
00
14
00
00
00
00
41
17
09
02
03
01
00
01
00
00
0C
09
00
00
00
00
00
00
04
01
04
04
01
00
03
1A
0E
00
00
02
28
0E
00
00
07
02
07
00
01
02
17
0B
07
00
0A
00
00
29
00
10
13
13
17
05
00
00
3D
4A
11
02
00
14
00
11
02
02
00
00
00
00
00
00
00
00
00
04
00
00
2C
02
00
00
00
00
00
00
00
00
00
00
00
00
03
07
0B
00
00
00
00
00
00
00
00
00
00
00
00
00
01
00
00
00
00
00
00
00
00
00
00
00
00
00
00
00
00
01
00
00
00
00
00
00
00
00
00
00
00
00
00
00
00
13
00
00
00
00
00
00
00
00
00
00
00
00
00
00
00
00
00
00
00
00
00
00
00
00
00
00
00
00
00
00
00
01
00
00
00
00
00
00
00
00
00
00
00
00
00
00
00
09
00
00
00
00
00
00
01
00
00
00
00
00
00
00
00
00
00
12
22
37
00
02
01
01
00
00
00
00
00
00
00
08
03
01
0F
0E
10
00
01
01
00
00
00
00
1B
0E
02
10
01
00
15
00
12
03
01
00
00
00
00
0B
00
07
00
01
00
00
29
07
07
00
01
00
00
00
00
05
09
00
00
00
00
01
0D
01
00
00
01
01
00
00
01
11
09
01
00
01
17
0D
00
00
02
00
03
00
00
00
0E
09
05
00
0C
00
00
09
00
06
08
09
0D
04
00
00
0C
2C
0B
05
00
08
0D
07
00
01
00
00
00
00
00
00
00
00
01
03
00
00
0D
00
00
00
00
00
00
00
00
00
00
00
00
00
00
04
01
00
00
00
00
00
00
00
00
00
00
00
00
00
01
00
00
00
00
00
00
00
00
00
00
00
00
00
00
00
00
00
00
00
00
00
00
00
00
00
00
00
00
00
00
00
00
0B
00
00
00
00
00
00
00
00
00
00
00
00
00
00
00
00
00
00
00
00
00
00
00
00
00
00
00
00
00
00
00
03
00
00
00
00
00
01
00
00
00
00
00
00
00
00
00
00
00
00
00
00
00
01
01
00
00
00
00
00
00
00
00
00
00
11
21
31
00
03
02
01
00
00
00
00
00
00
00
00
00
00
0C
05
11
02
02
01
00
01
00
00
07
09
02
0B
00
00
00
00
0B
02
02
00
00
01
01
08
01
00
00
00
02
00
20
02
04
01
01
01
00
01
00
05
08
00
00
00
00
00
04
02
01
00
01
01
01
00
01
10
09
03
00
00
10
08
00
00
02
00
03
00
00
00
09
07
05
01
0E
00
00
00
00
03
07
07
0B
01
00
00
03
1D
08
04
00
05
16
05
00
01
00
00
00
00
00
00
00
00
06
02
00
01
04
00
00
00
00
00
00
00
00
00
00
00
00
00
00
04
00
00
00
00
00
00
00
00
00
00
00
00
00
00
00
00
02
00
00
00
00
00
00
00
00
00
00
00
00
00
00
00
00
00
00
00
00
00
00
00
00
00
00
00
00
00
00
03
00
00
00
00
00
00
00
00
00
00
00
00
00
00
00
00
00
00
00
00
00
00
00
00
00
00
00
00
00
00
00
01
00
00
00
00
00
01
01
00
00
00
00
00
00
00
00
00
00
00
00
00
00
01
02
01
00
00
00
00
00
00
00
00
00
0F
17
1C
00
03
02
01
00
00
00
00
00
00
00
00
00
00
08
04
10
08
02
02
01
01
00
00
06
05
00
08
01
00
00
01
0D
04
02
00
00
01
00
06
03
00
00
00
00
02
19
04
04
01
01
01
00
01
01
05
07
00
01
00
00
00
03
04
02
01
02
02
01
01
02
0E
07
03
00
00
10
06
00
00
07
02
03
00
00
00
08
08
04
00
0D
01
00
05
00
04
06
07
0A
00
00
00
00
15
08
01
00
04
0C
04
02
00
00
00
00
00
00
00
00
00
05
03
00
04
0B
02
00
00
00
00
00
00
00
00
00
00
00
07
00
01
00
00
00
00
00
00
00
00
00
00
00
00
00
00
03
00
03
00
00
00
00
00
00
00
00
00
00
00
00
00
00
00
00
00
00
00
00
00
00
00
00
00
00
00
00
00
00
00
00
00
00
00
00
00
00
00
00
00
00
00
00
00
00
00
00
00
00
00
00
00
00
00
00
00
00
00
00
00
00
00
00
00
00
00
00
01
01
00
00
00
00
00
00
00
00
00
00
00
00
00
00
01
01
01
00
00
00
00
00
00
00
00
00
0F
1B
1F
00
03
01
01
00
00
00
00
00
00
00
00
00
00
05
03
0C
05
02
02
00
01
00
00
09
01
01
06
01
00
01
0B
06
06
03
01
01
01
01
06
02
00
00
00
03
00
1A
01
05
02
01
01
00
01
01
06
04
00
01
00
01
00
00
02
03
01
02
02
01
01
01
0B
06
03
00
00
08
03
00
01
06
01
02
00
00
00
07
06
03
00
07
01
00
01
00
02
06
06
08
00
02
01
09
16
06
02
00
03
06
02
01
00
00
00
00
00
00
00
00
00
05
02
00
01
02
01
01
00
00
00
00
00
00
00
00
00
00
00
03
03
01
00
00
00
00
00
00
00
00
00
00
00
00
00
02
01
07
00
00
00
00
00
00
00
00
00
00
00
00
00
01
00
00
00
00
00
00
00
00
00
00
00
00
00
00
00
00
01
00
00
00
00
00
00
00
00
00
00
00
00
00
00
00
03
00
00
00
00
00
00
00
00
00
00
00
00
00
00
00
00
00
00
00
00
00
00
00
00
00
00
00
00
00
00
00
00
00
00
00
00
00
01
01
00
00
00
00
00
00
00
00
00
00
07
11
08
01
02
01
00
00
00
00
00
00
00
00
04
00
00
07
04
06
05
02
01
00
00
00
00
03
01
02
04
00
00
00
07
04
06
03
00
00
01
00
05
02
03
00
00
00
00
11
01
03
02
01
01
01
01
01
05
02
00
00
00
01
00
00
03
02
02
02
02
01
01
01
07
04
02
01
00
01
04
00
00
06
01
02
00
01
01
06
08
03
00
03
01
00
05
00
02
05
05
08
02
06
02
0E
1A
0A
01
00
01
05
01
05
04
03
00
01
00
00
00
02
01
05
03
01
0D
08
02
02
00
02
01
00
00
00
00
01
01
03
06
05
03
01
03
00
00
00
01
00
00
00
00
00
00
00
00
03
01
0D
00
00
00
00
01
00
00
00
00
00
00
00
00
02
00
01
00
00
00
00
02
00
00
00
00
00
00
00
00
00
01
00
00
00
00
00
00
00
00
00
00
00
00
00
00
00
02
00
00
00
00
00
00
00
00
00
00
00
00
00
00
00
00
00
00
00
00
00
00
00
00
00
00
00
00
00
00
00
00
01
00
00
00
00
00
01
00
00
00
00
00
00
00
02
00
07
08
0C
0B
01
01
01
00
00
00
00
00
01
00
05
08
08
01
01
04
06
04
02
00
00
00
00
00
04
09
01
00
01
06
03
04
03
04
02
00
00
00
00
03
16
04
01
01
05
03
0B
03
02
01
01
01
00
01
00
02
01
03
02
00
02
01
03
06
01
01
02
02
01
00
00
0A
05
02
02
01
03
01
00
00
04
01
02
00
01
01
06
09
04
00
04
01
00
07
00
06
04
05
06
04
06
02
09
16
0B
01
09
02
00
26
12
5C
12
06
00
46
22
20
6C
13
00
00
00
2F
14
00
00
21
37
3C
00
54
00
00
00
58
3C
10
37
00
46
00
0C
1B
00
0B
00
1D
00
2E
00
00
00
4F
00
00
3B
26
26
16
00
00
00
16
43
00
78
00
00
6A
00
00
00
19
00
82
00
26
3C
00
00
00
24
00
00
39
00
00
00
00
00
1C
03
00
00
00
00
00
10
00
38
00
17
4E
00
00
08
00
00
00
4C
46
00
00
22
00
00
4F
11
00
16
21
00
00
1F
00
13
00
00
00
00
3E
30
4C
00
2A
7A
1B
52
00
2A
00
00
3E
13
12
33
09
23
00
00
00
00
00
00
39
44
00
00
00
00
04
5D
05
00
00
00
00
00
50
00
00
00
25
00
00
20
30
00
00
00
00
04
18
00
75
4C
4A
00
00
00
00
00
04
00
00
88
39
0D
00
07
62
2C
00
0C
00
3F
00
00
3B
00
48
00
00
00
00
21
2D
39
36
00
00
00
14
0B
23
00
0D
00
00
0D
00
00
5B
3D
00
00
00
00
00
41
40
10
2F
00
37
00
00
00
00
36
15
00
00
4F
00
26
00
00
5A
2D
00
13
4C
