00
00
36
0C
00
00
00
57
53
3F
40
02
3C
01
05
00
00
00
01
01
01
02
01
01
06
31
00
4B
2F
15
00
2C
03
00
00
00
01
02
02
01
03
0B
11
0D
25
14
00
00
01
01
01
01
01
01
01
01
01
02
06
00
00
01
00
00
00
01
00
01
00
01
01
01
01
02
05
20
17
06
00
04
01
01
01
00
00
01
01
01
01
00
01
01
03
00
07
00
00
00
00
00
00
00
01
01
00
00
00
00
00
00
00
08
00
00
00
00
00
00
01
00
00
00
00
00
00
00
00
02
00
00
00
00
00
00
00
00
00
00
00
00
00
00
00
0A
01
01
00
00
00
00
00
00
00
00
00
00
00
00
00
00
01
01
01
00
00
00
00
00
00
00
07
0A
00
00
00
00
00
00
00
00
00
00
00
00
00
00
10
33
00
00
00
00
00
00
00
00
00
00
00
00
00
00
10
15
00
1B
0A
07
00
02
00
00
00
00
00
00
00
00
00
00
7B
1A
00
23
00
00
00
00
00
00
00
00
00
12
00
00
08
00
0C
01
0A
1E
00
00
00
00
00
00
0B
5D
20
00
00
10
00
00
00
00
0E
0E
09
08
00
22
20
26
17
01
2C
02
02
00
00
01
01
01
00
01
00
02
04
10
05
16
10
0C
00
13
02
00
00
00
01
01
01
00
01
24
04
0F
07
03
00
00
01
01
01
01
01
01
00
00
01
03
0A
00
00
01
00
00
00
01
00
00
00
00
00
00
00
00
02
15
0B
01
01
07
00
01
01
00
00
00
01
00
00
00
00
00
02
01
04
00
00
00
00
00
00
00
00
00
00
00
00
00
00
00
00
08
00
00
00
00
00
00
00
00
00
00
00
00
00
00
00
06
00
00
00
00
00
00
00
00
00
00
00
00
00
00
00
05
01
00
00
00
00
00
00
00
00
00
00
00
00
00
00
00
01
01
00
00
00
00
00
00
00
00
03
02
00
00
00
00
00
00
00
00
00
00
00
00
00
01
0B
10
00
00
00
00
00
00
00
00
00
00
00
00
00
07
09
08
01
10
01
03
01
01
00
00
00
00
00
00
00
00
02
04
1D
0A
00
08
00
01
00
00
00
00
00
00
06
05
03
0C
07
02
08
00
0D
0F
03
00
00
00
00
00
06
17
15
01
00
08
04
04
04
00
0A
06
07
04
00
1E
0D
25
12
01
21
02
02
01
00
04
01
01
00
01
00
01
02
09
04
0C
0D
07
02
12
02
00
00
00
01
01
01
00
01
17
04
06
05
04
01
01
02
01
00
00
01
01
00
00
01
02
05
00
01
00
00
01
00
01
00
00
00
01
00
00
01
00
02
0C
09
01
00
09
00
00
00
00
00
01
01
00
01
00
00
00
02
01
04
00
00
00
00
00
00
00
00
00
00
00
00
00
00
00
00
08
00
00
00
00
00
00
01
00
00
00
00
00
00
00
00
04
00
00
00
00
00
00
00
00
00
00
00
00
00
00
00
05
01
00
00
00
00
00
00
00
00
00
00
00
00
00
00
00
00
01
00
00
00
00
00
00
00
00
04
02
00
00
00
01
00
00
00
00
00
00
00
00
00
01
0D
12
01
01
00
00
00
00
00
00
00
00
00
00
00
03
08
09
03
0E
02
06
03
02
00
01
00
00
00
00
00
02
04
09
1A
0C
00
08
00
04
00
00
00
00
00
00
04
05
05
0E
06
04
07
04
0C
11
05
00
00
00
00
00
05
14
10
01
03
07
05
05
02
00
08
05
05
03
00
14
0C
1E
0D
01
1C
01
02
01
01
01
00
01
00
01
00
01
02
0A
01
0C
07
09
00
10
02
00
00
00
01
01
01
00
01
13
04
06
04
02
00
00
06
01
01
01
01
01
00
00
01
01
04
00
00
00
00
00
00
01
00
01
00
01
00
00
01
00
00
08
07
01
01
05
00
00
01
00
00
01
01
00
01
00
00
00
01
00
03
00
00
00
00
00
00
00
01
01
00
00
00
00
00
00
00
07
00
00
00
00
00
00
01
00
00
00
00
00
00
00
00
05
00
00
00
00
00
00
00
00
00
00
00
00
00
00
00
05
01
00
00
00
00
00
00
00
00
00
00
00
00
00
00
00
00
01
00
00
00
00
00
00
00
00
05
02
00
00
00
00
00
00
00
00
00
00
00
00
00
01
06
0D
00
01
00
00
00
00
00
00
00
00
00
00
00
0C
04
06
03
0C
02
05
02
01
00
00
00
00
00
00
00
01
02
09
14
09
00
04
00
02
00
00
00
00
00
00
04
07
05
08
03
01
04
03
04
09
04
00
00
00
00
00
03
13
04
01
02
05
05
03
02
00
06
0B
0D
01
00
0F
01
18
0B
01
16
01
01
01
00
02
02
01
00
01
00
01
02
08
01
09
06
04
02
0A
01
0B
02
01
01
01
01
00
01
11
09
02
03
03
01
01
04
01
00
01
01
01
00
00
01
01
04
00
00
00
00
00
01
01
00
01
00
01
00
00
01
00
00
06
06
01
01
05
02
01
01
00
00
01
01
00
01
00
00
00
01
00
02
04
00
00
00
00
00
01
01
01
00
00
00
00
00
00
00
05
00
00
00
00
00
00
02
00
00
00
00
00
00
00
00
02
00
00
00
00
00
01
01
00
00
00
00
00
00
00
00
03
01
00
00
00
00
00
00
00
00
00
00
00
00
00
00
00
01
00
00
00
00
00
00
00
00
00
03
02
00
00
00
00
00
00
00
00
00
00
00
00
00
00
07
09
00
01
00
00
00
00
00
00
00
00
00
00
00
0E
05
03
02
07
03
03
02
00
00
00
00
00
00
00
00
03
04
07
15
06
01
05
00
03
00
00
00
00
00
00
02
05
03
08
04
01
04
04
06
0B
04
00
00
00
00
00
03
0F
06
01
03
03
03
02
07
00
05
07
05
07
00
11
08
1A
06
00
13
01
01
01
01
01
02
02
02
01
01
02
03
08
01
06
05
06
03
0B
01
0D
02
01
01
01
01
00
02
0C
05
03
07
02
00
00
03
01
01
00
01
01
00
00
01
01
07
00
00
00
00
01
02
01
01
01
00
01
00
00
01
00
01
04
04
01
01
05
02
01
01
01
00
01
01
00
01
00
00
01
00
00
01
06
00
00
00
00
00
00
01
01
00
00
00
00
00
00
00
04
00
00
00
00
00
00
01
00
00
00
00
00
00
00
00
02
00
00
00
00
00
01
00
00
00
00
00
00
00
00
00
03
00
00
00
00
00
00
00
00
00
00
00
00
00
00
00
00
00
00
00
00
00
00
00
00
00
00
03
02
00
00
00
00
00
00
00
00
00
00
00
00
00
00
09
06
00
00
00
00
00
00
00
00
00
00
00
00
00
09
02
00
01
06
01
01
01
00
00
00
00
00
00
00
00
03
03
05
0F
03
01
06
00
01
00
00
00
00
00
00
01
02
03
04
04
00
03
04
0A
07
02
00
00
00
00
00
02
0A
03
01
04
02
02
01
04
01
04
03
06
03
00
09
0E
0C
06
01
05
01
01
01
01
01
02
03
02
02
01
02
02
11
01
05
06
03
01
04
02
08
02
01
01
01
01
00
02
0B
08
04
04
03
01
01
04
02
01
00
01
01
00
00
01
02
04
00
02
02
01
01
02
04
02
01
00
01
00
00
01
00
00
05
03
03
01
09
03
09
02
01
00
00
01
00
01
00
00
01
00
00
02
04
00
00
00
00
00
00
01
01
00
00
00
00
00
00
00
03
00
00
00
00
00
00
01
00
00
00
00
00
00
00
00
04
00
00
00
00
00
00
00
00
00
00
00
00
00
00
00
04
01
00
00
00
00
00
00
00
00
00
00
00
00
00
00
00
07
01
03
01
01
00
00
00
00
00
03
02
00
00
00
01
02
02
00
00
00
00
00
00
00
00
03
08
00
00
00
00
01
00
00
00
00
00
00
00
00
08
02
02
01
04
03
01
00
02
00
00
00
00
00
00
00
03
03
02
0D
04
01
06
01
02
00
00
00
00
00
00
01
02
03
04
04
01
03
02
03
05
03
01
00
00
00
00
02
0A
03
01
02
02
03
01
00
00
00
4C
00
00
85
45
00
5D
00
00
6F
2C
32
10
53
00
06
00
00
0D
3E
1D
00
00
05
00
47
34
09
34
28
21
00
00
00
00
00
04
00
00
07
34
0D
00
00
2C
3C
00
00
00
00
00
39
84
40
00
32
00
46
25
00
16
00
23
23
00
10
6F
0F
26
00
00
00
60
2A
15
00
00
0A
00
0C
00
00
00
00
3D
00
16
00
10
00
64
00
00
36
4D
49
38
00
0C
00
00
0A
32
17
00
06
29
00
00
81
65
00
20
00
1E
00
00
00
24
5B
2D
04
00
4D
26
00
00
00
00
18
2B
01
00
02
22
00
00
1A
00
00
00
00
3F
00
1E
00
19
17
00
00
00
07
00
00
00
4A
00
1D
00
43
31
00
0A
17
37
16
34
00
00
00
3F
00
00
00
46
00
38
24
21
0B
00
58
00
00
2B
00
00
55
00
00
03
00
4C
3A
00
00
00
00
00
00
00
00
62
5C
26
00
00
00
29
04
24
03
00
00
00
89
23
00
11
2B
00
00
32
1E
0B
00
00
43
3A
00
2A
00
4A
2B
00
31
36
70
07
00
03
00
1B
00
12
00
1F
00
00
41
3E
00
05
