0F
12
00
00
00
00
42
1D
03
47
00
00
0D
01
00
00
00
04
05
08
00
00
00
57
2F
7F
00
0A
04
0F
00
09
00
22
00
00
00
00
00
00
00
0C
33
01
00
03
00
00
00
00
00
00
00
00
00
00
01
00
03
08
05
00
05
0A
00
00
00
00
00
00
00
00
00
00
01
00
00
03
00
08
00
00
00
00
00
00
00
00
00
00
00
00
02
05
03
09
00
00
00
00
00
00
00
00
00
00
00
00
00
00
00
00
00
00
00
00
00
00
00
00
00
00
00
00
00
02
04
00
00
00
00
00
00
00
00
00
00
00
00
00
00
00
00
00
00
00
00
00
00
00
00
00
00
00
00
00
00
00
00
00
00
00
00
00
00
00
00
00
01
00
00
00
0B
0F
02
02
00
00
00
00
00
00
00
00
01
04
00
04
00
00
06
00
00
00
00
00
00
00
00
00
01
15
01
00
00
0A
00
09
00
00
00
00
00
00
00
01
03
00
03
08
00
00
0A
00
04
06
00
00
00
00
01
01
30
0B
03
08
04
02
01
00
03
00
01
05
00
00
03
1E
02
07
05
00
05
01
00
0D
01
04
00
00
00
00
36
20
07
40
02
00
07
00
00
00
01
01
02
05
00
00
00
13
17
69
02
0B
01
06
04
03
01
07
00
00
00
00
00
01
05
04
1D
03
01
01
03
01
01
00
00
00
00
00
00
00
01
01
01
08
02
03
04
03
01
00
00
00
00
00
00
00
00
01
00
01
01
04
01
03
00
00
00
00
00
00
00
00
00
00
00
00
04
03
02
03
00
00
00
00
00
00
00
00
00
00
00
00
00
01
00
01
00
00
00
00
00
00
00
00
00
00
00
00
00
00
01
01
00
00
00
00
00
00
00
00
00
00
00
00
00
00
00
01
00
00
00
00
00
00
00
00
00
00
00
00
00
00
00
01
00
00
00
00
00
00
00
00
00
00
00
00
02
04
01
01
00
00
00
00
00
00
00
00
00
01
01
01
01
01
02
01
00
00
00
00
00
00
00
00
00
01
01
01
00
02
02
02
01
00
00
00
00
00
00
00
00
01
02
03
02
02
02
02
03
02
00
00
00
00
00
00
02
00
04
06
02
02
01
04
04
04
02
03
00
00
01
06
01
02
02
00
07
01
03
01
00
04
00
00
00
00
2C
1A
00
30
02
00
06
00
00
00
00
00
02
06
00
00
00
11
10
5B
02
09
01
05
05
02
00
07
00
00
00
00
00
00
03
04
19
03
01
01
03
01
00
00
00
00
00
00
00
00
02
01
01
04
02
02
04
03
01
00
00
00
00
00
00
00
0F
02
00
00
01
03
01
02
00
00
00
00
00
00
00
00
00
00
00
00
04
02
02
03
00
00
00
00
00
00
00
00
00
00
00
00
00
01
00
01
00
00
00
00
00
00
00
00
00
00
00
00
00
01
00
01
00
00
00
00
00
00
00
00
00
00
00
00
00
00
00
01
00
00
00
00
00
00
00
00
00
00
00
00
00
00
00
00
00
00
00
00
00
00
00
00
00
00
00
00
02
04
00
01
00
00
00
00
00
00
00
00
00
00
01
01
00
00
02
01
00
00
00
00
00
00
00
00
00
00
01
01
00
01
01
01
02
00
00
00
00
00
00
00
00
01
02
03
02
01
01
02
03
02
00
00
00
00
00
00
01
00
04
07
02
02
01
03
04
03
01
02
00
00
02
05
00
01
01
00
06
01
02
01
00
03
00
00
00
00
24
13
00
03
01
00
05
00
00
00
00
00
02
03
00
00
00
1B
0B
47
01
07
00
04
04
01
00
06
00
00
00
00
00
00
03
03
14
0B
00
01
02
01
00
00
00
00
00
00
00
00
02
00
01
04
01
02
03
02
00
00
00
00
00
00
00
00
08
01
00
00
01
02
01
02
00
00
00
00
00
00
00
00
00
00
00
00
03
01
01
02
00
00
00
00
00
00
00
00
00
00
00
00
00
00
00
01
00
00
00
00
00
00
00
00
00
00
00
00
00
03
00
01
00
00
00
00
00
00
00
00
00
00
00
00
00
00
00
01
00
00
00
00
00
00
00
00
00
00
00
00
01
00
00
00
00
00
00
00
00
00
00
00
01
00
00
00
01
04
00
01
00
00
00
00
00
00
00
00
00
00
01
01
00
00
01
01
00
00
00
00
00
00
00
00
00
00
01
01
00
01
01
01
01
00
00
00
00
00
00
00
00
01
01
01
02
01
01
02
03
02
00
00
01
00
00
00
02
00
03
04
01
02
02
03
03
02
01
02
00
00
01
04
00
02
01
00
06
01
01
01
00
03
00
00
00
00
1A
0C
00
10
01
00
05
00
00
00
00
00
02
01
00
00
00
16
0B
3D
01
07
00
03
03
01
00
07
00
00
00
00
00
00
04
02
14
09
00
01
01
01
00
00
00
00
00
00
00
00
01
00
01
02
01
01
03
02
00
00
00
00
00
00
00
00
10
01
00
00
01
03
00
02
00
00
00
00
00
00
00
00
01
00
00
00
02
01
01
02
00
00
00
00
00
00
00
00
00
00
03
00
00
00
00
01
00
00
00
00
00
00
00
00
00
00
00
00
00
02
01
01
00
00
00
00
00
00
00
00
00
00
00
00
00
00
00
01
00
00
00
00
00
00
00
00
00
00
00
00
01
00
01
01
00
00
00
00
00
00
00
00
01
00
00
00
02
04
00
00
00
00
00
00
00
00
00
00
00
00
01
01
00
00
01
00
01
00
00
00
00
00
00
00
00
00
01
01
00
01
01
02
01
00
00
00
00
00
00
00
00
01
01
02
01
01
01
02
01
01
00
01
01
00
00
00
02
00
02
03
01
01
01
02
02
01
01
02
00
00
01
03
00
02
02
00
05
01
01
00
00
04
00
00
00
00
12
0C
00
17
01
00
02
00
00
00
00
00
01
01
00
00
00
10
0B
31
01
0B
00
02
01
01
00
05
00
00
00
00
00
00
04
0E
0E
05
00
01
00
01
00
00
00
00
00
00
00
00
00
00
01
01
01
01
02
02
00
00
00
00
00
00
00
00
0C
01
00
00
01
02
00
01
00
00
00
00
00
00
00
00
00
00
00
00
00
00
01
02
00
00
00
00
00
00
00
00
00
00
02
00
00
00
00
00
00
00
00
00
00
00
00
00
00
00
01
01
00
02
00
01
00
00
00
00
00
00
00
00
00
00
00
00
00
00
00
01
00
00
00
00
00
00
00
01
01
00
00
00
00
00
00
01
00
00
01
01
00
02
03
01
01
00
00
00
01
03
00
00
00
00
01
02
01
01
01
00
00
00
01
00
00
00
02
00
01
01
01
02
02
01
00
00
00
00
01
01
00
01
01
01
01
00
00
01
00
00
00
00
00
00
01
02
01
00
01
01
02
01
00
02
01
00
00
00
02
01
02
01
01
01
01
01
01
01
01
01
00
00
01
04
00
01
01
00
03
00
00
00
00
03
00
01
02
00
09
0B
08
C9
00
00
03
00
00
00
00
00
01
01
00
00
00
28
03
22
00
05
00
02
00
01
00
08
01
00
00
00
00
00
01
0F
0B
07
00
00
00
00
00
00
00
00
00
00
00
00
00
00
00
01
01
01
01
02
00
00
00
00
00
00
00
00
08
01
00
00
01
03
00
01
00
00
00
00
00
00
00
00
00
00
00
00
00
00
00
01
00
00
00
00
00
00
00
00
00
00
02
00
00
00
00
00
00
00
00
00
00
00
00
00
00
00
01
01
00
02
00
01
00
00
00
00
00
00
00
00
00
00
00
00
00
00
00
00
00
00
00
00
00
00
00
01
01
00
00
00
00
00
00
01
00
00
00
01
00
02
02
01
00
00
00
00
01
02
00
00
01
00
01
01
00
00
01
01
00
00
00
00
00
00
01
02
01
00
01
01
01
01
01
01
00
03
00
00
00
02
01
01
00
00
00
02
01
02
01
00
00
00
00
03
00
00
00
01
01
01
00
01
00
01
00
00
04
01
01
01
00
01
01
00
00
01
01
00
00
00
00
02
00
00
01
00
02
00
00
01
00
0A
15
07
00
04
00
09
00
00
05
0D
00
00
00
0A
00
0C
00
21
0E
05
00
00
00
00
12
10
09
00
00
00
11
03
0E
0E
00
10
04
09
00
0E
00
00
07
00
25
04
00
00
00
15
00
00
00
00
13
00
00
05
00
00
00
09
02
00
00
00
02
0C
1B
00
00
0D
01
1A
00
00
07
13
00
12
00
00
00
00
00
08
00
00
03
00
00
1B
10
00
00
01
05
02
15
00
00
00
29
14
09
07
00
13
00
00
02
00
0D
00
0C
0B
0A
00
00
00
0F
00
0A
00
00
16
00
00
00
00
0F
00
00
0A
00
0E
07
00
00
06
02
13
00
00
0A
13
09
00
02
15
00
00
11
23
12
0A
04
0D
00
00
00
06
0D
00
00
13
00
00
00
00
1F
00
13
00
1F
0D
0E
00
04
0D
0E
17
0D
01
00
00
12
02
23
16
00
11
0B
1C
05
04
0D
0D
00
1C
00
22
12
10
0F
0E
00
03
0B
00
00
00
0C
00
18
06
13
10
00
00
0D
00
00
02
00
0B
00
00
00
00
0B
00
1C
00
00
17
00
00
00
00
24
05
00
10
07
05
00
12
00
0B
14
05
00
04
