4B
47
16
03
00
00
00
02
03
02
00
00
00
00
1D
95
00
15
02
00
00
00
00
02
02
01
00
00
00
00
04
00
27
03
00
00
00
00
01
01
01
01
00
00
00
00
00
14
2E
00
00
00
00
00
01
01
01
00
00
00
00
00
00
52
00
00
00
00
00
00
00
00
00
00
00
00
00
00
00
00
00
00
00
00
00
00
00
00
00
00
00
00
00
00
00
00
00
00
00
00
00
00
00
01
00
00
00
00
00
00
00
02
00
00
00
00
00
00
00
01
00
00
00
00
00
00
00
00
07
00
00
00
00
00
00
01
01
00
00
00
00
00
0D
00
1E
00
3C
00
04
00
00
01
01
00
00
00
00
00
03
00
00
2D
0F
00
00
06
00
00
01
00
00
00
00
00
09
00
04
4B
1E
16
0B
00
00
00
01
00
00
00
46
00
00
01
34
08
00
09
07
00
00
00
00
01
00
00
0B
25
09
00
11
14
20
0D
02
00
00
00
00
00
01
00
00
00
00
00
16
02
0C
1E
00
00
00
08
00
00
00
02
00
24
08
02
26
13
3E
10
00
00
00
06
02
0A
00
00
00
13
0B
00
2B
22
0A
00
00
00
00
00
01
00
00
00
00
00
12
48
00
07
01
00
00
00
00
00
00
00
00
00
00
00
08
01
0A
02
00
00
00
00
00
00
00
00
00
00
00
00
00
17
10
00
00
00
00
00
00
00
00
00
00
00
00
00
00
25
00
00
00
00
00
00
00
00
00
00
00
00
00
00
00
08
00
00
00
00
00
00
00
00
00
00
00
00
00
00
00
08
00
00
00
00
00
00
00
00
00
00
00
00
00
00
00
1F
00
00
00
00
00
00
00
01
00
00
00
00
00
00
00
00
04
03
00
00
00
00
00
01
00
00
00
00
00
00
03
09
33
05
0B
00
04
00
00
01
01
00
00
00
01
13
0A
00
0C
0F
00
00
00
05
00
00
01
00
00
01
00
00
01
00
02
23
00
0C
00
01
00
00
01
00
00
00
14
00
01
01
13
07
00
05
00
01
00
00
00
01
00
00
00
1D
06
12
0B
06
01
0A
02
01
00
00
00
00
00
00
00
03
0C
02
00
00
09
13
00
00
00
06
01
01
00
00
00
0B
06
01
15
0B
2D
09
00
00
00
07
06
07
04
00
00
04
16
00
0D
1F
0B
00
00
00
00
00
01
00
00
00
00
01
12
34
00
05
00
00
00
00
00
00
00
00
00
00
00
00
0A
02
0E
00
00
00
00
00
00
00
00
00
00
00
00
00
00
0B
0C
00
00
00
00
00
00
00
01
01
00
00
00
00
00
27
00
00
00
00
00
00
00
01
01
00
00
00
00
00
00
0E
00
00
00
00
00
00
00
00
00
00
00
00
00
00
00
05
00
00
00
00
00
00
00
01
00
00
00
00
00
00
00
18
00
00
00
00
00
00
00
00
00
00
00
00
00
00
00
05
03
06
00
00
00
00
00
00
00
00
00
00
00
00
03
08
28
01
00
00
02
00
00
00
01
00
00
01
01
08
08
04
13
12
00
00
00
00
00
00
00
00
00
01
05
00
00
00
01
19
08
0A
00
00
00
00
00
00
00
00
0D
0E
04
01
09
02
00
06
00
00
00
00
00
00
00
00
00
1A
03
15
05
03
02
07
01
00
00
00
00
00
00
00
00
01
0E
02
00
00
07
0D
00
00
00
06
01
00
00
00
00
03
00
00
14
0B
25
07
00
00
00
05
05
03
01
00
00
02
19
00
05
1A
08
00
00
00
00
00
01
01
00
00
00
01
12
27
06
05
00
00
00
00
00
01
01
00
00
00
00
00
0C
02
11
01
00
00
00
00
00
00
01
01
00
00
00
00
00
05
0A
00
00
00
00
00
00
00
01
01
00
00
00
00
00
31
01
00
00
00
00
00
00
00
00
00
00
00
00
00
00
0E
00
00
00
00
00
00
00
00
00
00
00
00
00
00
00
03
00
00
00
00
00
00
00
01
00
00
00
00
00
00
00
14
00
00
00
00
00
00
00
01
01
00
00
00
00
00
00
12
03
06
00
00
00
00
00
00
00
00
00
00
00
00
04
06
1B
00
06
00
02
00
00
00
00
00
00
01
01
0A
05
06
1C
13
00
02
00
00
00
00
00
00
00
01
06
00
04
00
01
17
10
06
00
00
00
00
00
00
00
00
09
09
04
01
08
02
00
03
00
00
00
00
00
00
00
00
00
17
01
10
03
04
05
06
00
00
00
00
00
00
00
00
00
01
0E
02
00
01
05
0B
01
00
00
06
01
00
00
00
00
05
00
00
11
0A
31
05
00
00
00
07
06
02
09
00
00
04
14
01
05
17
04
00
00
00
00
00
01
01
00
02
00
01
0E
24
00
04
00
00
00
00
00
01
01
00
00
00
00
00
08
04
0C
00
00
00
00
00
00
01
01
01
00
00
00
00
01
04
05
00
00
00
00
00
00
01
01
01
00
00
00
00
00
2A
00
00
00
00
00
00
00
00
00
00
00
00
00
00
00
0D
00
00
00
00
00
00
00
00
00
00
00
00
00
00
00
03
00
00
00
00
00
00
00
01
00
00
00
00
00
00
00
11
00
00
00
00
00
00
00
00
00
00
00
00
00
00
00
09
02
02
00
00
00
00
00
00
00
00
01
00
00
00
03
07
14
00
00
00
01
00
00
00
00
00
00
01
00
07
03
03
15
14
02
03
00
00
00
00
00
00
00
01
00
02
03
00
01
1B
07
00
02
00
00
00
00
00
00
00
0B
07
02
01
04
03
00
05
00
00
00
00
00
00
00
00
00
0C
01
0E
02
03
0A
0A
00
00
00
00
00
00
00
00
00
02
07
02
01
03
0C
0C
02
01
00
04
01
00
00
00
00
04
00
00
0E
0C
25
05
00
00
00
08
02
01
00
00
00
02
17
01
05
14
04
07
00
00
00
01
01
01
00
02
00
01
0A
1B
06
05
00
00
00
00
01
01
01
01
00
00
00
09
02
02
07
00
00
00
00
00
02
01
01
01
00
00
00
00
00
00
00
00
00
00
00
00
02
01
01
00
00
00
00
00
00
25
00
00
00
00
00
00
02
01
00
00
00
00
00
00
00
06
00
00
00
00
00
00
01
01
00
00
00
00
00
00
00
00
00
00
00
00
00
00
01
01
01
00
00
00
00
00
00
0A
00
00
00
00
00
00
00
01
00
00
00
00
00
00
00
09
02
03
00
00
00
00
00
00
00
00
01
00
00
00
01
04
0E
00
01
00
00
00
00
00
00
00
01
01
01
05
01
01
0E
0D
00
01
00
00
00
00
00
00
01
01
04
02
00
00
01
17
0D
00
02
00
00
00
00
00
01
00
03
04
02
01
08
03
00
04
00
00
00
00
00
00
01
00
03
09
03
0D
02
06
04
03
00
00
00
00
00
00
00
00
00
03
03
01
06
00
07
09
01
00
00
02
00
00
00
00
00
05
04
00
10
05
1A
05
00
00
00
05
00
00
00
00
00
03
0A
02
11
14
02
09
04
05
02
01
01
01
03
06
02
01
09
10
02
05
00
00
00
01
04
01
00
01
00
00
00
0D
02
04
08
03
00
00
01
00
02
01
00
01
01
00
00
00
02
01
08
00
00
00
00
00
02
01
00
00
00
00
00
00
00
24
00
00
00
00
00
01
01
00
00
00
00
00
00
00
00
01
00
00
00
00
00
00
01
01
01
00
00
00
00
00
00
02
00
00
00
00
00
00
01
01
01
00
00
00
00
00
00
14
00
00
00
00
00
00
01
01
00
00
00
00
00
00
00
03
02
02
00
00
00
00
00
01
00
00
01
00
00
00
00
00
07
01
05
00
00
00
00
00
01
01
01
00
02
04
00
00
06
10
08
03
03
01
00
00
00
00
01
01
08
00
05
01
02
0F
0C
05
0B
00
00
00
00
01
01
00
00
01
00
01
09
02
00
04
00
00
00
00
00
00
01
00
08
07
04
0F
04
05
04
04
00
00
00
00
00
00
01
00
00
06
09
01
07
07
04
0B
00
00
00
01
00
00
00
00
00
09
07
01
08
0A
12
03
00
00
00
05
03
02
00
01
00
05
05
03
00
20
2D
52
06
49
1A
0C
00
04
0E
23
00
23
1C
02
1B
1A
28
00
5F
00
19
00
1B
00
00
00
00
25
00
00
00
00
2C
00
00
00
00
00
00
11
00
0D
11
44
34
00
15
2C
00
00
24
00
10
00
00
00
00
2F
37
00
0D
0C
00
07
00
22
18
2C
00
00
00
00
5C
17
0A
16
00
00
00
00
00
3E
00
00
00
00
00
00
42
9B
1B
54
00
00
00
00
0F
37
00
00
00
34
00
07
69
41
00
3D
0C
00
22
00
05
00
00
00
6E
4F
00
71
00
00
21
4D
00
00
03
00
00
00
00
00
00
50
7E
00
23
4E
00
43
6A
22
00
0C
1E
00
7C
00
20
00
00
00
00
5D
00
03
00
14
00
00
01
40
21
0D
00
00
00
00
25
00
00
48
00
5B
27
00
0B
37
00
3C
99
00
2B
00
20
54
30
17
00
1C
00
00
38
60
00
02
00
65
00
00
00
2D
00
06
43
19
00
3A
00
00
00
00
49
1F
00
1F
00
00
00
00
46
00
03
00
34
00
03
47
20
34
00
08
00
00
3A
15
22
00
5C
18
3E
00
2F
2D
00
00
00
1B
00
20
02
11
00
00
