00
00
04
02
02
01
06
26
56
20
08
06
02
0D
06
00
00
01
11
00
01
10
07
1C
6E
50
09
00
01
00
03
00
00
00
05
02
03
04
03
0E
59
73
08
00
03
04
08
00
00
00
00
04
03
03
02
0B
5B
7B
07
00
18
09
00
00
00
01
09
01
05
0E
01
03
4B
55
00
00
0F
09
02
00
03
00
00
02
03
02
0D
04
43
34
01
15
00
01
00
00
0C
0C
06
05
00
04
11
02
1D
18
00
00
12
0B
01
00
00
0A
00
00
00
07
0A
04
0C
17
0F
07
02
00
00
03
18
00
07
06
00
00
00
00
07
08
03
04
09
00
02
02
00
00
00
00
01
00
00
00
00
01
0F
04
00
00
00
05
00
02
01
05
00
0A
00
00
00
00
00
00
02
00
0C
09
32
01
00
05
01
00
02
01
00
00
02
05
00
00
00
68
03
0B
00
09
05
03
0D
00
00
00
00
00
00
00
01
00
0C
01
00
00
12
03
03
02
04
00
00
02
00
00
00
34
05
00
00
0B
02
01
03
02
00
00
07
01
00
04
00
34
01
05
00
00
00
0C
00
00
00
00
00
01
01
00
01
16
00
00
06
01
03
07
34
3B
2C
03
08
09
02
0E
07
00
00
03
0F
00
02
21
45
87
CB
31
04
03
01
00
02
00
01
00
06
01
03
06
09
41
C7
53
03
00
03
0A
09
00
00
00
00
01
03
04
03
29
AD
64
03
00
0C
08
00
01
00
02
08
02
07
0F
01
27
84
4D
00
00
0F
0A
06
00
03
00
00
01
02
02
10
21
71
36
05
19
00
00
00
00
0C
0C
06
04
00
06
18
16
30
18
00
00
11
08
01
00
00
0A
00
00
00
0A
0D
08
19
1E
15
0C
01
00
00
03
17
00
09
04
00
00
00
00
05
0A
08
09
0B
00
04
01
00
00
00
00
01
00
00
00
00
03
0B
02
00
00
00
08
00
02
00
06
00
09
00
00
00
00
00
00
02
00
0D
0A
2D
00
00
04
00
00
01
00
00
00
01
04
00
00
00
66
04
0B
00
0B
07
02
0C
02
00
00
00
00
00
00
01
00
0B
00
01
00
13
03
04
03
02
00
00
01
00
00
00
36
04
00
01
09
01
00
04
03
01
00
0B
00
00
05
00
34
01
04
00
00
00
07
00
01
01
02
00
00
00
00
00
15
00
00
06
01
02
04
15
31
25
01
08
07
02
0F
07
00
00
04
10
00
2A
9D
8A
B6
B7
37
06
02
02
00
02
00
00
00
04
05
4C
7A
74
5C
BC
68
03
00
01
04
09
00
00
00
00
07
12
2A
46
58
A7
77
01
00
02
07
00
00
00
02
09
01
06
14
2F
5D
99
59
00
00
11
08
02
00
03
00
00
00
04
00
2A
4B
98
44
08
1A
00
00
00
00
0C
0D
05
04
00
09
2E
42
53
23
00
04
13
08
01
00
00
0A
00
00
02
11
10
13
31
2A
1D
0E
00
00
00
02
17
00
08
06
00
00
00
00
02
0E
0E
12
0D
03
07
00
00
00
00
00
00
00
00
00
00
00
06
00
00
00
00
03
00
02
01
06
00
08
00
00
00
00
00
00
03
00
0E
0D
30
00
00
03
02
00
00
00
00
00
01
04
00
00
00
67
04
0C
01
09
03
00
00
01
00
00
03
00
00
00
01
00
0D
01
01
01
06
02
06
03
03
00
02
01
00
00
00
35
03
00
00
0B
02
02
03
03
01
00
0A
00
00
05
00
32
00
04
00
00
00
09
00
00
00
01
00
00
00
00
00
15
00
00
06
01
02
0A
34
3B
24
00
09
07
02
0E
06
00
00
03
0F
00
0F
6A
AE
C7
B2
20
02
02
02
00
00
00
00
00
04
36
9B
AA
8A
8E
DF
36
00
00
01
06
08
00
00
00
08
A8
C6
8D
46
67
C3
3B
00
00
02
08
00
00
00
02
21
7D
99
7B
50
76
A5
22
00
00
0F
09
05
00
02
00
0F
28
48
4E
6F
6F
A4
34
0F
1B
00
00
00
00
0D
0A
05
0D
11
29
7A
72
45
21
00
09
14
05
01
00
00
09
00
00
01
1A
26
30
39
30
29
02
00
00
00
01
18
00
07
05
00
00
00
00
0C
18
1F
20
12
04
09
00
00
00
00
00
00
00
00
00
00
00
05
00
00
00
00
01
00
03
00
00
00
00
00
00
00
00
00
00
02
01
0A
07
30
00
00
00
00
00
00
00
00
00
02
05
00
00
00
67
04
0C
00
00
00
00
00
00
00
00
03
00
00
00
02
00
0D
02
02
00
02
04
06
02
03
01
07
01
00
00
00
36
04
00
00
0A
01
02
02
03
00
00
0C
00
00
04
00
31
01
04
00
01
01
05
00
00
00
03
00
00
00
00
00
17
00
00
07
02
03
09
20
21
0F
00
07
07
01
0E
05
00
00
02
10
00
2A
A2
AC
AB
52
07
01
04
01
00
01
00
01
00
05
0E
BD
FF
D0
86
7A
19
00
00
02
10
0A
00
00
00
03
5B
D8
CF
83
5B
6C
25
00
00
09
0E
00
00
00
02
30
72
A4
83
73
76
5A
17
00
00
12
0E
07
00
04
00
58
8D
83
46
70
55
6A
35
13
1F
01
00
00
02
0E
0E
68
8E
67
3A
49
1A
09
1B
00
06
17
09
02
00
00
0A
26
3D
32
2A
22
00
10
0A
15
00
00
00
00
00
1A
00
00
00
00
00
22
1C
23
47
4F
3C
1E
02
0B
02
00
00
00
00
00
00
06
28
3A
04
0C
00
00
00
00
00
00
02
00
00
00
00
00
00
00
00
00
00
00
00
09
00
2B
00
00
00
00
00
00
00
00
00
01
05
00
00
00
66
05
0C
00
00
00
00
00
00
00
00
04
00
00
00
01
00
0B
02
01
01
02
04
04
03
04
01
07
02
00
00
00
34
04
00
00
0B
01
00
04
03
00
10
11
00
00
05
00
32
00
05
00
00
00
06
00
00
00
02
00
00
00
00
00
17
00
00
06
01
04
04
06
00
0E
00
08
09
02
0E
06
00
00
00
10
00
12
4C
43
1C
01
00
00
02
02
01
00
00
00
00
05
1B
86
C1
AF
54
1A
00
00
00
03
10
0A
00
00
00
03
70
CC
DC
87
49
21
00
00
00
09
0F
00
00
00
02
25
D9
E3
89
4E
4E
2A
00
00
00
11
0D
07
00
05
00
28
96
9F
23
22
21
1C
0B
0D
1C
07
03
00
04
0C
0D
12
57
70
3C
75
36
0B
00
03
04
15
0C
02
00
00
09
05
3F
3E
33
71
4B
39
43
4C
2B
09
00
00
06
18
00
1A
34
4B
3E
7C
70
80
7A
78
69
25
06
09
0B
00
00
11
3F
49
48
6C
8E
93
3C
1E
14
03
02
00
00
00
03
00
25
28
2E
4C
65
50
08
00
00
00
04
06
06
2F
00
00
00
00
03
1B
2D
22
0E
01
04
00
00
00
65
03
0C
00
00
00
00
02
02
05
06
04
01
00
00
00
00
0D
00
01
01
02
06
08
05
05
07
07
01
00
00
00
35
04
01
00
0A
01
00
03
03
00
16
0F
00
00
05
00
32
00
03
00
00
00
0B
00
08
00
03
00
00
00
00
00
18
00
00
04
01
04
01
03
00
0C
00
07
06
02
0E
07
00
00
00
10
00
00
0B
02
00
00
00
00
03
00
00
00
00
00
00
07
0B
28
12
06
02
03
00
00
00
02
09
09
00
00
00
00
2D
63
50
1A
02
00
00
00
00
00
07
00
00
00
03
0B
59
8D
72
2E
05
00
00
00
00
0C
06
02
00
04
00
17
6C
A6
77
3F
18
09
0B
08
16
03
04
00
03
0D
0C
3D
93
A7
6C
5A
39
11
1A
0B
0E
11
09
03
00
00
0A
6B
A4
A4
67
71
53
3C
3B
33
22
0C
06
01
04
18
01
68
AA
AA
6F
86
9B
9F
73
5C
45
1D
06
09
0A
00
00
49
91
8D
88
99
C4
DC
58
1C
11
02
01
00
00
00
02
16
5D
67
73
A0
CF
B2
28
00
00
00
02
0A
06
2F
00
05
5F
7F
81
8F
A1
85
29
02
03
00
00
00
68
04
0B
00
1E
5C
6E
78
78
63
0B
05
00
05
00
02
00
0C
01
00
02
19
2A
2A
2A
0E
07
07
02
00
00
00
35
04
01
00
0A
03
02
09
06
03
16
0F
00
00
04
00
32
01
04
00
00
00
0E
00
09
00
01
00
00
00
00
00
16
00
00
05
01
04
01
04
00
0E
00
07
08
02
0E
05
00
00
04
0F
00
00
00
01
00
00
00
00
02
02
00
01
00
00
00
04
01
00
00
00
01
03
00
00
00
01
00
08
00
00
00
00
00
00
00
00
03
00
00
00
00
00
00
00
00
00
02
00
00
00
00
00
00
00
00
00
00
0C
05
01
00
03
00
0A
15
0F
02
03
00
06
02
02
0E
01
03
03
06
0D
0C
1B
30
2D
10
0C
05
03
0A
04
05
0D
0A
02
00
00
0B
21
5A
59
46
1C
04
13
1E
15
11
08
06
02
06
16
00
27
75
85
55
43
40
54
43
29
1D
15
04
05
0A
00
00
1C
75
96
71
67
6F
A3
4D
16
0F
03
00
01
00
00
02
1F
83
A2
89
8B
B1
C6
42
00
00
02
02
06
06
30
00
09
70
93
78
9D
C3
C5
42
02
04
00
00
01
67
04
0B
01
47
88
7F
AA
AF
AA
27
05
00
06
00
01
01
0D
03
01
03
52
84
94
84
47
0D
06
01
00
00
00
34
04
00
00
0A
05
1C
1D
1D
0B
15
0E
00
00
05
00
33
01
04
00
00
00
0C
00
08
00
03
00
00
01
00
00
18
