0A
00
00
00
00
01
01
00
00
00
01
00
01
03
00
00
1E
00
02
00
00
01
01
00
00
00
01
01
01
00
00
00
00
00
00
00
00
01
00
00
00
00
01
00
01
00
01
35
00
00
00
00
00
00
00
00
00
00
00
01
01
00
01
0C
00
00
00
00
00
00
00
00
00
00
00
00
01
01
01
00
00
00
00
00
00
00
00
00
00
00
01
01
01
02
02
00
00
00
00
00
00
00
00
00
01
01
01
01
01
02
00
00
00
00
00
00
00
00
00
00
00
01
01
01
01
01
01
56
0B
00
00
00
00
00
00
00
00
00
01
01
01
03
06
53
5C
11
00
00
00
00
00
00
00
00
00
02
02
0C
30
40
20
00
00
10
10
07
00
00
00
00
01
05
06
11
00
3F
00
00
00
15
34
0A
00
00
00
00
01
1F
00
0D
4B
02
00
08
7B
00
00
00
00
00
00
00
03
17
00
26
2F
3A
10
00
1A
1B
00
00
00
00
00
00
00
05
01
15
15
01
00
0C
00
09
00
00
00
00
00
00
07
00
00
00
00
06
00
00
23
08
00
00
00
0A
02
08
00
04
00
00
2C
00
0B
00
00
00
00
01
01
00
00
00
00
00
00
02
00
00
10
01
01
00
00
01
00
00
00
00
01
01
01
00
01
00
02
00
00
00
01
01
00
00
00
00
01
00
01
00
01
0D
00
00
00
00
00
00
00
00
00
00
00
01
01
00
01
0C
00
00
00
00
00
00
00
00
00
00
00
00
01
01
00
09
00
00
00
00
00
00
00
00
00
00
00
00
01
01
01
09
00
00
00
00
00
00
00
00
00
00
00
00
00
01
00
00
00
00
00
00
00
00
00
00
00
00
00
00
00
00
02
22
06
06
00
00
00
00
00
00
00
00
00
00
01
01
03
20
17
05
00
07
01
00
00
00
00
00
00
00
03
24
10
26
15
04
02
09
0B
03
00
00
00
00
00
02
0B
04
05
16
01
0B
06
09
11
02
00
00
00
00
00
14
00
0E
15
01
00
07
1E
01
00
00
00
00
00
00
02
0B
00
07
10
2A
08
01
0A
10
00
00
00
00
00
00
01
01
00
03
0C
02
04
09
00
01
00
00
00
00
00
00
04
01
00
00
00
03
04
00
07
04
00
00
00
06
06
08
00
08
00
00
13
00
0A
00
03
00
00
00
01
00
00
00
00
00
02
03
00
02
11
04
02
00
00
01
00
00
00
00
01
00
00
00
03
00
04
00
00
00
00
00
00
00
00
00
01
00
00
00
01
0A
00
00
00
00
00
00
00
00
00
00
00
00
00
00
01
05
00
00
00
00
00
00
00
00
00
00
00
00
01
01
00
06
00
00
00
00
00
00
00
00
00
00
01
01
01
01
01
04
00
00
00
00
00
00
00
00
01
00
01
00
01
01
00
00
00
00
00
00
00
00
00
00
00
00
00
00
00
00
01
1C
04
04
00
00
00
00
00
00
00
00
01
01
01
01
01
0E
14
05
01
03
01
00
00
00
00
00
00
00
02
16
09
25
11
05
03
08
0D
04
00
00
00
00
00
01
06
03
05
11
02
0C
0A
09
12
02
00
00
00
00
00
0C
00
06
0C
02
02
06
1B
02
01
00
00
00
00
00
01
08
00
06
0D
1F
07
04
0C
0D
00
00
00
00
00
00
01
01
00
05
07
02
04
07
00
01
00
00
00
00
00
00
05
00
00
01
02
02
05
03
08
06
00
00
00
05
04
08
00
09
01
00
12
01
02
00
01
00
00
00
01
00
00
00
00
00
05
02
00
01
0A
02
01
00
00
01
00
00
00
00
01
01
01
00
00
00
03
00
00
00
00
00
00
00
00
00
01
00
01
00
00
08
00
00
00
00
00
00
00
00
00
00
00
01
01
00
01
06
00
00
00
00
00
00
00
00
00
00
00
00
01
01
00
04
00
00
00
00
00
00
00
00
00
00
01
01
01
01
01
03
00
00
00
00
00
00
00
00
01
01
01
00
00
01
00
00
00
00
00
00
00
00
00
00
00
01
00
00
00
00
01
13
04
04
00
00
00
00
00
00
00
00
01
01
01
01
02
0B
12
06
00
0A
01
00
00
00
00
00
00
00
01
15
0A
1D
05
05
01
04
06
05
00
00
00
00
00
00
04
04
02
0D
01
06
0A
06
0D
02
00
00
00
00
00
08
00
06
0B
01
02
03
14
02
00
00
00
00
00
00
01
07
00
05
07
1A
05
02
08
0C
00
00
00
00
00
00
00
01
00
02
09
02
05
04
00
01
00
00
00
00
00
00
03
00
00
00
00
02
03
01
02
05
00
00
00
05
05
07
00
05
00
00
10
01
05
00
01
00
00
01
01
00
00
00
02
01
04
02
00
00
0B
02
01
00
00
00
00
00
00
00
01
01
01
0B
02
00
03
00
00
00
00
00
00
00
00
00
01
00
01
02
03
06
00
00
00
00
00
00
00
00
00
00
00
01
01
01
01
0C
00
00
00
00
00
00
00
00
00
00
00
01
01
01
00
0D
00
00
00
00
00
00
00
01
00
01
01
01
01
01
01
02
00
00
00
00
00
00
00
01
02
01
01
00
00
01
00
00
00
00
00
00
00
00
00
00
00
01
00
00
00
00
01
10
03
03
00
00
00
00
00
00
00
00
01
01
01
01
01
02
0F
05
02
0C
00
00
00
00
00
00
00
00
01
13
08
18
07
02
04
05
07
04
00
00
00
00
00
00
05
09
01
0B
01
06
07
03
09
02
00
00
00
00
00
07
00
02
09
01
04
04
14
01
00
00
00
00
00
00
01
05
00
04
06
16
04
01
06
08
00
00
00
00
00
00
00
01
00
03
05
01
03
04
00
02
00
00
00
00
00
00
02
01
00
00
02
01
02
03
04
03
00
00
00
03
03
05
04
05
00
00
0B
01
0A
00
01
00
00
00
00
00
00
00
02
02
03
01
00
06
08
01
00
00
00
00
00
00
00
00
01
01
02
0E
00
00
01
00
00
00
00
00
00
00
00
00
01
00
01
02
03
05
00
00
00
00
00
00
00
00
00
00
01
01
00
01
02
08
00
00
00
00
00
00
00
00
00
00
00
00
01
01
02
04
00
00
00
00
00
00
00
01
00
00
01
01
01
01
01
06
00
00
00
00
00
00
00
00
01
01
01
00
00
01
01
00
00
00
00
00
00
00
00
00
00
01
00
00
00
00
02
10
02
02
00
00
00
00
00
00
00
00
01
01
01
02
03
08
0A
02
02
0A
00
00
00
00
00
00
00
00
01
0B
08
1B
03
03
03
03
09
03
00
00
00
00
00
00
07
06
01
07
01
02
04
00
06
02
00
00
00
00
01
04
00
04
07
01
04
05
10
01
00
00
00
00
00
00
01
04
00
07
05
11
03
00
03
07
00
00
00
00
00
00
00
01
00
02
07
01
02
03
01
00
00
00
00
00
00
00
02
00
00
00
03
01
01
03
06
01
00
00
00
03
03
04
07
06
01
00
0C
00
03
01
00
01
01
07
01
00
00
00
03
02
05
02
00
03
06
01
03
00
02
02
00
00
00
00
09
04
03
08
01
01
03
00
00
00
00
03
00
00
00
00
03
02
01
02
02
05
00
00
00
00
00
01
00
00
00
00
01
01
00
01
03
03
00
00
00
00
00
00
00
00
00
00
00
00
01
01
02
05
00
00
00
00
00
00
00
00
00
00
00
01
01
01
02
03
00
00
00
00
00
00
00
00
01
01
01
00
00
00
01
00
00
00
00
00
00
00
00
00
00
01
00
00
00
00
02
0A
02
01
00
00
00
00
00
00
00
00
01
01
01
02
03
0B
0B
02
02
09
00
00
00
00
00
00
00
01
02
0B
10
0E
03
02
03
02
04
04
00
00
00
00
00
01
04
07
01
05
01
04
01
02
09
02
00
00
00
00
01
04
00
05
05
01
02
04
0E
01
00
00
00
00
00
00
00
03
01
04
06
06
02
01
04
04
00
00
00
00
00
00
00
04
02
04
04
01
02
03
01
02
00
00
00
00
00
00
02
01
01
01
00
01
01
01
06
01
00
00
00
04
04
03
04
09
01
01
04
01
00
00
00
4C
00
00
86
46
00
5D
00
00
6F
2C
32
10
53
00
06
00
00
0D
3E
1D
00
00
05
00
47
34
09
34
28
21
00
00
00
00
00
04
00
00
07
34
0E
00
00
2C
3C
00
00
00
00
00
39
84
40
00
32
00
46
25
00
16
00
23
23
00
10
70
0F
26
00
00
00
61
2A
15
00
00
0A
00
0C
00
00
00
00
3D
00
16
00
10
00
65
00
00
37
4D
49
38
00
0C
00
00
0A
32
17
00
06
29
00
00
82
66
00
20
00
1E
00
00
00
24
5B
2D
04
00
4D
27
00
00
00
00
18
2B
01
00
02
22
00
00
1A
00
00
00
00
40
00
1E
00
19
17
00
00
00
07
00
00
00
4A
00
1E
00
43
31
00
0A
17
37
16
34
00
00
00
40
00
00
00
46
00
38
24
22
0B
00
58
00
00
2B
00
00
56
00
00
04
00
4C
3A
00
00
00
00
00
00
00
00
62
5C
26
00
00
00
2A
04
24
03
00
00
00
8A
23
00
11
2C
00
00
32
1E
0B
00
00
43
3A
00
2A
00
4B
2B
00
31
36
70
07
00
03
00
1C
00
12
00
1F
00
00
41
3E
00
05
