02
00
1A
FA
0D
28
00
00
00
00
09
01
00
00
00
02
00
06
01
00
0B
00
00
00
00
00
00
00
00
00
35
0C
04
05
00
00
00
00
00
00
18
00
00
00
11
00
00
00
00
00
00
00
00
00
00
00
00
00
0F
03
00
05
0F
04
06
00
00
00
00
00
00
00
00
05
00
06
00
00
00
16
00
00
00
00
00
00
00
00
00
00
00
00
04
00
02
08
00
00
00
00
00
00
00
00
00
00
00
00
03
09
00
04
00
00
00
00
00
00
00
00
00
00
00
00
01
00
04
07
00
00
00
00
00
00
00
00
00
00
00
00
00
02
00
08
00
00
00
00
00
00
00
00
00
00
00
00
00
04
02
06
00
00
00
00
00
00
00
00
00
01
00
05
02
03
00
00
00
00
00
00
00
00
00
00
00
00
10
00
02
06
00
00
01
00
00
00
00
00
00
00
00
11
13
00
03
06
02
0C
0A
00
00
00
00
00
00
00
00
0D
0D
00
00
09
01
00
1C
03
00
00
00
00
00
00
00
0D
00
00
00
04
00
25
00
0D
00
00
00
00
01
08
00
00
00
01
02
00
09
00
00
00
0B
16
17
16
00
00
00
03
03
00
01
00
00
01
02
02
01
00
02
00
00
02
00
07
00
00
01
02
0B
04
02
06
00
00
00
00
00
00
03
00
00
00
02
02
00
00
01
00
00
00
00
00
00
00
00
00
05
02
02
02
06
04
05
00
00
00
00
00
00
00
00
01
00
02
00
00
00
04
00
00
00
00
00
00
00
00
00
00
00
00
01
00
01
01
00
00
00
00
00
00
00
00
00
00
00
00
01
02
01
01
00
00
00
00
00
00
00
00
00
00
00
00
00
00
02
04
00
00
00
00
00
00
00
00
00
00
00
00
00
01
00
02
00
00
00
00
00
00
00
00
00
00
00
00
00
01
00
02
00
00
00
00
00
00
00
00
00
01
00
01
05
03
03
01
00
00
00
00
00
00
00
00
00
02
01
03
01
01
03
02
00
00
00
00
00
00
00
00
00
08
04
02
02
01
01
04
02
00
00
00
00
00
00
00
00
02
03
04
03
03
0A
01
05
01
00
00
00
00
00
00
00
07
00
00
00
01
01
04
00
03
02
0E
00
00
00
03
00
03
03
00
00
01
01
00
01
01
0D
09
2C
10
00
00
00
09
02
00
00
00
00
01
03
02
01
01
01
00
00
01
00
06
00
00
01
02
04
03
01
04
00
00
00
00
00
00
02
00
00
00
04
02
00
01
03
00
00
00
00
00
00
00
01
00
03
01
02
02
04
03
04
00
00
00
00
00
00
00
00
01
00
01
00
00
01
02
00
00
00
00
00
00
00
00
01
00
00
00
00
00
01
02
00
00
00
00
00
00
00
00
00
00
00
00
01
02
01
01
00
00
00
00
00
00
00
00
00
00
00
00
00
00
01
03
00
00
00
00
00
00
00
00
00
00
00
00
00
02
00
01
00
00
00
00
00
00
00
00
00
00
01
02
02
02
01
02
00
00
00
00
00
00
00
00
00
01
00
01
04
02
02
01
00
00
00
00
00
00
00
00
00
02
01
03
01
01
03
03
00
00
00
00
00
00
00
00
00
08
03
01
02
02
01
03
02
00
00
00
00
00
00
00
00
03
02
03
03
02
0A
01
05
01
00
00
00
00
00
00
01
06
01
01
00
01
01
03
01
03
02
0A
00
00
01
02
00
02
04
00
02
01
02
01
01
01
0C
06
03
0E
00
00
00
19
02
00
00
00
00
02
02
01
02
01
01
00
00
02
00
06
00
00
01
01
04
02
01
02
00
00
00
00
00
00
01
00
00
00
03
02
01
01
02
00
00
00
00
00
00
00
01
01
03
02
01
02
03
02
03
00
00
00
00
00
00
00
00
01
00
01
01
00
01
02
00
00
00
00
00
00
00
00
01
00
00
00
00
00
01
02
00
00
00
00
00
00
00
00
00
00
00
00
01
02
01
01
00
00
00
00
00
00
00
00
00
00
00
00
00
01
01
02
00
00
00
00
00
00
00
00
00
00
00
00
00
01
00
01
00
00
00
00
00
00
00
00
00
00
01
02
02
02
00
01
00
00
00
00
00
00
00
00
00
01
01
01
03
02
03
01
00
00
00
00
00
00
00
00
00
01
01
03
01
01
02
02
00
00
00
00
00
00
00
00
00
07
03
01
02
01
01
03
02
00
00
00
00
00
00
00
00
02
01
03
05
02
0E
01
04
01
01
00
00
00
00
00
01
07
01
01
01
01
01
02
01
02
01
08
00
01
01
04
00
05
02
00
01
01
02
02
01
01
08
05
00
0C
00
00
18
00
01
00
00
00
00
01
01
01
01
01
01
00
00
01
00
04
00
00
01
01
04
02
01
01
00
00
00
00
00
00
01
00
00
00
01
02
00
01
02
00
00
00
00
00
00
00
01
01
02
07
01
01
02
01
02
00
00
00
00
00
00
00
01
01
00
01
01
00
01
03
00
00
00
00
00
00
00
00
00
00
00
00
00
00
01
01
00
00
00
00
00
00
00
00
00
01
01
00
01
02
01
01
00
00
00
00
00
00
00
00
01
00
01
00
00
01
03
03
00
00
00
00
00
00
00
00
02
00
01
00
00
01
03
01
00
00
00
00
00
00
00
00
00
01
00
02
02
02
01
02
00
00
00
00
00
00
00
00
00
02
01
00
02
03
02
01
00
00
00
00
00
00
00
00
00
01
01
01
01
01
01
01
03
00
00
00
00
00
00
00
00
04
02
01
01
01
01
02
01
00
01
00
00
00
00
00
00
02
01
02
02
01
08
01
04
01
01
00
00
00
00
00
00
04
01
01
00
01
01
02
01
02
02
04
00
02
01
02
00
02
01
00
01
01
01
01
01
01
06
14
00
0B
00
00
00
00
01
00
00
00
00
01
01
01
00
01
01
00
00
01
00
02
00
00
01
01
05
02
01
01
00
00
00
00
00
00
01
01
00
00
01
01
00
00
01
00
00
00
00
00
00
00
01
00
01
05
00
01
01
01
02
00
00
00
00
00
00
00
00
01
00
01
01
00
01
01
00
00
00
00
00
00
00
00
00
00
00
00
00
00
00
01
00
00
00
00
00
00
00
00
01
01
00
00
02
02
00
01
00
00
00
00
00
00
00
00
00
00
00
02
00
01
03
02
00
00
00
00
00
00
00
00
01
00
02
04
01
01
05
00
00
00
00
00
00
00
00
00
00
01
01
02
01
01
03
01
00
00
00
00
00
00
01
00
00
03
01
00
01
01
01
00
01
01
00
00
00
00
00
00
00
01
01
01
01
00
01
01
02
00
00
00
00
00
00
00
00
02
01
01
01
01
01
01
01
00
01
00
00
00
00
00
00
01
00
01
01
02
07
00
02
00
00
00
00
00
00
00
00
01
00
01
00
00
01
01
01
02
03
06
00
01
00
01
00
03
01
00
00
01
01
00
01
00
04
17
04
05
00
00
00
00
01
00
00
00
00
00
00
01
00
01
00
00
00
01
00
01
00
00
00
00
04
02
00
00
00
00
00
00
00
00
01
00
00
00
00
01
00
00
00
00
00
00
00
00
00
00
01
00
02
09
00
00
02
01
01
00
00
00
00
00
00
00
01
00
00
02
01
00
01
02
00
01
00
01
00
00
00
00
00
00
00
01
00
00
00
01
00
00
00
00
00
00
00
00
00
01
00
00
02
02
00
00
00
01
01
01
01
00
00
00
00
01
00
01
00
00
03
01
00
00
00
00
01
01
00
00
01
00
03
02
01
02
03
01
00
00
00
00
00
00
00
00
00
02
01
01
01
01
02
00
00
00
00
00
00
00
01
00
00
02
00
01
02
01
01
00
00
04
00
00
00
00
00
00
00
00
01
00
01
00
02
01
01
00
00
00
00
00
00
00
00
02
01
01
01
00
00
00
00
00
00
00
00
00
00
00
00
00
01
01
01
02
04
00
01
00
00
00
00
00
00
00
00
02
00
01
00
00
00
02
01
01
01
04
00
01
00
01
00
03
01
00
00
00
00
00
00
0A
05
18
05
02
00
12
09
08
1C
05
00
00
00
0C
05
00
00
09
0F
10
00
16
00
00
00
17
10
04
0F
00
12
00
03
07
00
03
00
08
00
0C
00
00
00
15
00
00
0F
0A
0A
06
00
00
00
06
12
00
20
00
00
1C
00
00
00
06
00
22
00
0A
10
00
00
00
09
00
00
0F
00
00
00
00
00
07
01
00
00
00
00
00
04
00
0F
00
06
14
00
00
02
00
00
00
14
12
00
00
09
00
00
15
05
00
06
09
00
00
08
00
05
00
00
00
00
10
0D
14
00
0B
20
07
16
00
0B
00
00
10
05
05
0D
02
09
00
00
00
00
00
00
0F
12
00
00
00
00
01
18
01
00
00
00
00
00
15
00
00
00
0A
00
00
08
0D
00
00
00
00
01
06
00
1F
14
13
00
00
00
00
00
01
00
00
24
0F
03
00
02
1A
0C
00
03
00
11
00
00
0F
00
13
00
00
00
00
09
0C
0F
0E
00
00
00
05
03
09
00
03
00
00
03
00
00
18
10
00
00
00
00
00
11
11
04
0C
00
0E
00
00
00
00
0E
05
00
00
15
00
0A
00
00
18
0C
00
05
14
