01
04
07
02
1c
01
00
0a
01
06
02
08
00
01
02
01
02
04
04
06
01
01
01
01
06
06
00
02
01
03
06
01
02
01
02
02
05
0f
0d
14
0e
0e
05
04
01
04
07
04
03
04
03
20
2f
3a
30
33
26
17
0a
01
03
01
00
03
03
03
22
39
3d
44
43
38
29
17
0a
03
02
01
00
04
07
10
37
35
32
39
30
25
20
08
01
05
02
02
0a
02
03
0d
3d
46
41
3f
2d
20
10
0a
09
01
01
01
02
04
04
0d
37
49
50
48
31
20
05
04
00
00
05
05
01
00
03
05
1f
45
50
53
45
28
08
02
0d
00
00
03
00
09
06
09
06
10
1a
1c
21
23
0c
04
02
00
00
00
01
04
02
06
03
02
02
01
0f
11
0a
06
01
00
00
00
00
05
01
04
00
01
02
03
0a
0e
08
04
09
00
01
00
05
05
04
03
03
03
01
03
04
0c
04
09
02
06
01
04
04
05
05
03
04
01
02
02
03
05
04
07
03
05
02
04
01
0b
02
02
03
03
04
06
02
05
03
03
04
04
02
06
03
04
0c
1a
19
02
2c
06
02
05
04
02
07
01
02
04
05
02
02
04
06
02
1c
01
00
0b
00
06
03
09
00
01
02
01
02
05
04
05
01
01
01
01
05
06
00
02
01
03
05
00
01
01
02
02
03
0d
1f
2e
2c
1f
0e
08
02
05
07
03
03
05
02
15
2a
2c
3c
49
44
41
33
26
15
05
00
02
03
02
13
2a
35
2f
40
48
49
4c
4d
3f
2a
11
00
04
08
06
12
2e
35
3c
3b
30
2f
31
39
35
23
09
0a
02
03
05
14
37
3d
48
43
3c
34
2c
22
14
0b
03
02
04
04
03
12
33
42
57
57
46
27
1b
0a
02
05
06
01
00
03
01
07
28
36
4b
5e
47
19
07
0e
00
00
03
00
09
06
0a
03
04
10
12
26
36
18
0b
05
00
00
00
01
05
02
07
03
02
02
01
15
26
16
09
03
00
00
00
00
05
01
03
01
01
02
02
0c
1f
10
08
0c
00
02
00
05
04
03
03
04
05
01
03
04
11
06
0b
03
06
02
05
03
05
05
03
04
01
02
02
03
06
05
07
03
05
04
07
01
0b
01
02
02
03
04
07
01
07
03
02
03
05
02
06
02
04
0c
1a
1a
02
2c
06
02
05
04
02
07
02
02
04
06
02
01
03
07
02
1c
01
01
0b
01
06
03
09
00
01
02
01
02
04
04
05
01
01
01
01
05
06
00
02
00
03
05
01
01
01
02
01
03
0d
19
23
1b
21
1e
12
03
05
07
04
02
04
02
09
0d
26
2e
34
35
47
5f
60
30
0c
00
02
03
01
0a
08
0f
26
32
2f
32
4e
68
6c
54
37
08
04
07
05
03
08
15
30
2c
29
31
33
3a
4d
5d
50
24
03
03
03
05
0d
1d
38
38
42
46
46
34
2b
39
48
1d
06
04
02
03
06
1b
3a
4a
47
37
30
28
25
22
25
0c
00
03
01
03
0f
11
29
48
44
26
20
2b
16
0d
0c
01
09
06
0a
03
02
05
06
1d
3d
21
10
0a
00
00
00
01
05
01
06
03
02
01
01
17
32
23
0c
07
01
00
00
00
05
01
03
00
02
02
03
0c
2f
18
0b
0e
00
01
00
04
05
04
03
03
03
01
03
05
17
08
0d
05
08
06
05
04
05
05
03
03
01
02
03
04
07
06
09
04
08
08
0a
01
0b
01
02
03
03
04
07
02
07
03
03
04
07
03
07
02
04
0b
1a
1a
02
2c
06
02
06
04
02
08
02
02
04
06
02
01
04
06
02
1a
01
00
0b
00
06
03
09
00
02
02
01
03
04
04
05
01
01
01
01
05
07
00
02
00
03
05
01
02
00
02
01
01
02
03
0d
1d
2d
26
15
03
04
07
04
03
05
02
09
04
06
07
17
30
41
40
33
28
06
00
03
03
01
0a
06
03
04
0b
18
2c
35
3a
46
5a
4e
11
04
08
04
03
03
02
09
10
25
37
28
25
38
58
69
47
05
03
03
04
08
03
09
1e
3c
41
3c
37
32
37
56
47
11
04
02
02
03
02
0a
2b
3c
30
35
2d
32
29
39
47
0e
03
01
03
0e
02
07
2d
35
2a
27
32
27
2c
34
22
09
06
0b
03
02
05
02
0d
33
24
18
18
0f
0f
0b
04
05
01
07
03
02
02
01
13
2b
23
0e
09
01
00
00
00
04
01
03
00
02
03
03
0b
2d
19
0d
10
01
02
00
05
04
04
03
04
04
01
04
05
16
09
0e
04
09
07
05
03
04
05
03
04
02
03
04
05
08
07
09
04
09
08
0a
01
0b
02
02
03
04
04
08
02
08
03
03
04
07
03
07
03
04
0c
1a
1a
02
2d
07
02
06
05
02
08
03
02
04
05
02
01
04
06
02
1c
01
00
0b
01
06
02
08
00
01
02
01
03
04
04
05
01
01
01
01
05
06
00
02
00
03
06
01
01
00
02
02
01
02
02
05
02
04
08
0f
05
04
07
04
02
05
02
08
04
05
02
05
03
08
16
37
47
17
00
02
04
01
0a
06
03
03
04
02
03
0b
21
41
52
40
07
03
07
05
03
03
02
07
01
03
0d
12
27
34
3c
47
30
05
03
02
04
08
02
05
02
0c
1b
34
33
23
1e
39
48
18
04
02
02
03
01
02
07
12
26
36
2f
32
2d
3c
52
18
03
01
03
0f
02
02
0e
1e
29
2a
45
45
53
5d
49
12
06
09
03
02
05
02
08
1e
1f
15
17
14
1a
17
0e
05
01
06
03
02
02
01
0f
15
1e
0d
08
01
00
00
01
05
01
03
00
01
03
04
08
17
15
0c
0f
01
01
00
04
04
03
03
05
05
02
05
05
10
08
0d
04
08
05
05
03
04
05
03
03
02
03
05
06
09
07
08
04
06
05
06
01
0a
01
02
03
04
04
09
02
07
04
03
04
07
03
06
02
04
0c
1a
1a
02
2e
0a
03
06
06
03
08
03
02
04
06
02
01
03
07
02
1c
01
00
0a
00
06
02
08
00
01
02
01
02
04
04
06
01
01
01
01
05
07
00
02
00
03
06
01
01
01
02
02
01
02
02
05
01
04
01
05
02
04
08
04
03
05
01
08
03
05
02
05
02
03
02
02
05
03
00
02
03
01
0b
05
03
03
04
01
02
04
05
05
09
20
11
03
07
05
02
03
02
07
01
02
09
05
03
0a
14
33
46
03
03
02
04
07
02
04
02
07
0e
15
15
15
1d
30
3a
0c
04
02
02
03
01
01
04
0c
14
20
1f
27
27
27
4b
14
03
01
03
0f
02
02
08
0f
1c
2a
41
3e
44
4e
4c
12
06
0a
03
02
05
02
05
14
15
14
1e
25
30
2c
18
05
01
07
03
02
02
01
0d
0b
13
0b
05
01
00
02
02
05
01
04
00
02
02
04
08
0e
0f
0a
0f
01
01
00
04
04
03
03
03
04
02
05
05
0e
08
0d
03
09
05
04
04
04
04
03
04
02
03
04
05
08
07
09
04
06
05
06
01
0b
01
02
03
03
04
09
03
07
04
04
03
05
03
07
03
04
0b
1a
1a
02
2d
0b
05
05
06
04
06
03
02
05
06
02
01
03
06
02
1b
01
01
0a
00
06
03
08
00
02
02
01
02
04
03
05
01
01
01
01
05
06
00
02
00
03
05
01
01
01
02
02
01
02
02
05
01
04
02
05
02
05
07
04
02
04
01
08
03
05
01
04
02
03
02
02
03
01
00
02
04
01
0a
05
02
03
04
02
02
03
04
05
03
02
01
04
07
04
02
03
01
07
01
01
05
04
03
07
04
03
12
04
03
03
04
07
02
04
01
04
09
0b
0b
02
02
04
1d
19
04
02
01
03
01
01
04
09
0d
0d
0e
10
14
1c
38
18
03
01
02
0e
02
02
05
0c
0d
18
31
36
47
53
54
15
06
0a
03
02
05
02
05
0f
0f
0f
18
20
29
23
16
06
01
07
03
01
02
01
0d
07
0e
08
03
01
01
02
02
05
01
04
00
01
03
03
07
09
0c
06
0e
01
01
00
05
05
03
03
03
04
02
05
04
0b
06
0b
04
08
09
05
03
04
05
03
04
02
02
04
06
07
07
09
04
07
05
08
01
0b
01
02
03
04
04
09
04
06
05
05
03
06
03
07
03
04
0b
1b
1b
02
2c
0a
07
05
06
03
07
02
02
04
06
02
01
04
07
02
1c
01
00
0a
00
05
02
08
00
02
02
01
02
04
03
05
01
01
01
01
05
06
00
02
01
03
05
00
01
01
02
02
01
02
02
05
01
04
01
05
02
04
08
03
02
05
02
08
03
04
01
04
02
03
02
01
04
02
00
03
04
01
09
05
02
03
04
01
02
03
04
05
03
01
01
04
07
05
02
03
01
06
01
01
04
03
02
07
04
03
0c
02
04
02
03
07
02
03
01
03
07
08
09
02
01
02
04
06
04
02
01
02
01
01
04
07
09
05
02
02
07
07
0c
10
03
01
03
0e
01
02
04
0a
08
0f
1d
1f
25
26
2e
26
06
0a
03
02
05
01
04
0c
0b
0d
17
23
32
30
22
12
01
07
03
02
02
01
0d
05
0a
07
02
01
03
04
04
05
02
04
00
02
02
03
06
06
08
05
0c
00
02
00
04
04
04
03
03
04
02
04
04
09
05
0b
03
08
0d
05
03
05
05
03
03
02
02
03
04
06
06
09
04
06
06
05
01
0b
02
02
03
03
04
09
05
06
05
05
03
05
03
06
03
04
0c
1b
1a
02
2d
0a
07
05
06
04
07
02
02
04
06
02
