00
0F
2A
03
00
00
01
5A
F3
71
31
02
58
03
03
01
04
07
01
00
00
00
00
00
0B
0F
09
19
04
06
38
00
03
00
00
00
00
00
00
00
00
04
00
00
00
14
00
00
00
00
00
00
00
01
00
00
00
00
02
3D
00
00
00
00
00
00
00
00
00
00
00
00
00
06
08
0C
00
00
01
13
00
00
00
00
00
00
00
00
00
01
00
00
01
00
04
11
00
00
00
00
00
00
00
00
00
00
00
00
00
00
00
1C
00
00
00
00
00
00
00
00
00
00
00
00
00
00
00
10
00
00
00
00
00
00
01
00
00
00
00
00
00
00
00
00
00
00
00
00
00
00
00
01
01
00
00
00
00
00
00
00
00
00
00
01
01
01
01
02
09
08
00
00
00
00
00
00
00
00
00
00
01
01
01
03
06
08
01
00
00
00
00
00
02
00
00
00
01
01
01
03
06
0E
04
00
00
0C
00
00
00
03
01
01
01
02
02
03
0B
00
00
03
00
00
01
00
00
08
00
00
01
03
03
06
34
00
0E
00
00
1F
00
00
0B
00
00
08
01
02
05
12
03
16
04
01
0D
11
10
02
01
0B
15
08
08
06
13
36
5C
27
13
02
0F
03
02
04
06
04
01
00
00
00
00
00
07
0A
05
12
04
04
0E
06
04
00
00
00
00
00
00
00
00
18
09
02
03
07
01
01
00
00
00
00
00
01
00
00
00
01
03
1C
06
01
00
00
00
00
00
00
00
00
00
00
00
04
05
03
00
01
01
05
00
00
00
00
00
00
00
00
00
00
00
00
00
00
06
1C
00
00
00
00
00
00
00
00
00
00
00
00
00
00
00
08
00
00
00
00
00
00
00
00
00
00
00
00
00
00
00
05
00
00
00
00
00
00
01
00
00
00
00
00
00
00
00
02
00
00
00
00
00
00
00
00
00
00
00
00
00
00
00
01
00
00
00
00
00
00
01
01
02
00
01
00
00
00
00
01
00
00
00
00
00
00
01
01
01
00
05
01
01
00
00
00
01
00
00
00
00
01
01
01
01
0D
03
08
03
08
02
03
04
02
00
00
01
01
01
01
02
02
04
09
09
04
00
03
00
06
01
00
00
01
01
01
05
00
0A
05
04
0C
02
07
09
04
02
0A
01
01
01
02
03
00
04
02
11
07
05
00
04
0B
12
0E
07
07
0F
36
53
1A
11
02
0D
02
02
05
08
07
01
00
00
00
00
00
08
0B
06
13
04
06
0C
09
05
00
00
00
00
00
00
00
00
17
08
07
06
06
01
02
00
00
00
00
00
00
00
00
00
02
07
1B
07
01
00
00
00
00
00
00
00
00
00
00
00
03
04
04
00
00
02
03
00
00
00
00
00
00
00
00
00
00
00
00
00
00
05
1C
00
00
00
00
00
00
00
00
00
00
00
00
00
00
00
08
00
00
00
00
00
00
00
00
00
00
00
00
00
00
00
06
00
00
00
00
00
00
00
00
00
00
00
00
00
00
00
05
00
00
00
00
00
00
00
00
00
00
00
00
00
00
00
02
00
00
00
00
00
00
01
01
02
00
02
01
00
00
00
01
00
00
00
00
00
00
01
01
01
01
07
04
01
00
00
01
02
00
00
00
00
01
01
01
01
0B
03
08
03
0A
03
02
05
02
00
00
01
01
01
00
01
07
05
0A
08
06
00
03
00
05
01
00
00
01
01
01
03
01
08
08
05
0B
03
08
09
05
04
0D
01
01
01
02
03
02
06
02
0C
07
06
00
02
09
0F
0D
09
05
0C
2D
43
13
0D
01
08
02
02
03
06
06
00
00
00
00
00
00
05
07
05
0C
04
08
0A
03
05
00
00
00
00
00
00
00
00
12
05
04
05
06
01
02
00
00
00
00
00
00
00
00
00
01
05
12
05
01
00
00
01
00
00
00
00
00
00
00
00
03
04
04
01
00
01
03
00
00
00
00
00
00
00
00
00
00
00
00
00
00
04
13
00
00
00
00
00
00
00
00
00
00
00
00
00
00
00
05
00
00
00
00
00
00
00
00
00
00
00
00
00
00
00
05
00
00
00
00
00
00
00
00
00
00
00
00
00
00
00
03
00
00
00
00
00
00
00
01
00
00
00
00
00
00
00
01
00
00
00
01
01
01
01
02
02
00
02
01
00
00
00
01
00
00
00
00
00
00
01
01
01
00
07
01
01
00
00
00
02
00
00
00
00
01
01
01
01
06
03
07
03
04
02
02
04
02
01
01
01
01
01
00
01
05
03
05
07
04
00
07
00
05
02
02
01
01
01
01
02
00
05
07
04
0A
04
07
09
05
04
08
01
01
01
01
03
01
0B
02
0C
05
03
00
04
08
0C
07
00
05
09
24
42
0E
0A
01
08
01
01
02
05
03
04
00
00
00
00
00
04
05
04
09
04
07
07
03
03
00
00
00
00
00
00
00
00
0C
05
07
03
04
01
01
01
00
00
00
00
00
00
00
00
01
03
0F
04
00
00
00
01
00
00
00
00
00
00
00
00
03
03
03
00
00
01
01
00
00
00
00
00
00
00
00
00
00
00
00
00
00
03
0A
00
00
00
00
00
00
00
00
00
00
00
00
00
00
00
05
00
00
00
00
00
00
00
00
00
00
00
00
00
00
00
05
00
00
00
00
00
00
00
00
00
00
00
00
00
00
00
03
00
00
00
00
00
00
01
01
00
00
00
00
00
00
00
01
00
00
00
00
00
01
01
02
02
00
01
00
00
00
00
01
01
01
01
01
01
01
01
01
01
00
04
02
00
00
00
00
01
02
02
01
01
01
01
01
01
03
01
06
02
05
01
02
03
02
02
01
01
01
01
00
01
02
00
04
01
03
01
04
00
03
02
02
02
01
01
01
04
01
04
02
02
09
02
04
06
00
01
09
01
01
01
02
02
00
08
01
07
04
03
00
00
06
0C
09
04
08
05
18
2C
12
09
01
04
01
01
02
04
05
03
03
00
00
00
00
03
04
04
07
03
04
04
00
03
01
00
00
00
00
00
00
00
0B
07
06
01
04
01
01
01
00
00
00
00
00
00
00
00
01
00
0F
07
00
00
01
00
00
00
00
00
00
00
00
00
03
04
03
02
00
05
08
00
00
00
00
00
00
00
00
00
00
00
00
00
00
04
08
00
00
00
00
00
00
00
00
00
00
00
00
00
00
00
04
00
00
00
00
00
00
00
00
00
00
00
00
00
00
00
0A
00
00
00
00
00
00
00
00
00
00
00
00
00
00
00
02
01
01
01
00
00
00
01
01
00
00
00
00
00
00
00
01
02
01
01
00
00
00
01
02
02
01
01
00
00
00
00
01
04
01
01
01
01
01
01
01
01
01
03
03
01
00
00
00
07
02
01
01
01
01
01
01
01
05
02
09
02
05
03
02
02
02
02
01
01
01
01
01
01
01
02
05
01
05
00
02
01
03
01
02
01
01
01
01
04
03
04
06
01
08
03
04
03
03
03
09
01
01
01
02
02
06
07
01
05
04
04
01
02
05
06
0A
02
05
08
0F
24
0E
05
01
08
01
01
01
04
04
03
01
00
00
00
00
03
09
03
09
01
03
08
04
02
02
00
00
00
00
00
00
00
0B
04
02
02
02
01
00
01
00
00
00
00
00
00
00
00
02
01
0C
04
00
01
01
01
00
00
00
00
00
00
00
00
03
03
01
01
00
05
05
02
00
00
00
00
00
00
00
00
00
00
00
00
00
02
09
00
00
00
00
00
00
00
00
00
00
00
00
00
00
00
04
00
00
00
00
00
00
00
00
00
00
00
00
00
00
00
05
00
00
00
00
00
00
00
00
00
00
00
00
00
00
00
01
01
00
00
00
00
00
00
01
01
00
00
00
00
00
00
01
02
02
05
05
03
02
01
01
02
01
00
00
00
00
00
01
04
08
06
02
01
00
00
01
01
01
04
01
01
00
00
00
05
06
01
01
00
00
01
01
01
00
02
05
02
06
02
04
03
03
01
01
01
01
01
00
01
02
02
07
00
02
00
00
00
02
06
02
01
01
01
01
03
02
06
03
01
06
02
06
06
02
02
0D
01
01
01
01
02
02
06
01
04
03
02
01
00
26
51
19
00
0F
00
21
00
00
12
32
00
00
00
27
00
2D
00
7F
35
14
00
00
00
00
44
3C
21
00
00
00
3F
0B
37
34
00
3E
10
23
00
36
00
00
1B
00
8B
11
00
00
00
4F
02
00
00
00
48
00
00
13
00
00
00
23
09
00
00
00
09
2F
68
01
00
2F
06
61
00
00
1B
49
00
44
00
00
00
00
00
20
00
00
0A
00
00
66
3C
00
00
03
14
09
50
00
00
00
9C
4E
22
1C
00
47
00
02
08
00
30
00
2C
28
26
00
00
00
37
00
26
00
00
54
00
00
00
00
38
00
00
28
00
37
19
00
00
18
08
49
00
00
25
49
21
00
08
50
00
00
42
85
44
27
10
31
00
00
00
17
33
00
00
47
00
00
00
00
75
00
48
00
76
33
35
00
10
32
35
57
30
03
00
00
46
09
83
54
00
40
2C
6B
12
0E
31
2F
00
6A
00
81
44
3B
39
36
00
0B
2B
00
00
00
2E
00
5C
15
47
3C
00
00
33
00
00
06
00
2C
00
00
00
00
28
00
6A
00
00
59
00
00
00
00
88
12
00
3D
1C
11
00
44
00
28
4C
12
00
0E
