0b
10
1a
0b
10
0c
06
08
09
1b
5a
87
76
35
12
0c
14
81
b1
b2
8a
6b
2c
0e
14
9f
de
ae
4e
1f
10
07
12
46
96
ab
26
0e
04
0d
0c
07
07
3f
21
0c
02
0c
0d
0b
08
17
16
0e
0d
11
22
1b
31
0d
0a
0e
0d
0d
0a
0f
19
0c
10
0c
06
08
09
0d
21
51
93
a3
31
0c
0e
15
39
6b
a6
df
ff
3b
0b
13
4e
b5
b9
93
ad
57
11
14
23
9a
67
51
3b
1c
0b
07
08
63
44
15
02
0d
0d
0b
0a
20
1f
15
18
11
22
1c
32
0f
0c
13
0e
0c
0a
0f
1a
0b
0f
0b
05
08
08
0d
0a
0c
0c
2c
2f
0c
0f
12
0d
09
1b
55
99
3f
0a
0e
09
1b
66
75
89
91
11
13
0b
34
62
94
b7
5c
0b
07
09
2e
35
13
03
0d
0c
0c
0c
1c
1e
13
11
11
22
1d
38
11
0e
11
0e
0d
0b
0f
1a
0b
0f
0b
06
08
08
0c
0a
0b
0a
09
0b
0c
0e
11
0b
07
0b
10
0a
13
0b
0d
08
0e
1f
18
1e
45
11
12
09
1c
2e
6d
9f
6b
0c
06
08
1b
1d
0e
07
0f
0d
0c
0b
15
1b
13
17
11
22
1c
36
13
11
10
0e
0e
