0f
08
13
16
10
1d
13
0c
0b
0e
0f
12
13
0a
0e
0a
0e
0b
1b
22
19
0d
10
10
07
0f
1e
2d
25
1d
0d
0a
0e
0a
47
2f
28
37
18
14
10
09
4c
33
1a
3d
18
0e
14
10
4f
4c
22
38
1d
10
11
14
6b
42
48
81
33
28
0d
46
b6
b4
87
79
2c
0b
0b
47
a2
86
6f
76
36
09
0e
26
a2
9a
6e
95
3b
0e
07
1b
77
9e
83
a8
2e
09
0c
1c
93
ab
73
81
24
12
0d
11
7c
97
4a
8c
21
0c
12
18
83
d2
78
97
24
0e
0e
17
8b
9f
bf
ff
42
24
0f
1a
7d
5c
44
7b
22
0c
0a
1a
6c
38
2f
65
1f
0a
0e
0f
54
55
44
66
1b
10
06
0f
27
4e
45
40
0d
0a
0e
07
22
26
2d
15
15
13
0e
05
22
2d
1e
1a
0d
0d
14
16
1f
2f
20
17
14
10
10
1a
29
15
1c
3b
2d
28
0f
08
1f
28
14
2b
13
0c
0a
0a
16
16
0f
14
10
0a
0e
07
14
22
1e
16
12
10
07
0b
0a
20
20
14
0b
0a
0e
03
0e
0b
1a
10
14
13
0e
05
12
16
17
11
0c
0d
15
17
1d
1c
17
11
12
10
0f
18
22
12
16
37
27
28
