08
06
0c
10
0b
1a
10
0b
0c
12
35
76
87
5a
1b
09
0e
2c
6b
8a
b2
b1
81
14
07
10
1f
4e
ae
de
9f
14
0d
04
0e
26
ab
96
46
12
0c
02
0c
21
3f
07
07
0c
11
0d
0e
16
17
08
0b
0d
0d
0d
0e
0a
0d
31
1b
22
08
06
0c
10
0c
19
0f
0a
0c
31
a3
93
51
21
0d
09
3b
ff
df
a6
6b
39
15
0e
57
ad
93
b9
b5
4e
13
0b
1c
3b
51
67
9a
23
14
11
0d
02
15
44
63
08
07
0b
11
18
15
1f
20
0a
0b
0d
0c
0e
13
0c
0f
32
1c
22
08
05
0b
0f
0b
1a
0f
0a
0c
2f
2c
0c
0c
0a
0d
08
3f
99
55
1b
09
0d
12
0f
91
89
75
66
1b
09
0e
0a
5c
b7
94
62
34
0b
13
11
0d
03
13
35
2e
09
07
0b
11
11
13
1e
1c
0c
0c
0c
0d
0e
11
0e
11
38
1d
22
08
06
0b
0f
0b
1a
0f
0b
0c
0b
09
0a
0b
0a
0c
08
13
0a
10
0b
07
0b
11
0e
45
1e
18
1f
0e
08
0d
0b
6b
9f
6d
2e
1c
09
12
11
0f
07
0e
1d
1b
08
06
0c
11
17
13
1b
15
0b
0c
0d
0e
0e
10
11
13
36
1c
22
