0d
07
0f
1c
16
24
10
0b
09
09
0c
0a
08
12
0c
0a
0c
06
15
10
0c
13
0e
0f
06
09
09
0f
11
09
09
09
0e
03
0a
02
10
09
10
12
0d
04
0b
08
10
09
0a
0c
13
0f
0c
0c
0c
08
0d
0f
0f
0d
0e
09
07
2d
20
24
0c
06
26
90
80
41
0f
0c
09
09
47
76
57
44
0c
09
0c
06
81
7f
52
60
18
0e
06
10
61
79
5e
42
10
09
0c
05
4d
51
36
26
14
12
0d
05
29
42
24
24
0c
0b
12
0f
24
54
27
1b
11
0e
10
11
2f
2b
24
45
23
23
0c
06
12
69
63
26
0f
0a
09
08
2e
a0
97
40
0b
08
0c
05
64
cc
87
6d
18
0d
06
09
71
d5
90
9d
1f
08
0d
05
ab
ff
7b
94
1d
11
0d
05
89
e5
50
91
15
0b
15
14
62
ff
75
6f
20
0e
10
15
55
d2
bb
b4
39
22
0e
06
0d
12
0f
1c
0f
0a
09
09
08
0b
0e
0a
0b
08
0d
05
0e
20
22
0f
0e
0f
06
0a
0a
26
20
16
0a
09
0e
03
1d
1a
1f
23
12
12
0d
05
2f
28
1c
39
0b
0b
14
13
33
4f
23
3b
14
0e
10
12
2a
3d
2b
69
2f
23
