63
63
1B
06
00
00
00
03
05
03
00
01
00
0C
0F
98
03
35
00
00
00
00
00
03
02
01
00
00
00
00
07
0A
32
01
00
00
00
00
01
01
01
01
00
00
00
00
00
06
10
00
00
00
00
00
01
01
01
00
00
00
00
00
00
63
00
00
00
00
00
00
01
01
00
00
00
00
00
00
00
00
00
00
00
00
00
00
01
01
00
00
00
00
00
00
00
00
00
00
00
00
00
00
01
01
00
00
00
00
00
00
00
00
00
00
00
00
00
00
00
01
00
00
00
00
00
00
00
00
04
00
00
00
00
00
00
02
01
00
00
00
00
00
00
00
14
18
2E
16
01
00
00
00
01
00
00
00
00
00
0E
00
00
34
1F
01
00
00
00
00
00
00
00
00
00
00
03
00
0A
46
2F
2A
2C
00
00
00
00
01
01
00
83
00
00
02
31
08
00
11
06
00
00
00
00
01
00
00
04
16
05
1C
12
18
21
07
02
00
00
00
00
00
02
00
00
0F
12
00
24
00
13
2A
00
00
00
08
01
00
00
00
00
30
16
00
21
1D
63
31
00
00
00
0A
08
04
00
00
00
13
00
00
29
38
0D
02
00
00
00
01
02
01
00
00
00
05
13
6A
00
1A
00
00
00
00
00
01
01
00
00
00
00
00
0A
0B
11
01
00
00
00
00
00
00
01
00
00
00
00
00
00
11
09
00
00
00
00
00
00
00
00
00
00
00
00
00
00
2C
00
00
00
00
00
00
00
00
00
00
00
00
00
00
00
00
00
00
00
00
00
00
00
00
00
00
00
00
00
00
00
00
01
00
00
00
00
00
00
01
00
00
00
00
00
00
00
01
00
00
00
00
00
00
00
01
00
00
00
00
00
00
00
00
04
04
00
00
00
00
00
01
01
00
00
00
00
00
05
00
38
0E
01
00
02
00
00
00
01
00
00
00
00
00
12
06
00
20
0C
00
00
01
00
00
00
00
00
01
00
00
02
00
05
32
0A
18
09
00
00
00
00
00
00
00
4B
00
06
02
12
0B
00
08
00
01
00
00
00
01
01
00
00
10
0A
20
0D
00
1A
0C
03
01
00
00
00
00
02
00
00
0C
0A
00
0D
00
12
1F
00
01
00
07
02
01
00
00
00
18
11
01
15
0D
5E
24
00
00
00
02
0F
0B
00
00
00
08
06
00
2E
34
12
01
00
00
00
00
01
01
00
00
00
05
13
52
00
15
00
00
00
00
00
00
00
00
00
00
00
00
07
05
18
01
00
00
00
00
00
00
01
00
00
00
00
00
00
16
08
00
00
00
00
00
00
00
00
00
00
00
00
00
00
36
00
00
00
00
00
00
00
00
00
00
00
00
00
00
00
00
00
00
00
00
00
00
00
00
00
00
00
00
00
00
00
04
01
00
00
00
00
00
00
01
00
00
00
00
00
00
00
2F
00
00
00
00
00
00
00
01
00
00
00
00
00
00
00
00
04
05
00
00
00
00
00
01
01
00
00
00
00
00
09
05
3A
0D
06
00
03
00
00
00
01
00
00
00
00
08
11
04
14
19
04
00
00
01
00
00
00
00
00
02
02
00
00
00
04
2E
0C
17
05
03
00
00
00
00
00
00
26
00
04
02
1B
06
00
0B
00
01
00
00
00
01
01
00
00
1C
0B
1B
0B
00
18
03
03
01
00
00
00
00
01
00
00
0C
0D
02
03
00
14
1D
00
01
00
06
02
01
00
00
00
0F
0A
02
10
11
64
19
00
00
00
08
10
0C
00
00
00
04
13
02
1E
32
11
01
00
00
00
00
01
00
00
00
00
04
14
50
00
10
00
00
00
00
00
00
00
00
00
00
00
00
05
03
18
01
00
00
00
00
00
00
01
00
00
00
00
00
00
0B
06
00
00
00
00
00
00
00
00
00
00
00
00
00
00
36
00
00
00
00
00
00
00
00
00
00
00
00
00
00
00
10
00
00
00
00
00
00
00
00
00
00
00
00
00
00
00
08
00
00
00
00
00
00
00
01
00
00
00
00
00
00
00
25
00
00
00
00
00
00
00
01
00
00
00
00
00
00
00
00
03
02
00
00
00
00
00
01
01
00
00
00
00
00
06
06
32
0E
02
00
03
00
00
00
01
00
00
00
00
07
10
00
1C
1D
03
01
00
00
00
00
00
00
00
02
04
00
00
00
03
20
04
13
02
04
00
00
00
00
00
00
12
03
03
01
1F
02
00
0A
00
01
00
00
00
01
01
00
00
1F
0A
29
0B
00
11
00
03
01
00
00
00
00
01
00
00
0C
10
02
00
03
14
17
00
01
00
05
02
01
00
00
00
0A
09
01
13
12
58
10
00
00
00
07
0E
08
00
00
00
03
0F
00
13
2F
14
01
00
00
00
00
01
00
00
00
00
05
15
45
00
0C
00
00
00
00
00
00
00
00
00
00
00
00
10
00
1F
01
00
00
00
00
00
00
01
00
00
00
00
00
00
07
06
00
00
00
00
00
00
00
00
00
00
00
00
00
00
3B
00
00
00
00
00
00
00
00
00
00
00
00
00
00
00
0F
00
00
00
00
00
00
00
00
00
00
00
00
00
00
00
06
00
00
00
00
00
00
00
01
01
00
00
00
00
00
00
23
00
00
00
00
00
00
00
01
00
00
00
00
00
00
00
04
03
03
00
00
00
00
00
00
01
00
00
00
00
00
03
05
28
0D
01
00
03
00
00
00
00
00
00
01
00
03
09
00
1A
20
07
03
00
00
00
00
00
00
00
02
0E
00
00
00
03
24
11
17
07
02
00
00
00
00
00
00
13
04
05
01
2A
00
00
0A
00
01
00
00
00
00
00
00
00
1D
06
26
08
03
11
01
02
00
00
00
00
00
01
00
00
0B
13
02
01
0A
12
15
00
00
00
05
01
01
00
00
00
07
02
01
15
12
50
14
00
00
00
0A
0D
07
00
00
00
02
14
03
10
35
13
01
00
00
00
00
01
00
00
00
00
06
14
40
09
0C
00
00
00
00
00
00
00
00
00
00
00
00
10
00
1A
01
00
00
00
00
00
00
01
00
00
00
00
00
00
03
07
00
00
00
00
00
00
00
01
00
00
00
00
00
00
3B
00
00
00
00
00
00
00
00
00
00
00
00
00
00
00
0F
00
00
00
00
00
00
00
00
00
00
00
00
00
00
00
05
00
00
00
00
00
00
00
00
00
00
00
00
00
00
00
20
01
00
00
00
00
00
00
01
01
00
00
00
00
00
00
0A
03
06
00
00
00
00
00
00
01
00
00
00
00
00
03
06
2F
09
00
00
03
00
00
00
00
00
00
01
01
05
08
04
15
23
05
07
00
00
00
00
00
00
00
01
0F
00
00
00
03
21
19
14
05
01
00
00
00
00
00
00
15
0C
03
02
1F
00
00
0D
01
00
00
00
00
00
00
00
00
1F
06
27
09
04
15
06
02
00
00
00
00
00
01
00
00
0A
12
03
05
07
11
13
00
00
00
04
01
00
00
00
00
05
01
01
16
0F
4D
12
00
00
00
06
0E
06
05
00
00
02
14
04
07
2E
13
01
00
00
00
01
01
01
00
00
00
06
13
3E
11
0B
00
00
00
00
00
00
01
00
00
00
00
00
0F
04
20
00
00
00
00
00
00
00
01
00
00
00
00
00
00
04
06
00
00
00
00
00
00
00
00
00
00
00
00
00
00
3F
00
00
00
00
00
00
00
00
00
00
00
00
00
00
00
0E
00
00
00
00
00
00
00
00
00
00
00
00
00
00
00
05
00
00
00
00
00
00
00
00
00
00
00
00
00
00
00
1C
00
00
00
00
00
00
00
01
00
00
00
00
00
00
00
0B
03
07
00
00
00
00
00
00
01
00
00
00
00
00
04
06
2E
03
00
00
03
00
00
00
00
00
00
01
01
02
08
04
1A
1D
08
09
00
00
00
00
00
00
00
01
0C
00
00
00
03
1E
1B
13
09
00
00
00
00
00
00
00
12
07
02
02
1A
00
00
0B
00
00
00
00
00
00
00
00
00
1C
01
22
0A
07
0F
09
01
00
00
00
00
00
00
00
00
09
0F
04
05
07
0E
12
01
00
00
05
01
00
00
00
00
05
00
01
11
0C
46
0E
00
00
00
05
0D
05
04
00
00
01
0E
05
08
2D
0F
01
00
00
00
01
02
01
00
00
00
05
17
2D
08
0A
00
00
00
00
00
01
01
00
00
00
00
00
0C
05
1D
00
00
00
00
00
00
01
01
01
00
00
00
00
00
02
06
00
00
00
00
00
00
00
00
00
00
00
00
00
00
3B
00
00
00
00
00
00
00
00
00
00
00
00
00
00
00
0D
00
00
00
00
00
00
00
00
00
00
00
00
00
00
00
04
00
00
00
00
00
00
00
00
00
00
00
00
00
00
00
19
00
00
00
00
00
00
00
00
00
00
00
00
00
00
00
0A
03
08
00
00
00
00
00
00
01
00
00
00
00
00
03
04
1D
01
00
00
02
00
00
00
00
00
00
01
01
06
08
01
29
1B
04
05
00
00
00
00
00
00
00
01
0F
00
00
00
03
1B
19
10
07
00
00
00
00
00
00
00
15
04
03
01
0D
03
01
08
00
00
00
00
00
00
00
01
00
1D
00
13
07
06
15
08
00
00
00
00
00
00
00
00
00
08
0B
03
03
06
0C
12
01
00
00
04
00
00
01
00
00
05
00
01
0D
08
53
0E
01
00
00
04
0C
04
06
00
00
02
0B
03
07
29
0C
01
00
00
00
01
02
01
00
07
00
04
13
20
04
06
00
00
00
00
00
01
01
01
00
00
00
00
0D
08
17
00
00
00
00
00
00
01
01
01
00
00
00
00
00
04
05
00
00
00
00
00
00
00
01
00
00
00
00
00
00
36
01
00
00
00
00
00
00
00
00
00
00
00
00
00
00
0B
00
00
00
00
00
00
00
00
00
00
00
00
00
00
00
04
00
00
00
00
00
00
00
00
00
00
00
00
00
00
00
17
00
00
00
00
00
00
00
00
00
00
00
00
00
00
00
06
02
07
00
00
00
00
00
00
00
00
00
00
00
00
04
04
22
02
00
00
01
00
00
00
00
00
00
00
00
09
04
05
1F
1E
06
09
00
00
00
00
00
00
00
01
03
00
01
00
03
17
1A
08
0A
00
00
00
00
00
00
00
11
02
01
01
13
01
03
08
00
00
00
00
00
00
01
00
00
12
03
1C
04
03
13
08
00
00
00
00
00
00
00
00
00
0A
09
02
07
03
0A
14
01
00
00
03
00
00
00
00
00
05
00
01
0A
0E
40
0C
01
00
00
06
0B
03
06
00
00
02
07
03
04
25
07
01
00
00
00
01
02
01
00
08
00
04
12
22
02
08
00
00
00
00
00
01
01
01
00
00
00
00
07
0A
0E
00
00
00
00
00
00
01
01
01
00
00
00
00
00
02
04
00
00
00
00
00
00
01
01
00
00
00
00
00
00
2C
00
00
00
00
00
00
00
00
00
00
00
00
00
00
00
09
00
00
00
00
00
00
00
00
00
00
00
00
00
00
00
04
00
00
00
00
00
00
00
00
00
00
00
00
00
00
00
13
00
00
00
00
00
00
00
00
00
00
00
00
00
00
00
06
02
01
00
00
00
00
00
00
00
00
00
00
00
00
05
05
14
01
00
00
01
00
00
00
00
00
00
01
00
07
05
01
16
1F
06
08
00
00
00
00
00
00
00
01
06
01
00
00
03
1A
0F
00
0E
01
00
00
00
00
00
00
15
03
00
01
07
04
03
09
00
00
00
00
00
00
01
00
00
0C
01
19
03
01
14
0D
00
00
00
00
00
00
00
00
00
08
05
02
06
06
17
17
01
00
00
03
00
00
00
00
00
05
01
01
0A
0C
3A
0A
01
00
00
08
05
02
00
00
00
01
0D
03
07
23
05
00
00
00
00
01
02
01
00
07
01
03
0E
1F
00
07
00
00
00
00
00
01
01
01
00
00
00
0A
06
07
0E
00
00
00
00
00
00
01
01
01
00
00
00
00
02
03
03
00
00
00
00
00
00
01
01
00
00
00
00
00
01
24
00
00
00
00
00
00
01
01
01
00
00
00
00
00
00
09
00
00
00
00
00
00
01
00
00
00
00
00
00
00
00
0C
00
00
00
00
00
00
00
00
00
00
00
00
00
00
00
11
00
00
00
00
00
00
00
00
00
00
00
00
00
00
00
02
02
00
00
00
00
00
00
00
00
00
01
00
00
00
02
09
13
00
01
00
01
00
00
00
00
00
01
00
00
05
02
04
19
1C
07
04
00
01
00
00
00
00
00
01
04
00
01
01
02
18
08
02
0D
01
00
00
00
00
00
00
14
03
01
01
08
03
01
0A
00
00
00
00
00
00
01
00
01
06
02
17
04
01
10
06
00
00
00
00
00
00
00
00
00
08
05
02
07
07
13
11
01
00
00
03
00
00
01
00
00
04
03
01
0D
0C
31
0C
00
00
00
07
06
02
02
00
00
01
0B
03
03
1C
04
06
00
00
00
02
02
01
00
05
00
04
0C
17
06
06
00
00
00
00
00
01
01
01
00
00
00
0F
02
03
0C
00
00
00
00
00
01
01
01
01
00
00
00
00
01
00
01
00
00
00
00
00
01
01
01
00
00
00
00
00
01
21
00
00
00
00
00
00
01
01
01
00
00
00
00
00
00
0A
00
00
00
00
00
00
01
00
00
00
00
00
00
00
00
06
00
00
00
00
00
00
01
01
00
00
00
00
00
00
00
0B
00
00
00
00
00
00
00
00
00
00
00
00
00
00
00
07
01
03
00
00
00
00
00
00
00
00
00
00
00
00
03
06
0B
00
00
04
00
00
00
00
00
00
01
01
00
05
01
03
15
15
07
03
00
00
00
00
00
00
00
01
05
00
00
00
02
16
16
00
07
00
00
00
00
00
01
00
07
02
02
01
05
02
02
08
00
00
00
00
00
00
00
00
02
0C
01
0D
02
01
0B
03
00
00
00
00
00
00
00
00
00
08
05
01
07
05
0F
0E
01
00
00
02
00
00
01
00
00
05
07
00
11
04
24
09
00
00
00
06
02
02
01
00
00
02
06
03
06
1B
04
0B
00
00
00
02
01
01
00
05
00
01
0B
16
06
08
00
00
00
00
02
02
01
01
00
00
00
06
00
00
09
00
00
00
00
00
03
01
01
01
00
00
00
00
00
00
02
00
00
00
00
00
02
01
00
00
00
00
00
00
00
20
00
00
00
00
00
00
02
01
00
00
00
00
00
00
00
01
00
00
00
00
00
00
01
00
00
00
00
00
00
00
00
03
00
00
00
00
00
00
01
00
00
00
00
00
00
00
00
08
00
00
00
00
00
00
00
00
00
00
00
00
00
00
00
07
01
02
00
00
00
00
00
00
00
00
00
00
00
00
01
03
09
01
00
08
00
00
00
00
00
00
01
01
00
05
00
00
0D
10
06
06
00
00
00
00
00
00
00
01
08
00
00
00
01
0C
0E
05
0A
00
00
00
00
00
01
00
00
01
01
01
0A
04
00
06
00
00
00
00
00
00
00
00
02
01
01
0D
02
03
06
03
00
00
00
00
00
00
00
00
00
07
04
01
03
04
0A
0A
00
00
00
01
00
00
00
00
00
0C
05
00
10
03
20
09
00
00
00
05
00
00
00
00
00
07
07
04
0B
17
02
09
05
02
02
02
01
01
00
08
00
02
09
0E
02
08
00
00
00
00
03
01
01
01
00
00
00
06
02
00
0D
02
00
00
00
01
02
01
01
01
00
00
00
00
00
00
07
00
00
00
00
00
02
01
00
00
00
00
00
00
00
18
00
00
00
00
00
00
01
00
00
00
00
00
00
00
00
00
00
00
00
00
00
00
01
00
00
00
00
00
00
00
00
03
00
00
00
00
00
00
01
00
00
00
00
00
00
00
00
08
00
00
00
00
00
00
00
00
00
00
00
00
00
00
00
00
01
03
00
00
00
00
00
00
00
00
00
00
00
00
00
01
0A
02
05
06
00
00
00
00
00
00
00
00
00
01
00
00
07
0D
07
03
03
00
00
00
00
00
00
00
08
00
04
00
02
14
0C
07
10
00
00
00
00
00
01
00
00
00
00
01
08
00
00
06
01
00
00
00
00
00
00
00
04
03
00
0E
05
03
05
01
00
00
00
00
00
00
01
00
00
0A
07
02
06
08
06
0D
00
00
00
01
00
00
00
00
00
0C
06
00
0D
0C
17
04
00
00
00
07
04
01
00
00
00
07
02
04
19
1C
0C
14
0C
14
08
01
01
01
08
0E
07
07
10
16
12
12
02
00
00
06
04
01
00
00
00
07
03
0D
08
0F
17
0D
03
00
01
00
02
01
01
00
01
00
01
00
0D
03
21
00
00
00
00
04
01
00
00
00
01
00
00
00
03
1C
03
00
00
00
00
06
01
00
00
00
00
00
00
00
00
00
00
00
00
00
00
00
01
00
00
00
00
00
00
00
00
08
00
00
00
00
00
00
01
01
00
00
00
00
00
00
00
25
00
00
00
00
00
00
01
00
00
00
00
00
00
00
00
00
08
0A
00
00
00
00
00
01
00
00
00
00
00
00
01
00
15
10
14
02
01
00
00
00
00
00
01
03
08
00
00
00
0B
1A
19
0C
0D
06
00
00
00
00
00
03
16
00
07
01
05
1C
23
15
1D
00
00
00
00
01
01
00
00
00
00
04
17
0A
0B
0A
07
00
00
00
00
00
01
00
0F
15
0B
18
0F
0A
18
16
02
00
00
00
00
00
01
00
00
10
0E
05
0F
0D
07
13
00
00
00
01
00
00
05
06
03
0E
10
03
0A
1D
21
11
00
00
00
12
0B
08
0E
1A
00
0D
0E
08
0A
00
42
00
00
00
00
00
00
00
00
00
0B
29
0A
00
00
38
00
72
00
1C
0A
25
1A
00
24
2C
00
0B
12
51
00
6B
00
47
03
00
00
00
00
09
12
00
00
42
00
00
00
4D
13
00
1F
20
00
58
00
00
73
00
00
08
10
10
00
25
00
02
12
00
45
00
00
00
75
00
35
0C
00
17
00
00
07
00
12
00
27
00
0F
25
00
34
5C
00
03
19
00
00
00
43
00
00
1D
00
3C
00
00
06
00
0F
5B
00
00
00
5C
0A
01
00
38
00
00
28
00
00
00
15
44
00
00
01
00
1B
04
00
40
0D
00
00
00
00
00
7E
00
05
33
00
00
00
00
00
00
06
56
2D
2C
14
00
00
07
3B
08
00
00
00
53
1F
03
00
05
15
00
00
00
00
1F
02
03
00
00
04
00
0D
00
26
00
3E
00
3D
09
03
28
00
06
00
5D
00
58
00
1C
0F
27
01
00
00
3C
1C
31
00
00
00
00
27
00
00
B7
00
06
32
00
00
00
00
00
16
00
00
09
31
48
2D
09
00
24
00
00
00
22
00
00
3D
0E
08
40
00
00
00
00
2A
00
06
06
00
00
00
00
00
