35
32
0F
02
00
00
00
01
02
01
00
00
00
00
14
69
00
0E
01
00
00
00
00
01
01
00
00
00
00
00
02
00
1B
02
00
00
00
00
00
00
00
00
00
00
00
00
00
0E
20
00
00
00
00
00
00
00
00
00
00
00
00
00
00
3A
00
00
00
00
00
00
00
00
00
00
00
00
00
00
00
00
00
00
00
00
00
00
00
00
00
00
00
00
00
00
00
00
00
00
00
00
00
00
00
00
00
00
00
00
00
00
00
01
00
00
00
00
00
00
00
00
00
00
00
00
00
00
00
00
04
00
00
00
00
00
00
00
00
00
00
00
00
00
09
00
15
00
2A
00
02
00
00
00
00
00
00
00
00
00
02
00
00
1F
0A
00
00
04
00
00
00
00
00
00
00
00
06
00
02
35
15
0F
07
00
00
00
00
00
00
00
31
00
00
00
24
05
00
06
04
00
00
00
00
00
00
00
07
1A
06
00
0C
0E
16
09
01
00
00
00
00
00
00
00
00
00
00
00
0F
01
08
15
00
00
00
05
00
00
00
01
00
19
05
01
1A
0D
2B
0B
00
00
00
04
01
07
00
00
00
0D
07
00
35
32
0F
02
00
00
00
01
02
01
00
00
00
00
14
69
00
0E
01
00
00
00
00
01
01
00
00
00
00
00
02
00
1B
02
00
00
00
00
00
00
00
00
00
00
00
00
00
0E
20
00
00
00
00
00
00
00
00
00
00
00
00
00
00
3A
00
00
00
00
00
00
00
00
00
00
00
00
00
00
00
00
00
00
00
00
00
00
00
00
00
00
00
00
00
00
00
00
00
00
00
00
00
00
00
00
00
00
00
00
00
00
00
01
00
00
00
00
00
00
00
00
00
00
00
00
00
00
00
00
04
00
00
00
00
00
00
00
00
00
00
00
00
00
09
00
15
00
2A
00
02
00
00
00
00
00
00
00
00
00
02
00
00
1F
0A
00
00
04
00
00
00
00
00
00
00
00
06
00
02
35
15
0F
07
00
00
00
00
00
00
00
31
00
00
00
24
05
00
06
04
00
00
00
00
00
00
00
07
1A
06
00
0C
0E
16
09
01
00
00
00
00
00
00
00
00
00
00
00
0F
01
08
15
00
00
00
05
00
00
00
01
00
19
05
01
1A
0D
2B
0B
00
00
00
04
01
07
00
00
00
0D
07
00
1E
18
07
00
00
00
00
00
00
00
00
00
00
00
0C
33
00
04
00
00
00
00
00
00
00
00
00
00
00
00
05
00
07
01
00
00
00
00
00
00
00
00
00
00
00
00
00
10
0B
00
00
00
00
00
00
00
00
00
00
00
00
00
00
1A
00
00
00
00
00
00
00
00
00
00
00
00
00
00
00
05
00
00
00
00
00
00
00
00
00
00
00
00
00
00
00
05
00
00
00
00
00
00
00
00
00
00
00
00
00
00
00
15
00
00
00
00
00
00
00
00
00
00
00
00
00
00
00
00
02
02
00
00
00
00
00
00
00
00
00
00
00
00
02
06
24
03
07
00
02
00
00
00
00
00
00
00
00
0D
07
00
08
0A
00
00
00
03
00
00
00
00
00
00
00
00
00
00
01
18
00
08
00
00
00
00
00
00
00
00
0E
00
00
00
0D
04
00
03
00
00
00
00
00
00
00
00
00
14
04
0C
07
04
00
07
01
00
00
00
00
00
00
00
00
02
08
01
00
00
06
0D
00
00
00
04
00
00
00
00
00
07
04
00
0E
07
1F
06
00
00
00
04
04
04
02
00
00
02
0F
00
1E
18
07
00
00
00
00
00
00
00
00
00
00
00
0C
33
00
04
00
00
00
00
00
00
00
00
00
00
00
00
05
00
07
01
00
00
00
00
00
00
00
00
00
00
00
00
00
10
0B
00
00
00
00
00
00
00
00
00
00
00
00
00
00
1A
00
00
00
00
00
00
00
00
00
00
00
00
00
00
00
05
00
00
00
00
00
00
00
00
00
00
00
00
00
00
00
05
00
00
00
00
00
00
00
00
00
00
00
00
00
00
00
15
00
00
00
00
00
00
00
00
00
00
00
00
00
00
00
00
02
02
00
00
00
00
00
00
00
00
00
00
00
00
02
06
24
03
07
00
02
00
00
00
00
00
00
00
00
0D
07
00
08
0A
00
00
00
03
00
00
00
00
00
00
00
00
00
00
01
18
00
08
00
00
00
00
00
00
00
00
0E
00
00
00
0D
04
00
03
00
00
00
00
00
00
00
00
00
14
04
0C
07
04
00
07
01
00
00
00
00
00
00
00
00
02
08
01
00
00
06
0D
00
00
00
04
00
00
00
00
00
07
04
00
0E
07
1F
06
00
00
00
04
04
04
02
00
00
02
0F
00
09
15
07
00
00
00
00
00
00
00
00
00
00
00
0C
24
00
03
00
00
00
00
00
00
00
00
00
00
00
00
07
01
09
00
00
00
00
00
00
00
00
00
00
00
00
00
00
07
08
00
00
00
00
00
00
00
00
00
00
00
00
00
00
1B
00
00
00
00
00
00
00
00
00
00
00
00
00
00
00
09
00
00
00
00
00
00
00
00
00
00
00
00
00
00
00
03
00
00
00
00
00
00
00
00
00
00
00
00
00
00
00
11
00
00
00
00
00
00
00
00
00
00
00
00
00
00
00
03
02
04
00
00
00
00
00
00
00
00
00
00
00
00
02
05
1C
00
00
00
01
00
00
00
00
00
00
00
00
05
05
02
0D
0C
00
00
00
00
00
00
00
00
00
00
03
00
00
00
00
11
05
07
00
00
00
00
00
00
00
00
09
09
02
00
06
01
00
04
00
00
00
00
00
00
00
00
00
12
02
0E
03
02
01
04
00
00
00
00
00
00
00
00
00
00
09
01
00
00
04
09
00
00
00
04
00
00
00
00
00
02
00
00
0E
07
1A
04
00
00
00
03
03
02
00
00
00
01
11
00
09
15
07
00
00
00
00
00
00
00
00
00
00
00
0C
24
00
03
00
00
00
00
00
00
00
00
00
00
00
00
07
01
09
00
00
00
00
00
00
00
00
00
00
00
00
00
00
07
08
00
00
00
00
00
00
00
00
00
00
00
00
00
00
1B
00
00
00
00
00
00
00
00
00
00
00
00
00
00
00
09
00
00
00
00
00
00
00
00
00
00
00
00
00
00
00
03
00
00
00
00
00
00
00
00
00
00
00
00
00
00
00
11
00
00
00
00
00
00
00
00
00
00
00
00
00
00
00
03
02
04
00
00
00
00
00
00
00
00
00
00
00
00
02
05
1C
00
00
00
01
00
00
00
00
00
00
00
00
05
05
02
0D
0C
00
00
00
00
00
00
00
00
00
00
03
00
00
00
00
11
05
07
00
00
00
00
00
00
00
00
09
09
02
00
06
01
00
04
00
00
00
00
00
00
00
00
00
12
02
0E
03
02
01
04
00
00
00
00
00
00
00
00
00
00
09
01
00
00
04
09
00
00
00
04
00
00
00
00
00
02
00
00
0E
07
1A
04
00
00
00
03
03
02
00
00
00
01
11
00
03
12
05
00
00
00
00
00
00
00
00
00
00
00
0C
1B
04
03
00
00
00
00
00
00
00
00
00
00
00
00
08
01
0C
00
00
00
00
00
00
00
00
00
00
00
00
00
00
03
07
00
00
00
00
00
00
00
00
00
00
00
00
00
00
22
00
00
00
00
00
00
00
00
00
00
00
00
00
00
00
09
00
00
00
00
00
00
00
00
00
00
00
00
00
00
00
02
00
00
00
00
00
00
00
00
00
00
00
00
00
00
00
0E
00
00
00
00
00
00
00
00
00
00
00
00
00
00
00
0C
02
04
00
00
00
00
00
00
00
00
00
00
00
00
02
04
13
00
04
00
01
00
00
00
00
00
00
00
00
07
03
04
13
0D
00
01
00
00
00
00
00
00
00
00
04
00
02
00
00
10
0B
04
00
00
00
00
00
00
00
00
06
06
02
00
05
01
00
02
00
00
00
00
00
00
00
00
00
10
00
0B
02
02
03
04
00
00
00
00
00
00
00
00
00
00
09
01
00
00
03
07
00
00
00
04
00
00
00
00
00
03
00
00
0C
07
22
03
00
00
00
04
04
01
06
00
00
02
0E
00
03
12
05
00
00
00
00
00
00
00
00
00
00
00
0C
1B
04
03
00
00
00
00
00
00
00
00
00
00
00
00
08
01
0C
00
00
00
00
00
00
00
00
00
00
00
00
00
00
03
07
00
00
00
00
00
00
00
00
00
00
00
00
00
00
22
00
00
00
00
00
00
00
00
00
00
00
00
00
00
00
09
00
00
00
00
00
00
00
00
00
00
00
00
00
00
00
02
00
00
00
00
00
00
00
00
00
00
00
00
00
00
00
0E
00
00
00
00
00
00
00
00
00
00
00
00
00
00
00
0C
02
04
00
00
00
00
00
00
00
00
00
00
00
00
02
04
13
00
04
00
01
00
00
00
00
00
00
00
00
07
03
04
13
0D
00
01
00
00
00
00
00
00
00
00
04
00
02
00
00
10
0B
04
00
00
00
00
00
00
00
00
06
06
02
00
05
01
00
02
00
00
00
00
00
00
00
00
00
10
00
0B
02
02
03
04
00
00
00
00
00
00
00
00
00
00
09
01
00
00
03
07
00
00
00
04
00
00
00
00
00
03
00
00
0C
07
22
03
00
00
00
04
04
01
06
00
00
02
0E
00
03
10
02
00
00
00
00
00
00
00
00
01
00
00
09
19
00
02
00
00
00
00
00
00
00
00
00
00
00
00
05
02
08
00
00
00
00
00
00
00
00
00
00
00
00
00
00
02
03
00
00
00
00
00
00
00
00
00
00
00
00
00
00
1D
00
00
00
00
00
00
00
00
00
00
00
00
00
00
00
09
00
00
00
00
00
00
00
00
00
00
00
00
00
00
00
02
00
00
00
00
00
00
00
00
00
00
00
00
00
00
00
0C
00
00
00
00
00
00
00
00
00
00
00
00
00
00
00
06
01
01
00
00
00
00
00
00
00
00
00
00
00
00
02
04
0E
00
00
00
00
00
00
00
00
00
00
00
00
04
02
02
0E
0E
01
02
00
00
00
00
00
00
00
00
00
01
02
00
00
13
04
00
01
00
00
00
00
00
00
00
07
04
01
00
02
02
00
03
00
00
00
00
00
00
00
00
00
08
00
09
01
02
07
07
00
00
00
00
00
00
00
00
00
01
04
01
00
02
08
08
01
00
00
02
00
00
00
00
00
02
00
00
09
08
1A
03
00
00
00
05
01
00
00
00
00
01
10
00
03
10
02
00
00
00
00
00
00
00
00
01
00
00
09
19
00
02
00
00
00
00
00
00
00
00
00
00
00
00
05
02
08
00
00
00
00
00
00
00
00
00
00
00
00
00
00
02
03
00
00
00
00
00
00
00
00
00
00
00
00
00
00
1D
00
00
00
00
00
00
00
00
00
00
00
00
00
00
00
09
00
00
00
00
00
00
00
00
00
00
00
00
00
00
00
02
00
00
00
00
00
00
00
00
00
00
00
00
00
00
00
0C
00
00
00
00
00
00
00
00
00
00
00
00
00
00
00
06
01
01
00
00
00
00
00
00
00
00
00
00
00
00
02
04
0E
00
00
00
00
00
00
00
00
00
00
00
00
04
02
02
0E
0E
01
02
00
00
00
00
00
00
00
00
00
01
02
00
00
13
04
00
01
00
00
00
00
00
00
00
07
04
01
00
02
02
00
03
00
00
00
00
00
00
00
00
00
08
00
09
01
02
07
07
00
00
00
00
00
00
00
00
00
01
04
01
00
02
08
08
01
00
00
02
00
00
00
00
00
02
00
00
09
08
1A
03
00
00
00
05
01
00
00
00
00
01
10
00
03
0E
02
04
00
00
00
00
00
00
00
01
00
00
07
13
04
03
00
00
00
00
00
00
00
00
00
00
00
06
01
01
04
00
00
00
00
00
01
00
00
00
00
00
00
00
00
00
00
00
00
00
00
00
01
00
00
00
00
00
00
00
00
1A
00
00
00
00
00
00
01
00
00
00
00
00
00
00
00
04
00
00
00
00
00
00
00
00
00
00
00
00
00
00
00
00
00
00
00
00
00
00
00
00
00
00
00
00
00
00
00
07
00
00
00
00
00
00
00
00
00
00
00
00
00
00
00
06
01
02
00
00
00
00
00
00
00
00
00
00
00
00
00
02
09
00
00
00
00
00
00
00
00
00
00
00
00
03
00
00
09
09
00
00
00
00
00
00
00
00
00
00
02
01
00
00
00
10
09
00
01
00
00
00
00
00
00
00
02
02
01
00
05
02
00
02
00
00
00
00
00
00
00
00
02
06
02
09
01
04
02
02
00
00
00
00
00
00
00
00
00
02
02
00
04
00
04
06
00
00
00
01
00
00
00
00
00
03
02
00
0B
03
12
03
00
00
00
03
00
00
00
00
00
02
07
01
03
0E
02
04
00
00
00
00
00
00
00
01
00
00
07
13
04
03
00
00
00
00
00
00
00
00
00
00
00
06
01
01
04
00
00
00
00
00
01
00
00
00
00
00
00
00
00
00
00
00
00
00
00
00
01
00
00
00
00
00
00
00
00
1A
00
00
00
00
00
00
01
00
00
00
00
00
00
00
00
04
00
00
00
00
00
00
00
00
00
00
00
00
00
00
00
00
00
00
00
00
00
00
00
00
00
00
00
00
00
00
00
07
00
00
00
00
00
00
00
00
00
00
00
00
00
00
00
06
01
02
00
00
00
00
00
00
00
00
00
00
00
00
00
02
09
00
00
00
00
00
00
00
00
00
00
00
00
03
00
00
09
09
00
00
00
00
00
00
00
00
00
00
02
01
00
00
00
10
09
00
01
00
00
00
00
00
00
00
02
02
01
00
05
02
00
02
00
00
00
00
00
00
00
00
02
06
02
09
01
04
02
02
00
00
00
00
00
00
00
00
00
02
02
00
04
00
04
06
00
00
00
01
00
00
00
00
00
03
02
00
0B
03
12
03
00
00
00
03
00
00
00
00
00
02
07
01
0C
0E
01
06
02
03
01
00
00
00
02
04
01
00
06
0B
01
03
00
00
00
00
02
00
00
00
00
00
00
09
01
02
05
02
00
00
00
00
01
00
00
00
00
00
00
00
01
00
05
00
00
00
00
00
01
00
00
00
00
00
00
00
00
19
00
00
00
00
00
00
00
00
00
00
00
00
00
00
00
00
00
00
00
00
00
00
00
00
00
00
00
00
00
00
00
01
00
00
00
00
00
00
00
00
00
00
00
00
00
00
00
0E
00
00
00
00
00
00
00
00
00
00
00
00
00
00
00
02
01
01
00
00
00
00
00
00
00
00
00
00
00
00
00
00
04
00
03
00
00
00
00
00
00
00
00
00
01
02
00
00
04
0B
05
02
02
00
00
00
00
00
00
00
05
00
03
00
01
0A
08
03
07
00
00
00
00
00
00
00
00
00
00
00
06
01
00
02
00
00
00
00
00
00
00
00
05
04
02
0A
02
03
02
02
00
00
00
00
00
00
00
00
00
04
06
00
04
04
02
07
00
00
00
00
00
00
00
00
00
06
04
00
05
07
0C
02
00
00
00
03
02
01
00
00
00
03
03
02
0C
0E
01
06
02
03
01
00
00
00
02
04
01
00
06
0B
01
03
00
00
00
00
02
00
00
00
00
00
00
09
01
02
05
02
00
00
00
00
01
00
00
00
00
00
00
00
01
00
05
00
00
00
00
00
01
00
00
00
00
00
00
00
00
19
00
00
00
00
00
00
00
00
00
00
00
00
00
00
00
00
00
00
00
00
00
00
00
00
00
00
00
00
00
00
00
01
00
00
00
00
00
00
00
00
00
00
00
00
00
00
00
0E
00
00
00
00
00
00
00
00
00
00
00
00
00
00
00
02
01
01
00
00
00
00
00
00
00
00
00
00
00
00
00
00
04
00
03
00
00
00
00
00
00
00
00
00
01
02
00
00
04
0B
05
02
02
00
00
00
00
00
00
00
05
00
03
00
01
0A
08
03
07
00
00
00
00
00
00
00
00
00
00
00
06
01
00
02
00
00
00
00
00
00
00
00
05
04
02
0A
02
03
02
02
00
00
00
00
00
00
00
00
00
04
06
00
04
04
02
07
00
00
00
00
00
00
00
00
00
06
04
00
05
07
0C
02
00
00
00
03
02
01
00
00
00
03
03
02
00
16
1F
3A
04
33
12
08
00
02
09
18
00
18
13
01
13
12
1C
00
43
00
11
00
13
00
00
00
00
1A
00
00
00
00
1F
00
00
00
00
00
00
0C
00
09
0C
30
24
00
0E
1F
00
00
19
00
0B
00
00
00
00
21
27
00
09
08
00
04
00
18
11
1F
00
00
00
00
41
10
07
0F
00
00
00
00
00
2B
00
00
00
00
00
00
2E
6D
13
3B
00
00
00
00
0A
27
00
00
00
24
00
04
4A
2E
00
2B
08
00
18
00
03
00
00
00
4E
38
00
50
00
00
17
36
00
00
02
00
00
00
00
00
00
38
59
00
18
37
00
2F
4B
18
00
08
15
00
57
00
16
00
00
00
00
41
00
02
00
0E
00
00
00
2D
17
09
00
00
00
00
1A
00
00
33
00
40
1B
00
07
27
00
2A
6C
00
1E
00
16
3B
22
10
00
13
00
00
27
44
00
01
00
47
00
00
00
1F
00
04
2F
11
00
29
00
00
00
00
33
15
00
15
00
00
00
00
31
00
02
00
24
00
02
32
16
24
00
05
00
00
29
0E
18
00
41
11
2B
00
21
1F
00
00
00
13
00
16
01
0C
00
00
00
16
1F
3A
04
33
12
08
00
02
09
18
00
18
13
01
13
12
1C
00
43
00
11
00
13
00
00
00
00
1A
00
00
00
00
1F
00
00
00
00
00
00
0C
00
09
0C
30
24
00
0E
1F
00
00
19
00
0B
00
00
00
00
21
27
00
09
08
00
04
00
18
11
1F
00
00
00
00
41
10
07
0F
00
00
00
00
00
2B
00
00
00
00
00
00
2E
6D
13
3B
00
00
00
00
0A
27
00
00
00
24
00
04
4A
2E
00
2B
08
00
18
00
03
00
00
00
4E
38
00
50
00
00
17
36
00
00
02
00
00
00
00
00
00
38
59
00
18
37
00
2F
4B
18
00
08
15
00
57
00
16
00
00
00
00
41
00
02
00
0E
00
00
00
2D
17
09
00
00
00
00
1A
00
00
33
00
40
1B
00
07
27
00
2A
6C
00
1E
00
16
3B
22
10
00
13
00
00
27
44
00
01
00
47
00
00
00
1F
00
04
2F
11
00
29
00
00
00
00
33
15
00
15
00
00
00
00
31
00
02
00
24
00
02
32
16
24
00
05
00
00
29
0E
18
00
41
11
2B
00
21
1F
00
00
00
13
00
16
01
0C
00
00
