01
00
00
03
01
00
00
00
00
00
00
00
00
07
07
00
00
04
05
01
00
00
00
00
00
00
00
00
00
00
00
1E
07
02
02
01
00
00
00
00
00
00
00
00
00
00
01
65
0B
04
01
00
00
00
00
00
00
00
00
00
00
00
00
13
02
04
01
01
01
00
00
00
00
00
00
00
00
00
00
00
03
03
02
01
01
01
00
00
00
00
00
00
00
00
00
00
07
03
03
02
01
01
01
00
00
00
00
00
00
00
00
00
12
05
04
04
04
05
02
00
00
00
00
00
00
00
00
3A
06
44
09
07
09
0D
01
00
00
00
00
00
00
00
1B
C9
0C
00
00
00
05
0A
00
00
00
00
01
0E
00
05
1B
A3
00
0E
00
00
05
00
00
00
00
00
00
0F
00
00
0C
3D
02
10
00
01
00
00
00
00
00
00
00
0D
33
09
2A
04
17
00
00
00
00
00
00
00
00
00
01
06
05
00
06
46
19
22
00
04
00
00
00
00
00
00
00
00
00
09
0A
06
16
00
00
00
00
00
00
00
00
00
0B
02
00
00
4E
05
00
00
0B
00
00
01
01
00
17
1E
01
12
00
00
00
05
08
00
00
02
01
00
00
00
00
00
00
00
00
06
08
00
04
07
04
01
00
00
00
00
00
00
00
00
00
00
04
11
07
02
01
00
00
00
00
00
00
00
00
00
00
00
00
33
07
03
01
00
00
00
00
00
00
00
00
00
00
00
00
18
02
02
01
01
01
00
00
00
00
00
00
00
00
00
00
00
01
01
01
01
01
00
00
00
00
00
00
00
00
00
00
00
02
01
01
01
01
01
01
00
01
00
00
00
00
00
00
00
04
01
01
01
02
03
01
00
00
00
00
00
00
00
00
43
04
16
02
02
03
04
00
00
00
00
00
00
00
01
0C
6E
00
00
02
07
01
02
00
00
00
00
00
09
00
03
0F
49
03
0A
02
00
02
00
00
00
00
00
00
08
04
08
07
22
03
0D
0C
07
00
00
00
00
00
00
00
06
22
03
1D
03
14
03
05
05
02
00
00
00
00
00
00
00
0A
00
03
19
0A
13
03
09
00
00
00
00
00
00
00
00
01
07
05
04
09
00
01
00
00
00
00
00
00
00
08
01
00
02
1A
04
00
02
07
05
00
02
02
00
08
0F
18
08
00
00
07
04
02
01
05
02
01
00
00
00
00
00
00
00
00
06
08
02
05
07
03
01
00
00
00
00
00
00
00
00
00
00
04
0E
04
02
01
00
00
00
00
00
00
00
00
00
00
00
00
2C
06
03
01
00
00
00
00
00
00
00
00
00
00
00
00
1F
02
02
01
00
00
00
00
00
00
00
00
00
00
00
00
00
01
01
01
01
00
00
00
00
00
00
00
00
00
00
00
03
02
01
01
01
01
01
01
00
01
00
00
00
00
00
00
0F
02
01
01
01
02
02
00
00
00
00
00
00
00
00
00
39
05
0A
01
01
02
04
00
00
00
00
00
00
00
00
0F
5C
03
00
08
0B
01
01
00
00
00
00
00
08
03
2D
11
31
04
08
04
04
04
01
00
00
00
00
00
07
06
09
08
1C
03
08
08
0B
03
00
00
00
00
00
00
06
23
03
1C
03
10
05
08
05
01
00
00
00
00
00
00
00
08
0D
06
10
09
10
05
0A
00
00
00
00
00
00
00
00
01
08
04
04
07
02
01
01
00
00
00
00
00
00
07
02
00
01
10
04
00
06
05
04
00
02
01
05
06
0E
1C
08
01
01
0B
04
01
01
07
02
01
00
00
00
00
00
00
00
00
06
08
04
07
07
04
01
00
00
00
00
00
00
00
00
00
00
06
0E
04
01
01
00
00
00
00
00
00
00
00
00
00
00
00
2B
06
03
01
00
00
00
00
00
00
00
00
00
00
00
00
1C
02
02
01
00
00
00
00
00
00
00
00
00
00
00
00
0C
01
01
01
01
00
00
00
00
00
00
00
00
00
00
00
06
02
01
01
01
01
01
01
00
01
00
00
00
00
00
00
0D
02
01
01
01
01
02
00
00
00
00
00
00
00
00
00
35
06
05
01
01
02
03
00
00
00
00
00
00
00
00
0F
54
03
02
07
0E
01
01
00
00
00
00
00
07
03
28
14
2F
05
09
05
05
05
01
00
00
00
00
00
07
08
0A
07
1B
03
08
0A
10
04
00
00
00
00
00
00
06
1F
04
1A
03
14
03
0E
05
01
00
00
00
00
00
00
00
08
0E
07
19
08
0E
07
08
00
00
00
00
00
00
00
00
01
09
05
04
06
02
01
02
00
00
00
00
00
00
07
02
00
01
0E
04
00
08
07
05
01
02
02
07
07
0D
1B
0A
01
01
08
05
05
01
07
02
01
00
00
00
00
00
00
00
00
06
08
05
07
08
03
01
00
00
00
00
00
00
00
00
00
00
07
0D
03
01
01
00
00
00
00
00
00
00
00
00
00
00
00
27
05
03
01
00
00
00
00
00
00
00
00
00
00
00
00
1B
02
02
00
00
00
00
00
00
00
00
00
00
00
00
00
09
01
01
01
01
00
00
00
00
00
00
00
00
00
00
00
05
02
01
01
01
01
01
01
00
00
00
00
00
00
00
00
0B
02
01
01
01
01
02
00
00
00
00
00
00
00
00
00
46
05
06
01
01
02
03
00
00
00
00
00
00
00
00
0E
4F
03
03
08
0E
01
01
00
00
00
00
00
07
02
28
15
2F
03
08
06
05
08
04
00
00
00
00
00
07
08
09
06
17
03
06
0B
0E
07
00
00
00
00
00
00
05
1F
06
18
03
0F
03
10
05
01
00
00
00
00
00
00
00
07
0D
08
16
09
0C
08
08
00
00
00
00
00
00
00
00
01
0A
05
04
05
03
01
02
00
00
00
00
00
00
07
02
00
01
0E
04
00
08
06
03
01
02
02
07
07
0B
19
0B
01
01
06
06
05
01
06
02
01
01
00
00
00
00
00
00
00
07
08
04
06
07
03
01
00
00
00
00
00
00
00
00
00
00
09
0D
05
01
01
00
00
00
00
00
00
00
00
00
00
00
00
21
05
03
01
00
00
00
00
00
00
00
00
00
00
00
00
1C
02
02
00
00
00
00
00
00
00
00
00
00
00
00
00
08
01
01
01
01
01
00
00
00
00
00
00
00
00
00
00
05
01
01
01
01
01
01
01
00
00
00
00
00
00
00
00
0A
02
01
01
01
01
02
00
00
00
00
00
00
00
00
00
46
05
06
01
01
02
03
00
00
00
00
00
00
00
00
0C
47
00
02
07
0B
01
01
00
00
00
00
00
07
02
23
11
29
06
08
05
04
05
03
00
00
00
00
00
07
07
07
08
17
03
03
0C
0D
07
01
00
00
00
00
00
05
20
06
16
03
0F
04
0A
05
01
00
00
00
00
00
00
01
08
0D
07
17
0A
0C
06
07
00
00
00
00
00
00
00
00
01
07
05
03
06
03
00
03
00
00
00
00
00
00
06
02
00
01
0A
04
00
06
05
04
01
02
02
06
07
0A
1A
06
01
01
07
06
08
01
05
02
01
01
00
00
00
00
00
00
00
07
07
03
06
07
03
01
00
00
00
00
00
00
00
00
00
00
09
0B
04
02
01
00
00
00
00
00
00
00
00
00
00
00
00
21
06
03
01
00
00
00
00
00
00
00
00
00
00
00
00
16
02
02
01
01
01
00
00
00
00
00
00
00
00
00
00
07
01
01
01
01
01
00
00
00
00
00
00
00
00
00
00
04
02
01
01
01
01
01
01
00
00
00
00
00
00
00
00
08
02
01
01
01
01
02
00
00
00
00
00
00
00
00
00
3D
05
08
01
01
02
03
00
00
00
00
00
00
00
00
0C
43
02
03
06
0B
01
01
00
00
00
00
00
06
02
23
10
22
08
08
05
04
04
03
00
00
00
00
00
07
09
08
08
14
03
03
0B
0A
04
01
00
00
00
00
00
06
1E
06
16
02
0F
05
0B
04
00
00
00
00
00
00
00
01
08
0A
06
12
09
0D
0A
07
00
00
00
00
00
00
00
00
01
08
07
03
07
02
01
02
00
00
00
00
00
00
05
02
00
01
0D
03
00
07
05
04
01
01
02
07
06
09
19
06
01
02
05
06
07
01
06
02
01
01
00
00
00
00
00
00
01
07
08
03
05
07
03
01
01
00
00
00
00
00
00
00
00
00
09
0C
05
01
01
00
00
00
00
00
00
00
00
00
00
00
00
19
05
03
01
00
00
00
00
00
00
00
00
00
00
00
00
15
02
02
01
00
01
00
00
00
00
00
00
00
00
00
00
07
01
01
01
01
01
00
00
00
00
00
00
00
00
00
00
03
01
01
01
01
01
01
01
00
00
00
00
00
00
00
00
08
02
01
01
01
02
02
01
00
00
00
00
00
00
00
00
36
04
06
01
01
02
03
00
00
00
00
00
00
00
00
0A
3B
03
03
04
07
01
01
00
00
00
00
00
07
02
21
0A
1E
10
08
04
06
07
03
00
00
00
00
00
07
09
04
07
12
03
0A
09
0B
03
01
00
00
00
00
00
07
18
05
13
02
11
05
0C
04
01
00
00
00
00
00
00
01
07
09
07
0D
08
0B
06
05
00
00
00
00
00
00
00
00
01
07
07
03
05
03
01
02
00
00
00
00
00
00
05
01
00
01
0C
03
00
06
0A
04
00
01
01
06
06
08
18
09
01
01
06
05
0A
00
06
02
01
01
00
00
00
00
01
04
03
06
08
02
06
06
03
01
01
00
00
00
00
00
00
00
00
00
07
0B
02
01
01
01
00
00
00
00
00
00
00
00
00
00
00
18
04
03
01
01
00
00
00
00
00
00
00
00
00
00
00
10
02
02
01
01
01
00
00
00
00
00
00
00
00
00
00
04
01
01
01
01
01
00
00
00
00
00
00
00
00
00
00
04
01
01
01
01
01
01
01
00
00
00
00
00
00
00
00
07
02
01
01
01
02
03
01
00
00
00
00
00
00
00
00
33
04
06
01
01
01
03
00
00
00
00
00
00
00
00
07
3A
00
01
04
0D
01
01
00
00
00
00
00
06
01
17
0A
1A
0D
07
03
04
06
02
00
00
00
00
00
06
09
04
06
10
03
0B
08
0B
06
01
00
00
00
00
00
05
13
05
0F
02
0C
05
0C
04
01
00
00
00
00
00
00
01
05
08
06
11
08
0E
07
07
00
00
00
00
00
00
00
00
01
06
08
03
06
04
01
03
00
00
00
00
00
00
05
01
00
01
08
03
01
05
0A
03
00
01
01
05
07
08
13
08
01
01
04
06
06
00
05
02
02
00
00
00
00
00
01
04
04
06
07
02
06
06
03
01
01
00
00
00
00
00
00
00
00
00
05
0A
04
01
01
01
01
00
00
00
00
00
00
00
00
00
04
16
04
03
01
01
01
00
00
00
00
00
00
00
00
00
00
10
02
02
01
01
01
00
00
00
00
00
00
00
00
00
00
02
01
01
01
01
01
01
00
00
00
00
00
00
00
00
00
04
02
01
01
01
01
01
01
00
00
00
00
00
00
00
00
05
02
01
01
01
02
03
01
00
00
00
00
00
00
00
00
27
04
07
01
01
01
03
00
00
00
00
00
00
00
00
06
32
03
02
03
04
01
01
00
00
00
00
00
05
01
15
08
17
0E
05
02
05
05
03
00
00
00
00
00
06
05
04
06
11
02
06
07
0A
09
00
00
00
00
00
00
05
18
09
0E
02
0E
04
0A
04
01
00
00
00
00
00
00
01
06
07
06
16
08
0D
05
06
00
00
00
00
00
00
00
00
01
05
08
03
05
03
02
03
00
00
00
00
00
00
05
01
00
01
08
03
01
04
0D
04
00
01
01
05
08
08
10
07
01
01
04
05
04
01
05
01
02
01
01
00
00
00
00
03
03
05
09
01
06
06
02
01
01
01
00
00
00
00
00
00
00
02
07
08
03
01
02
01
01
00
00
00
00
00
00
00
00
00
06
16
05
03
01
01
01
00
00
00
00
00
00
00
00
00
03
0A
01
02
01
01
01
00
00
00
00
00
00
00
00
00
00
00
01
01
01
01
01
01
00
00
00
00
00
00
00
00
00
0F
01
01
01
01
01
01
01
00
00
00
00
00
00
00
00
06
02
01
01
01
02
02
01
00
00
00
00
00
00
00
00
28
05
08
01
01
02
03
00
00
00
00
00
00
00
00
08
4B
04
06
03
07
01
01
00
00
00
00
00
04
01
10
09
1C
0C
07
04
04
06
03
00
00
00
00
00
05
03
09
06
0E
02
04
0C
0A
05
00
00
00
00
00
00
05
19
07
0C
02
07
04
06
05
01
00
00
00
00
00
00
01
07
07
05
0B
08
0D
03
05
00
00
00
00
00
00
00
00
00
06
08
03
07
04
02
04
00
00
00
00
00
00
05
05
00
01
07
03
01
03
08
02
00
01
01
06
0A
08
0C
0A
01
01
06
05
07
01
05
06
03
02
01
00
00
00
00
02
04
05
06
02
06
05
02
02
01
01
00
00
00
00
00
00
00
02
08
07
06
02
01
01
01
01
00
00
00
00
00
00
00
00
06
14
04
02
01
01
00
01
00
00
00
00
00
00
00
00
03
0A
01
02
01
00
01
01
00
00
00
00
00
00
00
00
00
04
01
01
01
01
01
01
00
00
00
00
00
00
00
00
00
0C
02
01
01
01
01
01
01
00
00
00
00
00
00
00
00
05
02
01
01
01
01
02
01
00
00
00
00
00
00
00
00
27
04
08
01
01
02
03
00
00
00
00
00
00
00
00
06
39
09
05
04
03
01
01
00
00
00
00
00
04
01
1F
07
1C
0D
06
03
04
04
03
00
00
00
00
00
06
04
09
06
0E
02
08
0E
0B
04
00
00
00
00
00
00
05
15
06
09
02
08
03
05
04
01
00
00
00
00
00
00
03
09
05
05
06
07
0B
06
06
00
00
00
00
00
00
00
00
00
05
06
03
05
05
02
03
00
00
00
00
00
00
06
08
00
01
08
03
02
04
05
03
00
01
01
05
0B
07
0A
0C
01
01
04
04
07
01
05
07
04
03
03
00
00
00
01
02
04
04
07
02
06
07
04
03
01
01
00
00
00
00
00
00
00
01
07
09
07
04
01
01
00
01
00
00
00
00
00
00
00
00
04
10
06
02
01
00
00
00
00
00
00
00
00
00
00
00
02
0B
01
02
01
00
01
00
00
00
00
00
00
00
00
00
00
06
01
01
01
01
01
00
00
00
00
00
00
00
00
00
00
05
01
01
01
01
01
01
00
00
00
00
00
00
00
00
00
03
02
01
01
01
01
02
01
00
00
00
00
00
00
00
00
22
04
07
01
01
01
03
00
00
00
00
00
00
00
00
05
31
07
08
02
08
01
01
00
00
00
00
00
04
01
1D
08
1B
0A
06
04
03
06
02
00
00
00
00
00
05
00
08
06
0B
02
07
0C
0B
06
00
00
00
00
00
00
03
18
08
09
02
07
03
02
03
01
00
00
00
00
00
00
03
08
07
03
0A
07
09
07
08
00
00
00
00
00
00
00
00
01
08
04
03
04
05
01
05
00
00
00
00
00
00
05
07
01
02
06
02
01
05
03
03
00
01
01
04
09
07
0C
09
02
03
06
04
07
00
04
05
08
09
06
00
00
00
03
03
02
04
07
03
07
06
05
03
05
04
01
00
00
00
00
00
00
05
05
07
07
0A
01
01
02
09
00
00
00
00
00
00
00
00
05
0C
10
02
02
00
01
05
00
00
00
00
00
00
00
00
02
0A
01
02
01
01
00
04
00
00
00
00
00
00
00
00
00
04
01
01
01
01
00
01
00
00
00
00
00
00
00
00
00
07
01
01
01
01
01
01
00
00
00
00
00
00
00
00
00
03
02
01
01
01
02
02
01
00
00
00
00
00
00
00
00
1A
04
05
01
01
01
02
01
00
00
00
00
00
00
00
06
2A
05
04
05
03
01
01
00
00
00
00
00
04
03
13
0E
14
0C
06
04
03
06
01
00
00
00
00
00
07
02
09
05
08
02
04
0D
0B
04
00
00
00
00
00
00
02
12
03
0C
02
08
02
02
03
01
00
00
00
00
00
00
02
04
05
03
0C
06
09
05
0B
00
00
00
00
00
00
00
01
01
05
03
02
03
04
01
05
00
00
00
00
00
00
05
07
01
03
09
02
02
0B
05
03
00
01
01
03
07
07
09
07
03
01
09
03
05
01
02
07
04
06
05
00
00
00
02
03
00
03
04
04
03
03
04
0D
11
04
00
00
00
00
01
02
04
01
05
06
06
07
02
06
12
06
00
00
00
00
00
03
00
00
04
06
0D
01
01
02
06
07
00
00
00
00
00
00
00
00
04
09
02
02
00
01
04
04
00
00
00
00
00
00
00
00
00
05
01
01
01
00
01
06
00
00
00
00
00
00
00
00
00
07
01
01
01
01
00
01
00
00
00
00
00
00
00
00
00
0C
02
01
01
01
01
01
01
00
00
00
00
00
00
00
00
1B
02
03
01
01
01
03
00
00
00
00
00
00
00
00
04
23
06
03
04
03
01
01
00
00
00
00
00
05
05
11
07
0F
09
04
03
03
05
01
00
00
00
00
00
04
00
03
04
07
01
04
08
06
01
01
00
00
00
00
00
01
10
05
08
01
07
02
03
04
03
00
00
00
00
00
00
02
05
08
04
0B
05
08
02
04
01
00
00
00
00
00
00
01
01
03
04
02
03
03
01
03
00
00
00
00
00
00
03
07
01
02
08
01
01
06
02
06
00
01
01
02
07
06
0C
04
02
01
03
03
00
09
00
00
0A
04
43
00
00
00
00
49
1B
00
00
00
00
45
00
00
00
00
00
00
00
52
0C
11
00
1F
07
08
0B
1B
12
2D
03
00
2E
53
0E
0B
00
2F
00
00
00
36
00
12
15
06
00
00
14
13
00
2D
0D
00
02
5C
12
17
00
22
00
00
11
00
40
00
24
46
00
00
03
00
00
00
00
0A
00
04
26
00
00
32
1F
00
00
05
24
00
2A
4C
1B
00
00
0E
00
00
7B
39
00
00
00
00
00
67
00
00
00
29
00
01
00
26
33
12
1F
27
00
16
00
3A
3A
00
08
4A
00
00
00
01
00
34
00
06
00
00
2C
00
2E
0A
00
5B
0C
00
00
00
31
06
00
00
42
37
00
00
00
4C
33
08
00
00
19
00
00
00
00
06
00
03
00
0D
09
00
00
6E
1D
00
12
4B
16
00
00
00
06
4F
00
00
24
00
70
23
2E
00
00
28
2D
00
00
48
00
00
22
00
27
1E
00
00
00
05
00
03
00
00
00
00
09
2B
00
00
44
04
00
44
00
00
09
42
6C
00
6F
00
12
04
00
00
00
54
00
00
00
10
00
3F
1B
12
00
34
0C
3D
6F
42
00
00
