FE
FC
FF
00
01
01
FF
FA
FA
FF
02
01
00
FF
FF
FF
FE
FE
01
04
04
04
FF
F5
F5
FE
04
04
02
00
FF
00
FF
00
06
08
08
08
00
F5
F4
FB
03
05
03
00
FF
01
01
05
0B
0F
0F
0C
02
F9
F7
FC
04
06
04
00
00
01
05
0E
13
17
15
0D
03
FD
FE
00
04
05
05
00
FF
01
0A
18
1B
1E
1B
10
05
02
00
04
07
06
05
03
03
03
09
19
23
23
22
14
0C
05
02
05
08
0B
09
0B
09
03
03
0F
20
28
25
18
09
FC
FA
00
08
0A
0B
0D
06
03
00
04
0B
14
19
13
FD
EF
ED
F6
03
09
08
07
05
02
FF
FF
00
03
05
02
F4
E9
E9
F1
FE
05
04
02
01
01
FE
FF
FE
FE
FE
FA
F1
E9
EB
F1
FC
02
01
00
FD
00
FC
FE
FE
FE
FD
F9
F0
E8
ED
F4
FC
FF
00
FF
FD
FD
FE
FE
FE
FD
FB
F5
EC
E9
E8
F1
FA
FF
FF
FF
FA
FF
FE
FF
FE
FD
FA
F4
EF
EF
ED
F0
FA
FE
FE
FE
FB
FC
FE
FF
FE
FC
FA
F7
F8
F9
F6
F6
FC
FE
FD
FE
FA
FE
FF
FF
FE
FE
FC
FC
FD
FD
FD
FE
FF
FF
FE
FE
FC
FF
FE
FC
FE
00
01
01
00
FB
FA
FF
02
02
00
FF
FF
FF
FE
FD
00
03
03
03
FF
F6
F6
FE
05
04
02
00
FF
00
FF
00
03
05
07
08
01
F6
F4
FC
04
06
03
00
FF
01
01
05
07
0A
0C
0D
04
F9
F7
FD
05
07
04
00
00
01
04
0C
0F
10
11
0F
05
FD
FE
04
06
06
04
01
00
01
07
12
17
16
15
11
07
00
FF
06
06
05
06
04
03
02
07
13
1D
1E
1A
14
0C
03
00
03
06
07
08
09
08
03
04
0D
19
21
1E
13
09
FC
FA
00
07
08
07
0A
05
03
FF
04
0A
10
15
0F
FD
F3
F0
F8
03
09
09
07
05
02
FF
FF
00
03
04
01
F6
ED
EC
F3
FE
04
04
01
01
01
FE
FF
FE
FE
FE
FA
F3
EE
EF
F3
FC
02
01
FF
FC
00
FB
FE
FE
FE
FD
F9
F3
ED
F0
F5
FC
00
00
FF
FC
FC
FE
FE
FE
FD
FC
F7
F0
ED
ED
F5
FB
FE
FF
FF
FA
FF
FE
FF
FE
FD
FA
F6
F3
F2
F0
F2
FB
FE
FE
FE
FB
FC
FE
FE
FE
FC
FB
F9
FA
FA
F8
F8
FD
FE
FD
FE
FA
FD
FF
FF
FF
FE
FC
FC
FD
FD
FD
FE
FF
FF
FE
FE
FC
FE
FE
FC
FF
01
00
01
FF
FB
FA
FF
02
01
FF
FF
FF
FF
FE
FE
00
03
03
03
FE
F7
F7
FF
05
04
02
00
FF
00
FF
00
03
06
08
08
00
F6
F5
FD
05
07
04
01
FF
00
01
04
06
0A
0E
0C
02
FB
FA
FE
05
07
05
02
01
00
02
0A
0D
0F
12
0D
04
00
00
03
06
06
06
03
01
01
06
10
13
14
15
11
07
03
00
06
07
05
06
05
03
03
05
10
18
18
1A
14
0C
03
02
04
06
08
08
09
08
03
02
09
15
1A
19
13
09
FD
FB
01
06
08
07
0A
06
02
00
03
08
0D
11
0B
FE
F4
F2
F9
04
09
08
06
03
01
FF
FF
00
02
03
00
F6
EF
EE
F3
FE
04
02
00
00
01
FE
FF
FE
FE
FE
FB
F4
EF
F0
F4
FC
02
01
00
FC
00
FB
FE
FE
FE
FD
FA
F5
EF
F2
F6
FD
FF
00
FF
FC
FC
FE
FE
FE
FD
FC
F8
F3
F0
F0
F6
FC
FF
FF
FF
FA
FF
FE
FF
FE
FD
FB
F7
F5
F4
F2
F5
FC
FE
FE
FE
FB
FD
FE
FE
FF
FD
FC
FA
FB
FB
F9
F9
FD
FE
FD
FE
FA
FD
FF
FF
FF
FE
FD
FD
FE
FE
FD
FE
FF
FF
FE
FE
FC
FE
FE
FD
FF
01
01
01
FF
FB
FB
FF
02
01
FF
FF
FF
FF
FE
FE
01
03
03
03
FF
F7
F6
FF
03
03
02
00
FF
00
FF
00
04
06
07
07
00
F8
F6
FD
04
06
04
02
FF
00
00
04
08
0A
0C
0B
03
FC
FA
FF
05
07
05
03
01
01
02
08
0E
11
11
0D
05
01
01
05
06
07
06
04
02
01
05
0D
11
16
16
0F
07
05
01
04
07
06
07
06
04
03
04
0D
12
17
1A
12
0A
05
01
03
07
06
07
08
08
02
02
08
11
16
18
12
07
FD
FB
01
06
07
06
0A
06
01
FF
03
07
0C
0E
0B
FE
F5
F3
FA
03
06
05
03
02
01
FF
FF
00
02
03
00
F7
F0
EF
F4
FE
03
01
00
00
01
FE
FF
FE
FE
FE
FB
F5
F0
F0
F5
FC
02
01
00
FC
00
FC
FE
FE
FE
FD
FB
F6
F0
F2
F6
FC
FF
00
FF
FC
FC
FE
FE
FE
FD
FC
F9
F5
F1
F0
F7
FC
FE
FF
FF
FA
FF
FE
FF
FE
FD
FB
F8
F8
F6
F4
F7
FC
FE
FE
FF
FB
FC
FE
FE
FF
FD
FC
FB
FB
FC
FA
FA
FD
FE
FD
FE
FA
FD
FF
FF
FF
FF
FD
FD
FE
FE
FE
FE
FF
FF
FE
FE
FC
FE
FF
FD
00
01
01
02
00
FC
FB
FF
02
01
00
FF
FF
FF
FE
FE
01
05
04
03
FE
F7
F8
FF
03
04
02
00
FF
00
FF
00
05
08
08
07
00
F8
F8
FD
04
06
05
02
00
00
01
03
08
0D
0D
0B
03
FE
FC
FF
05
06
05
02
01
01
02
09
0E
12
12
0C
06
01
01
04
07
06
05
03
01
01
04
0C
13
16
16
10
09
02
FF
06
07
05
05
05
03
01
03
0B
13
19
19
11
0A
04
FF
03
03
03
03
05
04
00
01
07
0F
15
19
10
07
FD
FC
00
04
02
02
04
03
01
FF
02
05
09
0D
0B
FD
F5
F3
F8
FF
02
01
02
00
01
FF
FF
00
01
02
00
F7
F1
F0
F5
FE
02
01
FF
00
01
FE
FF
FE
FE
FE
FC
F6
F1
F1
F5
FC
02
00
00
FC
00
FC
FF
FE
FF
FD
FB
F7
F1
F3
F7
FC
FF
00
FF
FC
FC
FE
FF
FE
FD
FC
FA
F6
F2
F1
F7
FC
FF
FF
FF
FA
FF
FE
FF
FE
FD
FB
FA
F8
F6
F4
F6
FC
FE
FE
FE
FB
FD
FE
FE
FF
FD
FC
FB
FC
FC
FA
FA
FD
FE
FD
FE
FA
FD
FF
FF
FF
FF
FD
FE
FE
FE
FE
FE
FF
FF
FE
FE
FC
FE
FF
FE
FF
01
02
02
00
FC
FC
FF
02
01
00
FF
FF
00
FE
FE
01
05
06
04
FF
F8
FA
00
04
03
02
01
00
00
FF
00
04
08
0B
08
FF
F9
FA
FF
04
05
03
02
00
00
00
04
09
0C
10
0D
02
FD
FE
01
05
04
03
02
01
00
02
08
0F
11
14
0E
03
00
02
04
04
03
04
03
01
00
05
0D
13
16
16
11
06
03
00
03
04
02
04
03
00
00
03
0C
14
18
18
12
0B
05
FF
00
01
FF
FE
FF
FF
00
01
06
0F
17
17
10
07
FE
FC
FC
FE
FB
FA
FC
FF
01
FF
02
05
09
0E
0A
FD
F6
F3
F7
FD
FF
FE
FF
00
01
FF
FF
00
01
02
FF
F7
F1
F0
F5
FD
01
00
FF
00
01
FF
FF
FF
FE
FE
FC
F6
F2
F2
F6
FD
01
01
FF
FC
00
FC
FF
FE
FE
FE
FC
F7
F1
F4
F8
FD
FF
00
FF
FD
FD
FF
FE
FE
FD
FD
FA
F6
F2
F1
F8
FC
FF
FF
FF
FA
FF
FE
FF
FE
FE
FB
FA
F8
F6
F5
F7
FC
FE
FF
FF
FB
FE
FE
FF
FF
FE
FD
FB
FC
FC
FA
FB
FE
FE
FE
FE
FB
FE
FF
FF
FF
FF
FD
FE
FE
FF
FE
FF
FF
FF
FE
FE
FD
FE
FF
FE
00
01
01
03
02
FF
FE
00
02
02
00
FF
FF
FF
FF
FF
01
04
04
05
01
FC
FC
01
03
02
01
00
FF
00
FF
00
05
08
09
08
03
FD
FC
FF
02
03
03
01
FF
00
01
04
09
0E
0E
0C
06
00
FE
FF
02
03
03
01
00
00
02
09
0F
13
13
0D
06
02
FF
02
03
03
03
00
FF
FF
05
0E
13
18
17
10
07
04
FF
02
02
FE
FE
FD
FD
00
04
0D
14
18
1A
12
0B
05
FD
FC
F9
F7
F6
F9
FD
00
01
07
11
16
18
10
07
FF
F8
F7
F7
F5
F4
F8
FE
00
FF
02
05
0A
0D
0A
FE
F6
F4
F6
FB
FD
FB
FE
FF
01
FF
FF
00
01
02
FF
F8
F3
F2
F6
FD
01
00
FF
00
00
FF
FF
FF
FF
FE
FC
F6
F3
F3
F7
FD
02
00
00
FC
00
FD
FF
FF
FF
FE
FC
F7
F1
F4
F8
FD
00
00
FF
FD
FD
FF
FF
FF
FE
FD
FB
F7
F3
F2
F9
FD
FF
FF
FF
FB
FF
FE
FF
FF
FE
FC
FA
F9
F7
F6
F8
FC
FF
FF
FF
FC
FE
FF
FF
FF
FE
FD
FC
FC
FC
FB
FB
FE
FF
FE
FF
FB
FE
FF
FF
FF
FF
FD
FE
FF
FE
FE
FE
FF
FF
FE
FF
FD
FF
FF
FE
FF
01
02
02
02
01
00
02
02
01
00
FF
FF
00
FE
FE
01
04
05
05
04
FF
FE
01
02
01
00
00
FF
00
FF
01
04
07
09
09
05
FE
FC
FE
02
03
01
FF
FF
00
01
05
09
0D
0E
0C
06
00
FD
FF
02
00
FE
FD
FE
00
03
0A
10
13
12
0C
08
02
02
02
FF
FC
FA
FB
FD
00
05
0E
15
18
16
0E
09
04
FE
FD
FB
F8
F7
F9
FC
00
04
0D
15
1B
1B
11
0B
04
F9
F7
F4
F3
F2
F6
FC
00
01
08
10
16
18
10
08
FF
F6
F4
F3
EF
F0
F6
FD
00
FF
02
06
0A
0D
09
FE
F7
F3
F4
F7
F7
F7
FC
FF
01
FF
00
00
01
02
00
F8
F3
F3
F8
FE
02
00
FF
00
01
FF
00
FF
FF
FF
FC
F7
F3
F4
F8
FE
02
01
00
FD
00
FD
FF
FE
FF
FE
FC
F7
F2
F5
F9
FD
00
00
FF
FD
FE
FF
FF
FF
FE
FD
FB
F7
F4
F3
F9
FD
FF
FF
FF
FB
FF
FE
FF
FF
FE
FD
FA
F9
F7
F6
F8
FD
FF
FF
FF
FC
FE
FF
FF
FF
FE
FD
FC
FD
FC
FB
FB
FE
FF
FE
FF
FB
FE
FF
00
FF
FF
FE
FE
FF
FF
FE
FF
00
FF
FF
FF
FD
FF
FF
FE
00
00
02
02
03
00
00
01
01
00
FF
FF
FF
00
FF
FF
01
04
05
05
03
00
FF
02
02
00
FE
FF
FF
00
FF
00
05
08
0A
0A
05
00
00
01
01
FE
FC
FD
FE
00
01
05
0A
0C
0F
0F
06
01
00
FF
FD
FA
F8
FA
FE
00
03
0B
11
12
12
10
07
03
00
FD
F8
F6
F6
F8
FD
00
05
0E
17
18
15
12
09
04
FB
F6
F5
F3
F4
F7
FD
00
03
0C
16
1D
1A
13
0C
04
F6
F2
F1
F0
F0
F6
FC
00
01
07
0F
16
18
12
09
FE
F5
F3
F2
EF
EF
F5
FE
00
FF
02
05
09
0C
08
FF
F8
F4
F5
F7
F7
F6
FB
FE
00
FF
FF
00
01
01
FF
F9
F4
F4
F8
FE
01
00
FF
00
01
FF
FF
FF
FF
FF
FC
F7
F4
F5
F8
FE
02
01
00
FD
00
FE
FF
FF
FF
FE
FC
F8
F3
F6
F9
FE
00
00
FF
FD
FE
FE
FF
FF
FE
FE
FB
F7
F5
F5
FA
FD
FF
FF
FF
FB
FF
FF
FF
FE
FE
FC
FB
F9
F7
F7
F9
FD
FF
FF
FF
FC
FE
FF
FF
FF
FE
FD
FC
FD
FC
FB
FB
FE
FF
FE
FF
FC
FE
FF
FF
FF
FF
FE
FE
FF
FF
FE
FF
FF
FF
FF
FF
FD
FF
FF
FE
00
01
01
02
02
00
FF
FF
FF
FF
FF
FF
FF
00
FF
FF
01
04
04
05
04
00
00
00
FE
FD
FE
FE
FF
00
FF
01
05
09
09
09
06
02
FF
FD
FB
FA
FB
FD
FE
00
01
04
0B
10
0F
0C
09
04
FD
FA
F8
F7
F7
FA
FE
00
02
0A
11
16
15
0E
0A
02
FA
F7
F5
F4
F5
F8
FD
00
04
0D
14
18
19
12
0B
01
F6
F2
F3
F1
F3
F7
FC
00
03
0C
15
1A
1B
13
0E
02
F4
F1
EF
EF
F0
F6
FC
00
01
05
0E
15
18
11
0A
FE
F4
F3
F2
F0
F0
F6
FE
00
FF
02
04
08
0B
09
FF
F9
F4
F6
F8
F8
F6
FB
FE
00
FF
FF
00
01
02
FF
F9
F5
F5
F9
FE
00
FF
FF
00
00
FF
FF
FF
FF
FF
FC
F8
F5
F6
F9
FF
02
01
FF
FE
00
FD
FF
FF
FF
FE
FC
F8
F4
F6
FA
FE
00
00
FF
FE
FE
FF
FF
FF
FE
FE
FB
F8
F5
F5
FA
FD
FF
FF
FF
FC
FF
FF
FF
FF
FE
FD
FA
F9
F8
F7
F9
FE
FF
FF
FF
FC
FE
FF
FF
FF
FE
FD
FC
FD
FD
FB
FC
FE
FF
FE
FF
FC
FE
FF
FF
FF
FF
FE
FE
FF
FF
FE
FF
FF
FF
FF
FF
FE
FF
FF
FE
00
01
02
02
01
FE
FC
FE
FE
FE
FF
FF
FF
00
FF
FF
01
05
06
05
03
FF
FC
FC
FC
FC
FD
FF
FF
00
FF
00
05
09
0B
0A
06
FE
FA
F8
F9
F8
FB
FD
FF
00
01
04
0A
0F
10
0F
08
FD
F8
F6
F6
F6
F7
FB
FF
00
02
09
10
14
15
12
08
FB
F7
F6
F4
F3
F5
F9
FD
00
03
0C
14
18
18
16
0A
FC
F6
F4
F3
F1
F4
F8
FD
00
03
0A
13
19
19
16
0F
00
F5
F3
F2
F1
F2
F7
FD
00
01
05
0D
14
16
11
0B
FF
F6
F4
F3
F1
F1
F7
FE
00
FF
02
04
08
0B
08
00
FA
F5
F7
F8
F8
F7
FC
FF
00
FF
FF
00
01
01
FF
F9
F7
F5
F9
FE
00
00
FF
00
00
FF
FF
FF
FF
FF
FC
F8
F6
F7
FA
FF
01
00
FF
FE
00
FD
FF
FF
FF
FE
FC
F8
F5
F7
FB
FE
00
00
FF
FD
FD
FF
FF
FF
FE
FD
FB
F8
F5
F5
FA
FD
FF
FF
FF
FC
FF
FE
FF
FF
FE
FD
FB
FA
F9
F7
F9
FD
FF
FF
FF
FD
FE
FF
FF
FF
FE
FD
FC
FD
FD
FC
FC
FE
FF
FE
FF
FC
FE
FF
FF
FF
FF
FE
FE
FF
FF
FE
FF
FF
FF
FF
FF
FD
FF
FF
FE
00
01
01
02
00
FD
FC
FC
FD
FF
FE
FF
FF
00
FF
FF
01
04
06
06
02
FC
F9
FA
FB
FC
FD
FF
FF
00
FF
00
04
09
0C
0B
02
FB
F8
F8
F8
F9
FB
FE
FF
00
00
03
09
0E
11
0E
03
F9
F6
F6
F7
F7
F8
FB
FF
00
01
08
0E
12
16
10
02
F9
F6
F6
F5
F5
F7
FA
FE
00
03
0C
12
15
18
14
04
F9
F6
F5
F4
F3
F5
F9
FD
00
02
0A
12
16
19
16
0D
FF
F7
F5
F4
F2
F3
F7
FD
00
01
05
0D
13
15
11
0B
00
F8
F6
F5
F2
F2
F8
FE
00
FF
01
03
08
0B
08
01
FC
F9
F8
F9
F8
F8
FC
FF
00
FF
00
00
00
01
FF
FB
F8
F7
FB
FE
00
FF
FF
00
00
FF
FF
FF
FF
FF
FD
F8
F7
F8
FA
FE
01
00
FF
FE
FF
FD
FF
FF
FF
FE
FC
F9
F5
F8
FB
FE
00
00
00
FE
FD
FF
FF
FF
FE
FE
FB
F8
F6
F6
FB
FE
FF
FF
FF
FC
FF
FF
FF
FF
FE
FD
FB
FA
F9
F8
FA
FE
FF
FF
FF
FD
FD
FF
FF
FF
FE
FE
FC
FD
FD
FC
FC
FE
FF
FF
FF
FD
FE
00
FF
FF
FF
FE
FE
FF
FF
FF
FE
FF
FF
FF
FF
FE
FF
FF
FE
FF
00
00
00
FF
FD
FD
FE
FE
FF
FF
FF
FF
00
FF
FE
00
03
03
02
FF
FC
FB
FC
FC
FC
FD
FF
FF
00
00
00
03
07
07
04
00
FB
FA
FA
FA
FA
FC
FD
FF
00
00
03
09
0D
0C
07
FF
FA
F8
F9
F8
F8
F9
FC
FF
00
01
07
0E
12
11
09
FF
F9
F8
F8
F7
F7
F8
FB
FE
00
03
0A
10
14
14
0C
00
FA
F8
F6
F6
F5
F7
FA
FE
00
02
09
10
15
16
11
08
FF
F9
F6
F4
F4
F5
F8
FD
00
01
05
0C
11
14
10
0A
00
FA
F8
F6
F3
F3
F8
FE
00
FF
01
03
07
0A
09
02
FD
FB
FA
FA
F9
F9
FC
FF
00
FF
FF
FF
01
01
00
FC
FA
FB
FC
FE
FF
FF
FF
00
00
FF
FF
FF
FF
FF
FC
FA
F9
FA
FC
FF
01
00
00
FE
FF
FD
FF
FF
FF
FE
FC
F9
F7
F9
FC
FF
00
00
00
FE
FD
FF
FF
FF
FE
FD
FB
F9
F6
F6
FB
FE
00
FF
FF
FC
FF
FF
FF
FF
FF
FD
FB
FA
F9
F8
FA
FE
FF
FF
FF
FD
FD
FF
FF
FF
FE
FD
FC
FD
FD
FB
FB
FE
FF
FF
FF
FD
FD
FF
FF
FF
FF
FE
FE
FF
FF
FE
FE
FF
FF
FF
FF
FE
FF
FF
FF
00
00
FF
FF
FF
FE
FE
FE
FF
FF
FF
FF
FF
00
FF
FF
00
01
01
FF
FE
FD
FD
FE
FF
FE
FE
FF
FF
00
FF
00
02
03
02
01
FE
FD
FD
FE
FD
FD
FD
FE
FF
00
00
03
06
07
05
01
FE
FD
FB
FC
FB
FB
FB
FD
FF
00
01
07
0C
0C
08
01
FE
FC
FB
FA
F9
F9
F9
FC
FF
00
02
09
10
11
0C
04
FE
FC
FA
F9
F8
F7
F9
FB
FF
00
02
07
0F
13
11
0A
04
FF
FB
F9
F7
F6
F6
F9
FE
00
01
03
0A
10
11
0D
07
00
FB
FA
F8
F5
F6
F9
FF
00
FF
01
03
06
09
08
02
FE
FB
FB
FB
FA
F9
FD
FF
00
FF
FF
00
01
01
00
FD
FC
FC
FD
FE
FF
FF
FF
00
00
FF
FF
FF
FF
FF
FD
FC
FB
FD
FD
FF
00
00
00
FE
FF
FD
FF
FF
FF
FF
FD
FB
FA
FC
FD
FF
00
00
FF
FE
FC
FF
FF
FF
FE
FE
FC
F9
F8
F8
FC
FF
FF
FF
FF
FD
FF
FF
FF
FF
FF
FD
FB
FA
F9
F8
FB
FE
FF
FF
FF
FD
FD
FF
FF
FF
FF
FE
FC
FD
FD
FC
FC
FE
FF
FF
FF
FD
FD
FF
00
FF
FF
FF
FE
FF
FF
FE
FF
FF
FF
FF
FF
FE
FF
FF
FF
FF
00
FF
FF
FF
FE
FD
FE
FF
FF
FF
FF
FF
00
FF
FE
FF
00
00
FF
FF
FE
FD
FE
FF
FE
FF
FF
FF
FF
00
FF
00
00
00
00
FF
FD
FD
FF
FF
FF
FF
FF
FF
00
00
01
02
02
00
00
FE
FD
FD
FE
FF
FE
FD
FE
FF
00
00
04
06
05
02
FF
FE
FD
FD
FD
FC
FC
FB
FD
FF
00
02
08
0B
09
04
00
FE
FD
FB
FB
FA
F9
FA
FD
FF
00
01
07
0D
0E
09
03
01
FE
FC
FA
F9
F9
F9
FB
FF
00
00
03
09
0D
0C
08
04
FF
FC
FB
FA
F8
F8
FA
FE
00
FF
01
02
06
08
07
02
FE
FC
FC
FC
FC
FB
FD
FF
00
00
FF
00
00
01
01
FE
FC
FD
FE
FE
FF
FF
FF
FF
00
FF
00
FF
FF
FF
FD
FC
FC
FD
FE
FF
00
00
00
FD
FF
FD
FF
FF
FF
FF
FE
FC
FB
FD
FE
FF
00
00
FF
FE
FD
FF
FF
FF
FE
FE
FC
FA
FA
FA
FD
FE
00
FF
FF
FD
FF
FF
FF
FF
FF
FE
FC
FB
FA
FA
FB
FE
FF
FF
FF
FD
FD
FF
FF
FF
FF
FE
FD
FD
FD
FC
FC
FE
FF
FF
FF
FE
FD
FF
00
00
FF
FE
FE
FF
FF
FF
FE
FF
FF
FF
FF
FE
FF
00
FF
FF
FF
FF
FF
FF
FE
FD
FE
FF
FF
FF
FF
FF
00
FF
FF
FF
00
FF
FF
FF
FE
FD
FE
FF
FF
FF
FF
FF
00
FF
FF
FF
00
00
FF
FE
FE
FD
FF
FF
FF
FF
FF
FF
FF
FF
00
00
00
FF
FF
FE
FD
FD
FF
00
FF
FF
FF
FF
00
FF
01
02
01
00
FF
FE
FE
FE
FF
FF
FF
FE
FE
FF
00
00
03
05
02
00
FF
FE
FD
FD
FD
FE
FD
FD
FE
FF
00
00
04
06
07
02
00
FF
FE
FD
FC
FC
FC
FB
FD
FF
00
00
02
05
07
06
03
01
FE
FD
FD
FC
FC
FC
FD
FF
00
FF
00
01
04
04
04
00
FE
FC
FD
FE
FD
FD
FE
FF
00
FF
FF
00
00
00
00
FF
FD
FD
FD
FE
FF
FF
FF
FF
00
FF
FF
FF
FF
FF
FE
FD
FC
FD
FE
FF
FF
00
00
FE
FF
FD
FF
FF
FF
FF
FE
FD
FC
FD
FE
FF
00
00
FF
FE
FC
FF
FF
FF
FE
FF
FD
FC
FC
FB
FD
FF
FF
FF
00
FE
FF
FF
FF
FF
FF
FE
FD
FC
FC
FB
FC
FF
FF
FF
FF
FE
FD
FF
FF
FF
FF
FE
FD
FE
FE
FD
FD
FE
FF
FF
FF
FE
FD
00
00
00
FF
FF
FE
FF
FF
FF
FF
FF
FF
FF
FF
FF
FE
