00
00
00
00
00
01
01
00
00
00
00
00
01
00
00
08
1A
00
02
01
01
01
00
00
00
00
01
00
00
00
00
00
00
00
00
00
00
00
00
00
00
00
00
00
00
00
01
59
00
00
00
00
00
00
00
00
00
00
00
01
01
00
00
3F
00
00
00
00
00
00
00
00
00
00
00
00
01
01
01
00
00
00
00
00
00
00
00
00
00
00
01
01
01
02
02
00
00
00
00
00
00
00
00
00
02
01
01
01
01
02
00
00
00
00
00
00
00
00
00
00
00
01
01
01
01
01
01
42
15
00
00
00
00
00
00
00
00
00
01
01
02
05
04
43
87
04
00
14
00
00
00
00
00
00
00
04
01
08
78
36
3F
00
03
19
2E
0C
00
00
00
00
00
05
19
26
02
33
00
00
00
00
3D
0A
00
00
00
00
00
32
00
11
5F
03
00
08
72
00
00
00
00
00
00
00
02
1C
00
3C
33
3A
10
00
38
1D
00
00
00
00
00
00
00
05
01
17
13
03
00
0F
00
07
00
00
00
00
00
00
06
00
00
00
00
08
05
04
1B
00
00
00
02
0C
0F
24
04
03
00
00
28
01
00
00
07
00
00
01
01
00
00
00
00
00
00
04
02
00
15
01
02
00
01
01
00
00
00
00
00
00
00
00
02
01
00
00
00
01
01
00
00
00
00
00
00
00
00
00
01
30
00
00
00
00
00
00
00
00
00
00
00
01
01
00
00
1E
00
00
00
00
00
00
00
00
00
00
00
00
00
01
01
00
00
00
00
00
00
00
00
00
00
00
00
00
00
01
01
00
00
00
00
00
00
00
00
00
01
00
00
00
00
01
00
00
00
00
00
00
00
00
00
00
00
00
00
00
00
00
00
38
0D
02
00
00
00
00
00
00
00
00
00
00
01
02
08
27
45
09
00
0A
01
00
00
00
00
00
00
02
00
04
39
32
2E
03
05
13
1F
08
00
00
00
00
00
03
13
10
05
27
03
00
03
0F
1C
03
00
00
00
00
00
1B
05
14
2B
03
00
0A
2E
00
00
00
00
00
00
00
01
14
00
19
1A
25
0D
01
19
14
00
00
00
00
00
00
00
02
01
09
12
04
00
0F
00
07
00
00
00
00
00
00
06
02
00
00
00
06
06
05
0A
00
00
02
02
09
0E
16
05
10
00
00
18
04
0C
00
03
00
00
01
01
00
00
00
00
00
00
04
02
00
14
04
01
00
01
01
00
00
00
00
00
00
00
01
03
04
04
00
00
01
00
00
00
00
00
00
00
00
00
00
01
26
00
00
00
00
00
00
00
00
00
00
00
01
01
00
00
1B
00
00
00
00
00
00
00
00
00
00
00
00
00
01
00
00
00
00
00
00
00
00
00
00
00
00
00
00
00
01
01
03
00
00
00
00
00
00
00
00
01
00
00
00
00
00
00
00
00
00
00
00
00
00
00
00
00
00
00
00
00
00
00
26
09
09
00
00
00
00
00
00
00
00
00
00
00
01
0E
22
38
07
00
08
01
00
00
00
00
00
00
01
03
2D
27
3C
28
06
03
0C
18
06
00
00
00
00
00
02
0E
0A
07
1F
02
04
09
0A
11
02
00
00
00
00
00
16
01
12
1C
03
04
09
23
01
00
00
00
00
00
00
01
11
02
0E
10
23
0B
06
11
0F
00
00
00
00
00
00
00
01
00
04
10
03
05
0A
00
04
00
00
00
00
00
00
06
01
00
00
08
05
08
04
06
05
00
02
01
0C
0A
0E
03
0E
00
00
10
03
0C
00
02
00
00
01
01
00
00
00
00
00
00
03
03
00
11
04
01
00
01
01
00
00
00
00
00
00
00
00
01
05
07
00
00
00
00
00
00
00
00
00
00
00
00
00
01
21
00
00
00
00
00
00
00
00
00
00
00
00
01
00
01
20
00
00
00
00
00
00
00
00
00
00
00
00
00
01
01
07
00
00
00
00
00
00
00
00
00
00
00
01
01
01
01
08
00
00
00
00
00
00
00
00
01
00
00
00
00
00
00
00
00
00
00
00
00
00
00
00
00
00
00
00
00
00
02
23
08
0E
00
00
00
00
00
00
00
00
00
00
01
01
0C
1A
38
03
01
09
01
00
00
00
00
00
00
01
02
2D
1E
33
25
05
03
0C
14
05
00
00
00
00
00
02
0D
08
08
1B
03
06
0B
04
11
01
00
00
00
00
00
16
00
11
19
03
05
0B
1E
02
00
00
00
00
00
00
01
10
01
0C
0C
3A
0A
08
0F
10
00
00
00
00
00
00
00
01
00
04
0F
03
05
09
00
03
00
00
00
00
00
00
06
01
00
00
0A
04
08
02
03
06
00
02
01
0C
07
0D
09
0D
00
00
12
03
0A
00
01
00
00
01
01
00
00
00
00
00
00
03
03
00
0F
03
01
00
01
00
00
00
00
00
00
00
00
00
04
05
08
00
00
00
00
00
00
00
00
00
00
00
00
00
00
1E
00
00
00
00
00
00
00
00
00
00
00
01
01
00
01
1D
00
00
00
00
00
00
00
00
00
00
00
00
00
01
01
0A
00
00
00
00
00
00
00
00
00
00
00
01
01
01
01
07
00
00
00
00
00
00
00
00
01
00
01
00
00
01
01
00
00
00
00
00
00
00
00
00
00
00
01
00
00
00
02
32
08
0B
00
00
00
00
00
00
00
00
01
01
01
01
0A
19
35
02
00
0C
01
00
00
00
00
00
00
01
02
2D
1B
2B
20
06
02
0C
13
07
00
00
00
00
00
02
0C
07
07
17
02
0B
10
05
11
01
00
00
00
00
00
15
00
0D
14
03
07
0B
19
02
00
00
00
00
00
00
01
0E
02
0C
0B
38
08
0A
0C
0F
00
00
00
00
00
00
00
01
00
04
0D
03
06
08
00
02
00
00
00
00
00
00
05
01
00
01
06
04
07
03
05
07
00
01
01
0A
07
0D
08
0B
00
00
11
03
09
00
02
00
00
00
01
00
00
00
00
00
02
04
02
01
12
03
01
00
00
00
00
00
00
00
00
00
00
00
02
03
06
00
00
00
00
00
00
00
00
00
00
00
00
00
00
1E
00
00
00
00
00
00
00
00
00
00
00
01
00
00
00
16
00
00
00
00
00
00
00
00
00
00
00
00
00
01
01
07
00
00
00
00
00
00
00
00
00
00
00
01
01
01
01
06
00
00
00
00
00
00
00
00
01
00
00
00
00
01
01
00
00
00
00
00
00
00
00
00
00
00
01
00
00
00
03
2C
07
0B
00
00
00
00
00
00
00
00
00
01
01
01
0B
14
31
04
00
09
01
00
00
00
00
00
00
01
02
26
19
2A
1A
05
03
0A
12
07
00
00
00
00
00
02
0B
09
06
17
02
0E
0E
05
13
01
00
00
00
00
00
0F
00
0D
14
03
06
09
1C
02
00
00
00
00
00
00
01
0B
01
09
0A
2E
0A
09
0D
0F
00
00
00
00
00
00
00
01
00
06
0D
03
04
06
00
02
00
00
00
00
00
00
06
01
00
00
0A
03
06
04
06
07
00
01
01
08
06
0D
03
0C
00
00
10
03
05
00
03
00
00
00
00
00
00
00
01
00
02
03
02
02
0E
03
01
00
00
00
00
00
00
00
00
00
00
01
01
05
05
00
00
00
00
00
00
00
00
00
00
00
00
00
00
18
00
00
00
00
00
00
00
00
00
00
00
01
01
00
01
16
00
00
00
00
00
00
00
00
00
00
00
00
01
01
01
08
00
00
00
00
00
00
00
00
00
00
00
01
01
01
01
06
00
00
00
00
00
00
00
00
01
01
01
00
01
01
01
00
00
00
00
00
00
00
00
00
00
01
01
00
00
00
02
2E
06
08
00
00
00
00
00
00
00
00
00
01
01
01
08
11
2B
04
00
0A
01
00
00
00
00
00
00
00
02
22
14
28
16
04
03
0A
12
07
00
00
00
00
00
01
07
07
05
14
02
0C
0E
07
15
01
00
00
00
00
00
0D
00
0C
11
02
05
07
1B
03
00
00
00
00
00
00
01
0A
00
0A
0A
2E
0A
06
09
0D
00
00
00
00
00
00
00
01
00
05
0C
03
03
06
00
03
00
00
00
00
00
00
04
00
00
00
06
03
07
03
05
07
00
01
01
08
05
0C
05
0C
00
00
11
03
04
00
02
00
00
00
01
00
00
00
00
00
04
03
02
01
0F
03
01
00
00
00
00
00
00
00
00
01
00
01
02
03
05
00
00
00
00
00
00
00
00
00
00
00
00
00
00
1A
00
00
00
00
00
00
00
00
00
00
00
01
01
00
00
11
00
00
00
00
00
00
00
00
00
00
00
00
01
01
01
08
00
00
00
00
00
00
00
00
00
00
00
01
01
01
01
05
00
00
00
00
00
00
00
00
01
01
01
00
01
01
01
00
00
00
00
00
00
00
00
00
00
01
01
00
00
00
02
2B
06
09
00
00
00
00
00
00
00
00
00
01
01
01
08
12
28
05
01
0C
01
00
00
00
00
00
00
00
02
1D
19
24
0F
05
03
08
0D
06
00
00
00
00
00
00
06
09
05
12
02
05
0E
04
15
02
00
00
00
00
00
0A
00
0C
14
02
08
06
1A
03
00
00
00
00
00
00
01
09
01
0C
08
2E
09
05
0B
0E
00
00
00
00
00
00
00
01
00
05
0B
03
04
06
00
03
00
00
00
00
00
00
04
01
00
00
05
03
06
03
03
06
00
01
01
09
06
0B
03
09
00
00
10
03
02
00
03
00
00
01
01
00
00
00
01
05
08
04
03
01
0C
03
01
00
00
00
00
00
00
00
01
01
01
01
02
03
06
00
00
00
00
00
00
00
00
00
00
00
01
00
00
14
00
00
00
00
00
00
00
00
00
00
00
01
01
00
00
13
00
00
00
00
00
00
00
00
00
00
00
00
01
01
01
08
00
00
00
00
00
00
00
00
00
00
01
01
01
01
01
04
00
00
00
00
00
00
00
00
01
01
01
00
01
01
01
00
00
00
00
00
00
00
00
00
00
01
01
00
00
00
02
25
06
07
00
00
00
00
00
00
00
00
01
01
01
01
09
09
29
07
00
07
01
00
00
00
00
00
00
00
02
20
14
21
14
04
04
08
0B
06
00
00
00
00
00
00
06
08
05
12
02
01
0E
04
11
01
00
00
00
00
00
09
01
0C
12
02
0A
04
1B
02
00
00
00
00
00
00
01
09
02
0C
08
20
09
04
08
0C
00
00
00
00
00
00
00
01
00
05
08
03
04
07
00
04
00
00
00
00
00
00
04
01
00
00
07
03
05
04
05
06
00
01
01
09
07
0A
05
08
00
00
12
02
05
00
02
00
00
00
01
00
00
00
01
04
06
04
03
01
0D
03
01
00
00
00
00
00
00
00
01
01
02
08
05
03
05
00
00
00
00
00
00
00
00
00
00
00
01
01
04
12
00
00
00
00
00
00
00
00
00
00
00
01
01
01
00
14
00
00
00
00
00
00
00
00
00
00
00
00
01
01
01
0B
00
00
00
00
00
00
00
00
01
00
01
01
01
01
01
03
00
00
00
00
00
00
00
00
01
01
01
00
01
01
01
00
00
00
00
00
00
00
00
00
00
01
01
00
00
00
02
27
06
07
00
00
00
00
00
00
00
00
01
01
01
01
0A
0B
25
07
01
0E
01
00
00
00
00
00
00
00
03
1B
16
1D
12
05
04
07
0D
07
00
00
00
00
00
00
09
13
04
13
02
07
0E
04
0C
02
00
00
00
00
00
08
00
07
0F
02
08
07
1A
02
00
00
00
00
00
00
01
08
01
0B
07
18
07
04
08
0B
00
00
00
00
00
00
00
01
00
06
06
03
04
07
00
04
00
00
00
00
00
00
03
01
00
00
09
03
03
04
02
06
00
01
01
08
06
0A
06
0C
00
00
0F
03
08
00
02
00
00
00
00
00
00
00
01
04
07
03
01
03
0D
03
01
00
00
00
00
00
00
00
01
01
01
13
02
04
05
00
00
00
00
00
00
00
00
00
00
00
01
01
06
0F
00
00
00
00
00
00
00
00
00
00
00
01
01
01
04
17
00
00
00
00
00
00
00
00
00
00
00
00
01
01
00
0B
00
00
00
00
00
00
00
00
01
00
01
01
01
01
01
0A
00
00
00
00
00
00
00
00
01
01
01
00
01
01
00
00
00
00
00
00
00
00
00
00
00
01
01
00
00
00
02
28
05
05
00
00
00
00
00
00
00
00
01
01
01
01
08
0A
1E
03
01
0D
01
00
00
00
00
00
00
00
03
20
14
31
0E
02
05
08
0E
07
00
00
00
00
00
00
0B
13
04
12
02
0B
0A
03
0F
01
00
00
00
00
00
07
00
09
0D
02
0C
05
1A
03
00
00
00
00
00
00
01
05
00
0B
07
1F
07
05
09
0B
00
00
00
00
00
00
00
01
00
05
07
02
02
06
00
04
00
00
00
00
00
00
03
02
00
00
08
03
03
05
08
04
00
01
00
05
09
09
0A
06
01
00
0C
02
07
00
02
00
00
00
00
00
00
00
01
06
07
03
04
03
0D
03
01
00
00
00
00
00
00
00
01
01
02
13
01
05
04
00
00
00
00
00
00
00
00
00
00
00
01
01
06
0E
00
00
00
00
00
00
00
00
00
00
00
01
00
01
04
15
00
00
00
00
00
00
00
00
00
00
00
00
01
01
02
0B
00
00
00
00
00
00
00
00
01
00
00
01
01
01
01
0C
00
00
00
00
00
00
00
00
01
01
01
00
00
01
01
00
00
00
00
00
00
00
00
00
00
01
01
00
00
00
02
24
05
04
00
00
00
00
00
00
00
00
01
01
01
02
09
11
1D
06
01
10
01
00
00
00
00
00
00
01
03
23
11
29
0A
03
05
07
0E
06
00
00
00
00
00
00
0A
12
03
0D
02
07
06
03
11
02
00
00
00
00
01
06
00
09
0C
02
0D
06
1A
02
00
00
00
00
00
00
01
06
00
0C
07
1E
07
03
07
0A
00
00
00
00
00
00
00
01
01
06
08
02
03
06
01
04
00
00
00
00
00
00
05
01
00
01
05
03
03
04
0A
03
00
01
01
06
08
09
0B
08
01
00
0A
03
09
00
02
00
00
00
04
00
00
00
02
06
08
04
02
05
0F
03
02
00
00
00
00
00
00
00
01
01
02
14
01
03
07
00
00
00
00
00
00
00
00
00
00
00
01
01
06
0E
00
00
00
00
00
00
00
00
00
00
01
01
00
01
04
11
00
00
00
00
00
00
00
00
00
00
00
00
01
01
02
08
00
00
00
00
00
00
00
00
00
00
00
01
01
01
02
0F
00
00
00
00
00
00
00
00
01
01
01
00
00
01
01
00
00
00
00
00
00
00
00
00
00
01
01
00
00
00
02
1E
05
04
00
00
00
00
00
00
00
00
01
01
01
03
08
10
19
04
05
09
01
00
00
00
00
00
00
01
03
22
11
1C
0D
04
05
06
0C
06
00
00
00
00
00
01
0C
0C
04
0D
02
08
09
04
0D
02
00
00
00
00
01
06
04
07
09
02
0D
06
1D
04
00
00
00
00
00
00
00
06
01
0C
08
19
07
04
05
0A
00
00
00
00
00
00
00
03
01
07
09
03
04
06
02
04
00
00
00
00
00
00
05
06
01
01
08
02
02
05
0B
03
00
01
01
06
09
08
0B
08
01
00
0A
02
04
00
02
01
01
0B
05
00
00
00
05
06
08
04
01
04
0C
03
03
00
00
02
01
00
00
00
05
03
02
0B
02
04
09
00
00
00
00
06
00
00
00
00
02
01
00
01
05
0D
03
00
00
00
00
01
00
00
00
00
00
00
00
01
05
0E
00
00
00
00
00
01
00
00
00
00
00
00
01
01
01
08
00
00
00
00
00
00
00
00
00
00
01
00
01
01
02
08
00
00
00
00
00
00
00
00
01
01
00
00
00
01
01
00
00
00
00
00
00
00
00
00
00
01
00
00
00
00
02
18
05
05
00
00
00
00
00
00
00
00
01
01
01
02
05
0D
17
06
02
0D
00
00
00
00
00
00
00
01
05
18
1D
17
08
05
05
05
0A
07
00
00
00
00
00
01
0A
13
04
0B
01
06
05
01
0F
01
00
00
00
00
01
06
04
09
0A
02
07
06
19
04
00
00
00
00
00
00
00
05
03
0B
0D
14
06
03
05
09
00
00
00
00
00
00
00
09
06
09
07
02
05
05
01
03
00
00
00
00
00
00
05
04
02
01
05
02
02
03
06
03
00
01
01
07
09
07
0B
07
02
02
07
03
05
01
01
02
03
0B
03
00
00
00
04
03
08
03
02
03
09
03
04
00
07
03
00
00
00
00
04
06
04
0C
01
03
03
00
00
00
03
03
00
00
00
00
01
09
03
0A
03
0A
02
00
00
00
00
03
00
00
00
00
00
05
01
01
0B
06
01
00
00
00
00
02
00
00
00
00
01
01
00
01
02
04
00
00
00
00
00
01
00
00
00
00
00
00
01
01
02
04
00
00
00
00
00
00
00
00
01
00
01
01
01
01
01
01
00
00
00
00
00
00
00
00
00
01
00
00
00
00
02
0E
04
04
00
00
00
00
00
00
00
00
01
01
00
02
05
0A
10
03
02
0C
00
00
00
00
00
00
00
03
03
0E
16
0E
07
04
06
02
05
04
00
00
00
00
00
02
08
15
02
06
01
04
05
03
0D
02
00
00
00
00
00
05
01
05
06
01
04
04
12
01
00
00
00
00
00
00
00
03
01
07
06
0A
04
02
08
09
01
00
00
00
00
00
00
05
03
07
04
02
02
05
02
04
00
00
00
00
00
00
04
02
01
02
02
02
02
03
08
04
00
01
00
05
04
05
04
0D
02
02
08
02
00
2E
00
01
00
00
00
00
00
4C
2D
00
2C
0A
00
00
00
00
0D
00
00
0D
22
24
1E
00
00
02
00
00
00
00
00
00
00
00
2A
00
2B
0B
47
00
00
00
26
00
54
00
00
00
09
32
0E
19
18
00
00
00
5E
00
00
24
00
00
48
0A
18
00
00
2E
48
12
00
00
00
07
00
00
08
00
94
13
00
00
0B
01
2B
22
00
47
00
65
18
02
00
45
32
61
00
0F
00
00
4D
32
00
5C
00
41
00
3D
00
00
48
06
53
00
15
30
00
00
00
3B
00
0B
00
44
00
00
00
09
3F
00
10
00
00
00
0C
00
19
0A
00
4E
0E
14
00
00
00
39
00
1C
00
00
00
00
21
00
00
12
06
00
06
44
00
00
00
00
00
37
15
28
68
37
00
00
28
63
19
00
43
4B
5D
0A
00
06
00
1A
00
00
06
5F
18
17
00
09
2D
1C
00
18
00
00
27
0C
00
1B
00
19
00
2A
00
00
13
2A
00
03
00
11
67
19
00
02
01
00
00
30
1B
46
00
2A
00
0F
1E
15
00
32
00
2A
2C
00
2E
00
09
1B
00
00
00
31
00
3C
00
1C
00
13
00
57
50
00
