0F
00
06
03
01
00
00
00
00
00
01
00
00
09
0B
03
0B
0B
04
01
00
00
00
00
00
00
00
00
00
00
05
13
0C
03
01
01
00
00
00
00
00
00
00
00
00
00
01
3A
0A
02
01
00
00
00
00
00
00
00
00
00
00
00
00
2A
02
02
01
01
01
00
00
00
00
00
00
00
00
00
00
00
01
01
01
01
01
01
00
00
00
00
00
00
00
00
00
00
03
01
01
01
01
01
01
01
01
00
00
00
00
01
00
00
05
01
01
02
03
03
01
00
00
00
00
00
00
00
01
35
09
14
03
02
03
05
00
00
00
00
00
00
00
01
10
99
08
06
06
0C
01
02
00
00
00
00
00
0A
01
06
1D
57
14
0B
05
05
08
02
00
00
00
00
00
0A
09
0A
0D
2A
04
10
09
0D
06
01
00
00
00
00
00
06
1C
0A
2E
04
0E
06
08
06
02
00
00
00
00
00
00
03
0C
09
0B
25
0E
16
09
0E
01
00
00
00
00
00
00
00
01
0A
08
06
0B
07
01
03
00
00
00
00
00
00
0C
02
00
02
18
05
01
08
09
09
00
02
02
03
0A
10
1F
0C
01
01
0C
06
0D
02
08
03
01
00
00
00
00
00
01
00
00
08
0A
08
0B
09
03
01
00
00
00
00
00
00
00
00
00
01
06
0F
08
03
01
01
00
00
00
00
00
00
00
00
00
00
01
34
08
02
01
01
00
00
00
00
00
00
00
00
00
00
00
29
02
02
01
01
00
00
00
00
00
00
00
00
00
00
00
00
01
01
01
01
01
01
00
00
00
00
00
00
00
00
00
00
02
01
01
01
01
01
01
01
01
00
00
00
00
01
00
03
03
01
01
01
03
03
00
00
00
00
00
00
00
00
00
48
08
0D
02
02
02
04
00
00
00
00
01
00
00
01
0C
89
0D
04
07
0E
00
01
00
00
00
00
00
0A
01
06
1B
4B
11
0B
08
07
09
03
00
00
00
00
00
0A
0A
0B
0A
24
04
0F
09
0C
0A
01
00
00
00
00
00
07
1F
07
28
04
0F
07
09
06
01
00
00
00
00
00
00
03
09
0D
0E
1C
0D
11
09
0E
01
00
00
00
00
00
00
00
01
0B
08
05
09
07
01
04
00
00
00
00
00
00
0B
02
00
02
11
05
01
0B
08
08
01
02
02
06
0B
0F
29
0B
01
02
0C
06
0C
02
07
03
01
00
00
00
00
00
01
00
00
08
0A
09
0C
09
03
01
00
00
00
00
00
00
00
00
00
00
06
10
07
03
01
01
00
00
00
00
00
00
00
00
00
00
01
31
09
02
01
00
00
00
00
00
00
00
00
00
00
00
00
24
02
02
01
01
00
00
00
00
00
00
00
00
00
00
00
03
01
01
01
01
01
01
00
00
00
00
00
00
00
00
00
0D
02
01
01
01
01
01
01
01
01
01
00
00
00
01
00
1D
03
01
01
01
03
02
00
00
00
00
00
00
00
00
00
3E
09
0A
02
02
02
04
00
00
00
00
00
00
00
00
10
7D
0F
06
06
0E
00
01
00
00
00
00
00
09
05
3D
1D
40
0E
0B
08
06
08
03
00
00
00
00
00
09
09
0B
0A
21
04
0C
09
0E
0A
01
00
00
00
00
00
06
1F
07
25
04
11
07
0C
06
01
00
00
00
00
00
00
02
08
0F
10
18
0E
10
09
0F
01
00
00
00
00
00
00
01
01
0A
09
05
09
07
01
04
00
00
00
00
00
00
0A
02
00
02
10
05
02
0B
08
07
01
02
01
07
0B
0F
26
0C
01
02
0E
06
0C
02
08
03
01
00
00
00
00
00
01
00
00
08
09
09
0D
0A
03
01
01
00
00
00
00
00
00
00
00
00
07
0F
08
03
02
01
00
00
00
00
00
00
00
00
00
00
01
2E
0A
02
01
01
00
00
00
00
00
00
00
00
00
00
00
25
02
02
01
01
00
00
00
00
00
00
00
00
00
00
00
18
01
01
01
01
01
01
00
00
00
00
00
00
00
00
00
0C
02
01
01
01
01
01
01
00
01
00
00
00
00
00
00
1C
03
01
01
01
03
02
00
00
00
00
00
00
00
00
00
38
08
08
02
02
02
04
00
00
00
00
00
00
00
00
0D
75
11
06
07
10
00
01
00
00
00
00
00
0A
05
38
1E
42
0D
0B
09
06
09
04
00
00
00
00
00
0A
0A
0A
09
21
04
0E
0C
12
0C
01
00
00
00
00
00
05
1D
08
22
04
10
06
10
06
01
00
00
00
00
00
00
02
08
0E
0F
27
0D
0D
08
0D
01
00
00
00
00
00
00
01
01
07
08
05
08
06
01
04
00
00
00
00
00
00
0B
02
00
02
11
05
02
0D
08
08
01
02
02
08
0C
0E
20
0C
01
02
0A
06
0D
02
08
03
01
01
00
00
00
00
01
00
00
09
09
09
0C
0A
03
01
01
00
00
00
00
00
00
00
00
00
0A
0E
07
03
01
01
00
00
00
00
00
00
00
00
00
00
01
29
09
02
01
01
00
00
00
00
00
00
00
00
00
00
00
23
02
01
01
01
00
00
00
00
00
00
00
00
00
00
00
19
01
01
01
01
01
01
00
00
00
00
00
00
00
00
00
0B
02
01
01
01
01
01
01
00
01
00
00
00
00
00
00
17
03
01
01
01
03
02
00
00
00
00
00
00
00
00
00
33
08
09
02
01
02
04
00
00
00
00
00
00
00
00
0E
69
0E
06
07
0B
00
01
00
00
00
00
00
09
04
30
1E
40
0C
0A
08
06
0A
05
00
00
00
00
00
09
0A
0B
09
20
04
0C
11
10
0B
01
00
00
00
00
00
05
1D
09
1F
04
0E
06
0D
06
01
00
00
00
00
00
00
03
08
0D
0E
26
0D
0D
08
0D
01
00
00
00
00
00
00
01
01
07
09
05
08
07
01
04
00
00
00
00
00
00
0A
02
00
01
0D
05
02
0B
07
06
01
02
02
09
0C
0D
1E
0B
01
02
0A
07
0C
02
08
03
01
01
01
00
00
00
00
00
00
09
0B
0A
0A
0A
03
01
01
00
00
00
00
00
00
00
00
00
0B
0D
07
03
01
01
00
00
00
00
00
00
00
00
00
00
00
27
0C
02
01
01
00
00
00
00
00
00
00
00
00
00
00
21
02
02
01
01
00
00
00
00
00
00
00
00
00
00
00
0F
01
01
01
01
01
01
00
00
00
00
00
00
00
00
00
09
02
01
01
01
01
01
01
00
00
00
00
00
00
00
00
13
03
01
01
01
03
03
01
00
00
00
00
00
00
00
00
30
07
0B
02
02
02
04
00
00
00
00
00
00
00
00
0D
68
0D
07
07
0C
00
01
00
00
00
00
00
08
03
2C
17
30
0C
0A
07
06
07
05
00
00
00
00
00
09
0B
09
08
1C
04
08
11
0D
0C
01
00
00
00
00
00
05
1B
0A
1D
03
0C
07
11
05
01
00
00
00
00
00
00
02
09
0E
0D
23
0D
0D
09
0B
01
00
00
00
00
00
00
00
01
06
0A
05
08
06
01
04
00
00
00
00
00
00
09
02
00
02
0E
05
01
0A
06
06
01
02
01
09
0C
0C
20
08
01
02
0B
07
0B
02
07
03
01
01
01
00
00
00
00
00
01
08
09
07
0A
09
02
01
01
00
00
00
00
00
00
00
00
00
0C
0C
05
03
01
01
00
00
00
00
00
00
00
00
00
00
00
22
07
02
01
01
01
00
00
00
00
00
00
00
00
00
00
18
02
01
01
01
01
00
00
00
00
00
00
00
00
00
00
0D
01
01
01
01
01
01
00
00
00
00
00
00
00
00
00
08
02
01
01
01
01
01
01
00
00
00
00
00
00
00
00
12
03
01
01
01
03
03
01
00
00
00
00
00
00
00
00
2B
07
09
02
01
02
04
00
00
00
00
00
00
00
00
0C
5E
0D
07
05
09
01
01
00
00
00
00
00
08
04
2B
11
2D
14
0A
07
06
07
04
00
00
00
00
00
09
0B
07
08
19
04
09
0E
0D
09
01
00
00
00
00
00
06
1C
0B
19
03
0E
06
0F
04
01
00
00
00
00
00
00
02
07
0A
0D
1E
0C
0E
09
0C
01
00
00
00
00
00
00
01
01
05
08
04
07
06
01
03
00
00
00
01
00
00
08
02
00
02
10
04
01
0A
07
07
01
02
01
09
09
0A
1E
0A
01
02
09
07
0A
02
06
03
01
01
01
00
00
00
00
02
02
08
09
08
09
09
02
01
01
00
00
00
00
00
00
00
00
00
0B
0C
06
03
01
01
00
00
00
00
00
00
00
00
00
00
00
1D
07
02
01
01
00
00
00
00
00
00
00
00
00
00
00
1A
02
02
01
01
01
00
00
00
00
00
00
00
00
00
00
0E
01
01
01
01
01
01
00
00
00
00
00
00
00
00
00
08
02
01
01
01
01
01
01
00
00
00
00
00
00
00
00
12
03
01
01
01
03
03
01
00
00
00
00
00
00
00
00
32
07
09
02
02
02
04
00
00
00
00
00
00
00
00
09
57
09
04
05
0A
00
01
00
00
00
00
00
08
03
2C
0E
24
10
09
06
06
07
04
00
00
00
00
00
09
09
06
07
17
03
09
0E
0C
09
01
00
00
00
00
00
06
19
07
17
03
0F
06
12
05
01
00
00
00
00
00
00
03
07
09
0B
1C
0A
0F
07
09
01
00
00
00
00
00
00
01
01
06
0C
04
08
06
01
04
01
00
00
01
00
00
08
01
00
02
0D
04
01
09
09
05
00
02
01
08
0A
09
19
09
01
02
08
06
0A
01
05
03
01
01
00
00
00
00
01
03
04
07
08
06
08
09
02
01
01
00
00
00
00
00
00
00
00
00
08
0B
04
02
01
01
01
00
00
00
00
00
00
00
00
00
00
1A
09
02
01
01
01
00
00
00
00
00
00
00
00
00
00
12
02
01
01
01
01
00
00
00
00
00
00
00
00
00
00
0A
01
01
01
01
01
01
00
00
00
00
00
00
00
00
00
07
02
01
01
01
01
01
01
00
00
00
00
00
00
00
00
0B
03
01
01
02
03
03
01
00
00
00
00
00
00
00
00
2D
06
09
02
01
02
04
00
00
00
00
00
00
00
00
07
4B
09
03
04
0A
00
01
00
00
00
00
00
07
02
1D
0D
20
0F
08
05
05
08
04
00
00
00
00
00
08
09
04
07
13
03
09
0B
0C
0B
01
00
00
00
00
00
04
13
0A
12
03
0C
06
0E
05
01
00
00
00
00
00
00
02
07
08
0C
1D
0A
10
06
09
00
00
00
00
00
00
00
00
01
05
0C
04
07
06
02
05
00
00
00
00
00
00
08
01
00
02
0D
03
01
07
0C
04
00
01
01
08
0A
09
1A
08
01
01
06
06
09
01
05
03
01
02
00
00
00
00
00
03
04
07
08
06
07
07
02
02
01
01
00
00
00
00
00
00
00
05
08
0B
04
02
02
01
01
00
00
00
00
00
00
00
00
00
06
17
07
02
01
01
01
01
00
00
00
00
00
00
00
00
00
10
02
02
01
01
01
00
00
00
00
00
00
00
00
00
00
05
01
01
01
01
01
01
00
00
00
00
00
00
00
00
00
06
02
01
01
01
01
01
01
00
00
00
00
00
00
00
00
0C
03
01
01
02
03
03
01
00
00
00
00
00
00
00
00
25
06
0A
02
02
02
04
00
00
00
00
00
00
00
00
06
57
07
04
04
05
00
01
00
00
00
00
00
06
02
19
0B
1F
0F
07
04
04
06
03
00
00
00
00
00
07
07
08
06
11
03
05
0D
0C
09
01
00
00
00
00
00
04
15
0B
10
03
0A
05
0A
05
00
00
00
00
00
00
00
02
08
09
0A
14
0A
0D
05
08
00
00
00
00
00
00
00
00
01
05
0B
03
07
05
02
03
00
00
00
01
00
00
07
02
00
02
0B
03
01
06
0B
04
00
01
01
07
09
09
10
0A
01
01
06
06
05
01
06
05
02
02
01
00
00
00
00
02
04
06
09
04
08
08
01
02
01
01
01
00
00
00
00
00
00
03
0B
0A
04
03
02
01
01
01
00
00
00
00
00
00
00
00
06
15
09
02
02
01
01
00
00
00
00
00
00
00
00
00
03
0B
02
01
01
01
01
00
00
00
00
00
00
00
00
00
00
03
01
01
01
01
01
01
00
00
00
00
00
00
00
00
00
14
02
01
01
01
01
01
01
00
00
00
00
00
00
00
00
0A
03
01
01
01
03
03
01
00
00
00
00
00
00
00
00
28
05
09
02
01
02
04
00
00
00
00
00
00
00
00
06
47
08
07
03
07
00
01
00
00
00
00
00
05
02
17
0D
1F
0C
08
04
03
05
03
00
00
00
00
00
07
06
08
06
0D
03
05
10
0A
07
01
00
00
00
00
00
04
15
09
10
03
07
05
09
05
00
00
00
00
00
00
00
02
0A
07
08
10
0A
0D
04
08
00
00
00
00
00
00
00
00
00
04
09
03
08
05
03
04
00
00
00
00
00
00
06
05
00
01
0C
03
01
06
06
02
00
01
01
06
0E
08
0D
0B
01
01
07
05
0D
01
07
0A
04
02
02
00
00
00
00
02
05
06
09
05
09
07
04
03
02
01
01
00
00
00
00
00
00
03
0B
0A
06
02
02
01
01
00
00
00
00
00
00
00
00
00
05
11
0E
02
01
01
01
00
00
00
00
00
00
00
00
00
03
0B
02
02
01
01
00
00
00
00
00
00
00
00
00
00
00
06
01
01
01
01
01
01
00
00
00
00
00
00
00
00
00
0C
02
01
01
01
01
01
01
00
00
00
00
00
00
00
00
07
03
01
01
01
02
02
01
00
00
00
00
00
00
00
00
1F
05
08
02
01
02
04
00
00
00
00
00
00
00
00
05
35
08
07
03
08
01
01
00
00
00
00
00
05
02
17
0C
15
0C
07
05
04
05
03
00
00
00
00
00
06
04
0A
07
0E
02
07
0E
0D
06
01
00
00
00
00
01
04
1A
09
0E
03
08
04
07
04
01
00
00
00
00
00
00
04
0A
07
08
0D
09
0A
08
08
00
00
00
00
00
00
00
00
00
07
09
03
06
06
02
06
00
00
00
00
00
00
07
08
00
02
0C
03
01
07
05
04
00
01
01
06
0B
08
0F
0A
01
01
04
05
11
01
06
09
07
09
09
00
00
00
06
06
04
06
09
04
09
07
08
02
02
06
01
00
00
00
00
00
00
06
09
0C
07
05
03
01
01
04
00
00
00
00
00
00
00
00
05
0E
0C
03
01
01
00
02
00
00
00
00
00
00
00
00
02
0D
01
02
01
01
00
01
00
00
00
00
00
00
00
00
00
0B
01
01
01
01
01
01
00
00
00
00
00
00
00
00
00
09
02
01
01
01
01
01
00
00
00
00
00
00
00
00
00
07
04
01
01
01
02
03
01
00
00
00
00
00
00
00
00
18
06
08
02
01
01
03
00
00
00
00
00
00
00
00
05
36
08
0A
02
0A
01
01
00
00
00
00
00
05
02
11
0B
13
11
09
06
03
06
02
00
00
00
00
00
07
03
06
07
09
03
07
12
0C
08
01
00
00
00
00
00
02
13
09
0D
02
0A
04
04
05
01
00
00
00
00
00
00
04
08
07
07
12
0A
0D
07
0B
00
00
00
00
00
00
00
01
01
08
07
03
06
07
02
07
00
00
00
00
00
00
05
08
01
05
0D
03
01
09
06
06
00
01
01
06
0D
07
10
0A
03
03
0D
05
11
01
07
0A
0B
0D
09
00
00
00
05
05
04
06
08
08
0A
07
07
0F
13
05
01
00
00
00
04
06
08
0B
08
0B
07
07
01
02
0D
09
00
00
00
00
00
02
00
00
06
0D
18
03
01
01
04
0B
00
00
00
00
00
00
00
00
02
0E
03
02
01
00
01
08
00
00
00
00
00
00
00
00
00
0B
01
01
01
01
00
04
00
00
00
00
00
00
00
00
00
0A
01
01
01
01
00
01
00
00
00
00
00
00
00
00
00
08
03
01
01
01
02
02
01
00
00
00
00
00
00
00
00
2A
05
08
02
01
01
03
01
00
00
00
00
00
00
00
08
27
0B
08
04
08
01
01
00
00
00
00
00
06
04
10
18
12
12
09
07
05
0B
03
00
00
00
00
00
06
05
07
07
0D
03
08
10
0E
08
01
00
00
00
00
01
02
17
08
0E
02
0A
04
0C
05
03
00
00
00
00
00
01
04
08
0A
06
14
0A
0D
07
0D
01
00
00
00
00
00
00
02
01
06
07
03
09
07
03
06
00
00
00
00
00
00
06
0A
02
05
11
03
01
0B
06
09
01
02
01
07
0B
07
11
0F
03
03
0A
05
11
01
06
0A
06
0A
06
00
00
00
05
05
03
05
07
06
08
06
06
20
16
06
00
00
00
00
05
04
08
08
09
0A
0B
0D
07
0F
11
0D
00
00
00
00
01
09
05
07
06
0F
0D
03
02
06
0C
0A
00
00
00
00
00
09
02
00
11
09
05
02
01
03
09
07
00
00
00
00
00
01
00
00
00
07
03
01
00
00
04
0C
00
00
00
00
00
00
00
00
00
08
01
01
01
00
01
07
00
00
00
00
00
00
00
00
01
0F
02
01
01
01
01
01
01
00
00
00
00
00
00
00
00
1C
04
06
01
01
02
03
01
00
00
00
00
00
00
00
09
18
0E
07
05
05
01
01
00
00
00
00
00
07
03
08
09
13
0D
07
07
05
0A
04
00
00
00
00
00
04
05
0B
06
0A
02
08
0C
0A
07
04
00
00
00
00
00
02
12
0A
0B
02
08
05
0B
04
03
00
00
00
00
00
00
05
08
09
08
16
0A
0B
06
08
02
00
00
00
00
00
00
03
03
05
08
03
08
06
03
05
01
00
00
00
00
00
07
07
03
06
10
03
01
07
05
09
01
02
01
07
0C
07
0A
0A
05
04
08
05
0E
00
00
04
01
00
00
00
00
00
01
00
00
0A
0D
00
09
0B
04
01
00
00
00
00
00
00
00
00
00
00
05
17
0C
04
02
01
00
00
00
00
00
00
00
00
00
00
01
49
0D
02
01
01
00
00
00
00
00
00
00
00
00
00
00
2A
03
02
01
01
01
00
00
00
00
00
00
00
00
00
00
00
02
02
01
01
01
01
00
00
00
00
00
00
00
00
00
00
06
02
02
02
01
01
01
01
01
00
00
00
00
00
00
00
0D
03
02
03
04
04
01
00
00
00
00
00
00
00
00
40
09
24
07
05
05
09
00
00
00
00
00
00
00
00
12
CD
06
02
00
02
01
04
00
00
00
00
00
0D
01
08
23
7A
17
0E
01
04
05
00
00
00
00
00
00
0D
00
0C
0E
37
04
0E
09
0F
00
00
00
00
00
00
00
08
1F
0F
34
05
0D
04
00
06
01
00
00
00
00
00
00
06
0B
00
09
32
13
21
05
07
01
00
00
00
00
00
00
00
00
09
0C
06
0E
06
00
01
00
00
00
00
00
00
0F
03
00
01
22
06
01
00
0B
0B
00
02
02
00
0A
15
1F
0B
01
00
0D
06
