31
38
1B
02
00
00
00
01
01
01
00
00
00
0D
1E
6A
05
16
00
00
00
00
00
00
01
01
00
00
00
00
0B
09
16
02
00
00
00
00
00
00
01
00
00
00
00
00
00
07
0F
00
00
00
00
00
00
00
00
00
00
00
00
00
00
37
01
00
00
00
00
00
00
00
00
00
00
00
00
00
00
00
00
00
00
00
00
00
00
00
00
00
00
00
00
00
00
00
01
00
00
00
00
00
00
01
01
00
00
00
00
00
00
00
01
00
00
00
00
00
00
01
01
00
00
00
00
00
00
00
05
11
00
00
00
00
00
01
01
00
00
00
00
00
08
00
3E
12
06
08
02
00
00
00
01
00
00
01
00
00
1C
03
1E
37
13
06
00
05
00
00
00
00
00
02
07
00
00
00
08
1B
1A
28
1A
03
00
00
01
00
00
00
33
00
03
04
15
0C
00
0B
01
02
00
00
00
01
01
01
03
1B
18
2C
16
02
2D
16
05
01
00
01
00
00
00
00
00
0F
12
05
07
03
10
1C
00
01
00
08
03
01
00
00
00
0F
15
03
0B
26
64
1D
00
00
00
06
17
0E
01
00
00
07
06
06
1F
35
14
01
00
00
00
00
01
00
00
00
00
0B
1F
5F
00
12
00
00
00
00
00
00
01
01
00
00
00
00
0F
0B
15
02
00
00
00
00
00
00
00
00
00
00
00
00
00
0C
0B
00
00
00
00
00
00
00
00
00
00
00
00
00
00
36
00
00
00
00
00
00
00
00
00
00
00
00
00
00
00
00
00
00
00
00
00
00
00
00
00
00
00
00
00
00
00
00
01
00
00
00
00
00
00
01
01
00
00
00
00
00
00
07
01
00
00
00
00
00
00
01
01
00
00
00
00
00
00
00
06
0C
00
00
00
00
00
01
01
00
00
00
00
00
06
03
55
0F
05
03
02
00
00
00
01
00
01
01
00
00
18
05
22
2E
0B
06
00
04
00
00
00
00
00
03
0B
00
00
00
06
1B
12
20
14
04
01
00
01
00
00
00
1B
02
06
04
28
04
00
0C
01
02
00
00
00
01
01
01
02
1B
16
2B
14
03
24
19
05
01
00
01
00
01
00
00
01
0C
11
05
0A
03
10
1B
00
02
00
07
02
01
00
01
00
0D
12
04
09
27
5F
1D
00
00
00
08
18
0D
00
00
00
05
13
07
2B
32
14
01
00
00
00
00
01
00
00
00
00
0A
19
59
00
11
00
00
00
00
00
00
01
01
00
00
00
00
08
09
1A
02
00
00
00
00
00
00
01
00
00
00
00
00
00
0F
09
00
00
00
00
00
00
00
00
00
00
00
00
00
00
4A
00
00
00
00
00
00
00
00
00
00
00
00
00
00
00
03
00
00
00
00
00
00
00
00
00
00
00
00
00
00
00
12
01
00
00
00
00
00
00
01
01
00
00
00
00
00
00
4B
01
00
00
00
00
00
00
01
01
00
00
00
00
00
00
00
05
0D
00
00
00
00
00
01
01
00
00
00
00
00
07
0A
42
13
03
00
02
00
00
00
01
00
01
01
01
05
19
01
27
2A
09
04
00
04
00
00
00
00
00
03
08
00
00
00
05
21
0D
20
13
05
01
00
01
00
00
00
14
0A
06
03
28
03
01
0E
00
02
00
00
00
01
01
00
02
1D
13
27
14
00
21
13
05
01
00
01
00
00
01
00
00
0C
11
05
04
07
10
1A
01
01
00
07
02
01
00
00
00
0C
10
03
07
24
59
15
00
00
00
09
1B
0B
02
00
00
05
13
04
21
31
17
01
00
00
00
00
01
00
00
00
00
09
16
5D
05
10
00
00
00
00
00
00
01
01
00
00
00
00
0A
06
1E
02
00
00
00
00
00
00
01
00
00
00
00
00
00
0D
08
00
00
00
00
00
00
00
01
00
00
00
00
00
00
4C
00
00
00
00
00
00
00
00
00
00
00
00
00
00
00
2E
00
00
00
00
00
00
00
00
00
00
00
00
00
00
00
10
00
00
00
00
00
00
00
01
01
00
00
00
00
00
00
47
01
00
00
00
00
00
00
01
01
00
00
00
00
00
00
04
05
09
00
00
00
00
00
01
01
00
00
00
00
00
07
07
3F
11
01
00
02
00
00
00
01
00
00
01
03
04
17
00
27
2D
0A
06
00
03
00
00
00
00
00
03
13
00
00
00
05
1A
0B
1C
0B
04
00
00
00
00
00
00
15
0A
06
03
27
03
00
0D
00
02
00
00
00
00
01
00
02
1F
15
3B
13
05
1C
0B
05
01
00
00
00
00
01
00
00
0D
16
05
06
0E
10
16
00
01
00
05
02
01
01
00
00
08
0D
03
09
1F
51
12
00
00
00
09
1A
0B
02
00
00
04
15
04
15
2B
18
01
00
00
00
00
01
00
00
00
00
0B
18
4F
10
10
00
00
00
00
00
00
01
01
00
00
00
00
16
03
1C
02
00
00
00
00
00
00
01
00
00
00
00
00
00
07
08
00
00
00
00
00
00
00
00
00
00
00
00
00
00
4D
00
00
00
00
00
00
00
00
00
00
00
00
00
00
00
2E
00
00
00
00
00
00
00
00
00
00
00
00
00
00
00
0F
00
00
00
00
00
00
00
01
01
00
00
00
00
00
00
43
01
00
00
00
00
00
00
01
01
00
00
00
00
00
00
05
05
09
00
00
00
00
00
00
01
00
00
00
00
00
06
0C
3B
0D
00
00
02
00
00
00
00
00
00
01
03
00
0D
02
26
2C
0E
08
00
02
00
00
00
00
00
02
17
00
00
00
04
1D
1A
19
0B
04
00
00
00
00
00
00
1F
11
06
03
22
03
00
0D
00
01
00
00
00
00
01
00
02
1F
13
43
11
08
19
0F
04
01
00
00
00
00
01
00
00
0C
19
05
05
10
0E
15
00
01
00
05
01
00
00
00
00
07
0D
03
07
19
57
12
00
00
00
07
15
0C
00
00
00
03
19
04
12
35
15
01
00
00
00
01
01
01
00
00
00
0A
18
48
13
0E
00
00
00
00
00
00
01
00
00
00
00
00
15
07
16
01
00
00
00
00
00
00
00
00
00
00
00
00
00
03
0A
00
00
00
00
00
00
00
00
00
00
00
00
00
00
48
00
00
00
00
00
00
00
00
00
00
00
00
00
00
00
2C
00
00
00
00
00
00
00
00
00
00
00
00
00
00
00
0C
00
00
00
00
00
00
00
00
00
00
00
00
00
00
00
40
01
00
00
00
00
00
00
01
01
00
00
00
00
00
00
06
06
09
00
00
00
00
00
01
01
00
00
00
00
00
07
09
40
09
00
00
02
00
00
00
00
00
00
01
03
04
0E
08
1E
2B
09
08
00
00
00
00
00
00
00
02
10
00
01
00
04
1F
22
19
07
01
00
00
00
00
00
00
18
12
05
03
19
01
00
0F
00
00
00
00
00
00
00
01
01
21
09
40
0F
06
16
16
03
00
00
00
00
00
01
00
00
0B
16
05
0A
0F
0D
14
00
00
00
05
01
00
01
00
00
04
00
02
06
17
4D
10
00
00
00
08
17
0B
02
00
00
02
15
05
09
31
17
01
00
00
00
01
02
01
00
00
00
09
17
40
0E
0C
00
00
00
00
00
01
01
01
00
00
00
00
13
0B
1B
01
00
00
00
00
00
00
01
00
00
00
00
00
00
05
07
00
00
00
00
00
00
00
00
00
00
00
00
00
00
4C
00
00
00
00
00
00
00
00
00
00
00
00
00
00
00
28
00
00
00
00
00
00
00
00
00
00
00
00
00
00
00
0C
00
00
00
00
00
00
00
00
00
00
00
00
00
00
00
36
00
00
00
00
00
00
00
01
01
00
00
00
00
00
00
04
07
09
01
00
00
00
00
00
01
00
00
00
00
00
07
04
30
06
01
01
01
00
00
00
00
00
00
01
03
00
11
01
29
24
0E
07
00
00
00
00
00
00
00
01
12
00
00
00
04
1A
1A
1B
0A
00
00
00
00
00
00
00
10
0C
04
03
12
02
02
0D
00
00
00
00
00
00
00
00
01
1B
07
32
0F
09
11
0E
02
00
00
00
00
00
00
00
00
0A
0E
05
07
0A
0B
15
00
00
00
08
01
00
02
00
00
05
00
02
05
0E
44
0E
01
00
00
08
16
0B
10
00
00
02
0E
05
0A
30
12
01
00
00
00
02
02
01
00
01
00
08
1B
49
0E
0C
00
00
00
00
00
01
01
01
00
00
00
00
13
09
19
01
00
00
00
00
00
01
01
00
00
00
00
00
00
03
08
00
00
00
00
00
00
00
01
00
00
00
00
00
00
3D
01
00
00
00
00
00
00
00
00
00
00
00
00
00
00
23
00
00
00
00
00
00
00
00
00
00
00
00
00
00
00
0B
00
00
00
00
00
00
00
00
00
00
00
00
00
00
00
31
00
00
00
00
00
00
00
01
01
00
00
00
00
00
00
09
05
0C
00
00
00
00
00
00
01
00
00
00
00
00
06
09
31
00
00
01
01
00
00
00
00
00
00
01
02
09
0A
0A
30
25
0A
05
00
00
00
00
00
00
00
01
0B
03
00
00
03
1E
1B
19
06
01
00
00
00
00
00
00
10
06
03
03
13
02
01
09
00
00
00
00
00
00
00
01
00
18
09
22
0C
09
17
16
00
00
00
00
00
00
00
00
00
09
10
05
00
07
09
11
01
00
00
06
00
00
01
00
00
06
00
02
04
0D
51
10
01
00
00
06
13
08
10
01
00
04
09
03
08
2E
0F
01
00
00
00
02
02
01
00
05
00
06
16
2E
05
09
00
00
00
00
00
01
02
01
00
00
00
00
12
0D
14
00
00
00
00
00
00
01
01
00
00
00
00
00
00
07
07
00
00
00
00
00
00
01
01
01
00
00
00
00
00
3C
01
00
00
00
00
00
00
00
01
00
00
00
00
00
00
1B
00
00
00
00
00
00
00
00
00
00
00
00
00
00
00
0A
00
00
00
00
00
00
00
00
00
00
00
00
00
00
00
2A
00
00
00
00
00
00
00
00
00
00
00
00
00
00
00
04
04
07
00
00
00
00
00
00
00
00
00
00
00
00
07
09
22
03
02
00
01
00
00
00
00
00
00
00
00
09
0B
08
26
28
0E
09
00
00
00
00
00
00
00
01
05
02
02
00
04
13
18
0A
0B
01
00
00
00
00
00
00
19
02
02
03
0E
01
09
0B
00
00
00
00
00
00
00
01
01
0F
07
31
09
07
13
18
00
00
00
00
00
00
00
00
00
08
10
03
09
04
1C
1C
01
00
00
05
00
00
01
00
00
06
0B
02
04
13
4F
0A
01
00
00
06
0D
07
07
04
01
02
0D
04
08
2B
0C
00
00
00
00
02
02
01
00
06
01
04
14
27
00
09
00
00
00
00
00
01
02
01
00
00
00
0D
0F
0A
0E
00
00
00
00
00
00
01
01
01
00
00
00
00
02
05
06
00
00
00
00
00
00
01
01
01
00
00
00
00
00
38
00
00
00
00
00
00
00
01
01
00
00
00
00
00
00
15
00
00
00
00
00
00
00
00
00
00
00
00
00
00
00
07
00
00
00
00
00
00
00
01
00
00
00
00
00
00
00
21
00
00
00
00
00
00
00
00
00
00
00
00
00
00
00
00
04
02
00
00
00
00
00
00
00
00
00
00
00
00
06
0E
23
00
00
00
01
00
00
00
00
00
00
00
00
07
07
04
21
2A
09
05
00
01
00
00
00
00
00
01
02
00
01
00
03
1E
14
01
11
01
00
00
00
00
00
00
15
04
01
02
04
03
00
0C
00
00
00
00
00
00
01
00
02
08
01
29
07
02
11
0F
00
00
00
00
00
00
00
00
00
08
08
03
09
09
22
17
01
00
00
05
00
00
01
00
00
07
07
01
07
14
39
0D
01
00
00
09
0A
04
00
00
00
01
0F
03
11
22
04
01
00
00
00
02
02
01
00
05
02
06
0D
1B
05
09
00
00
00
00
00
01
02
01
00
00
00
0F
03
08
0C
00
00
00
00
00
00
01
01
01
00
00
00
00
04
01
02
00
00
00
00
00
00
01
01
01
00
00
00
00
00
26
01
00
00
00
00
00
01
01
01
00
00
00
00
00
00
13
00
00
00
00
00
00
01
01
01
00
00
00
00
00
00
16
00
00
00
00
00
00
01
01
00
00
00
00
00
00
00
1B
00
00
00
00
00
00
00
00
00
00
00
00
00
00
00
03
02
03
00
00
00
00
00
00
00
00
01
00
00
00
02
0E
14
02
01
03
01
00
00
00
00
00
01
00
00
06
02
03
1A
23
0B
07
00
01
00
00
00
00
01
01
06
01
01
00
03
12
09
00
0F
01
00
00
00
00
00
00
12
01
02
01
06
03
07
0A
00
00
00
00
00
00
00
00
02
09
05
13
06
02
0F
09
00
00
00
00
00
00
00
00
00
06
08
02
0E
0A
23
13
00
00
00
04
00
00
01
00
00
06
0A
01
07
0E
35
09
00
00
00
08
09
02
00
00
00
01
09
04
06
20
02
0D
00
00
00
02
02
01
00
04
00
04
0C
12
05
0B
00
00
00
00
01
02
01
01
00
00
00
08
02
06
0A
00
00
00
00
00
02
01
01
01
00
00
00
00
00
00
03
00
00
00
00
00
04
01
01
01
00
00
00
00
00
20
00
00
00
00
00
00
02
01
01
00
00
00
00
00
00
09
00
00
00
00
00
00
01
01
01
00
00
00
00
00
00
0A
00
00
00
00
00
00
01
01
01
00
00
00
00
00
00
16
01
00
00
00
00
00
00
00
00
00
00
00
00
00
00
05
01
03
00
00
00
00
00
00
00
00
01
00
00
00
02
07
19
00
00
04
00
00
00
00
00
00
00
00
00
01
02
00
17
21
0B
04
00
00
00
00
00
00
00
01
0C
00
00
00
02
16
1B
01
0A
00
00
00
00
00
01
00
01
01
01
01
08
03
02
0B
00
00
00
00
00
00
00
00
04
02
01
16
03
01
0D
00
00
00
00
00
00
00
00
00
00
0B
0A
01
0B
08
1A
12
00
00
00
04
00
00
00
00
00
0B
0B
00
08
00
29
0B
00
00
00
07
00
01
00
02
00
02
06
02
14
1B
06
11
01
00
04
02
02
01
00
09
00
02
09
17
09
0A
00
00
00
00
04
02
01
01
00
00
00
03
00
00
08
00
00
00
00
00
03
01
01
01
00
00
00
00
00
00
07
00
00
00
00
00
03
01
01
01
00
00
00
00
00
20
00
00
00
00
00
00
02
01
01
00
00
00
00
00
00
02
00
00
00
00
00
00
01
01
00
00
00
00
00
00
00
08
00
00
00
00
00
00
01
01
00
00
00
00
00
00
00
14
00
00
00
00
00
00
00
00
00
00
00
00
00
00
00
03
01
03
00
00
00
00
00
00
00
00
01
00
00
00
00
03
0D
06
00
0D
00
00
00
00
00
00
00
01
00
03
01
02
0F
13
0D
05
00
01
00
00
00
00
00
01
05
00
01
00
01
0D
15
02
0F
00
00
00
00
00
00
00
00
00
01
01
0D
00
00
07
01
00
00
00
00
00
00
00
05
02
00
19
02
02
09
00
00
00
00
00
00
00
00
00
00
0A
00
01
05
06
0C
0F
00
00
00
02
00
00
00
00
00
18
05
00
07
05
25
09
00
00
00
08
03
00
00
00
00
0A
09
05
0D
1E
01
0F
08
08
02
02
01
01
01
09
00
01
0E
12
03
0B
00
00
00
00
03
02
01
01
00
00
00
02
04
02
0A
04
00
00
00
00
04
01
01
01
01
00
00
00
01
01
26
00
00
00
00
00
02
01
00
01
01
00
00
00
00
19
00
00
00
00
00
00
02
01
01
00
00
00
00
00
00
01
00
00
00
00
00
00
01
00
00
00
00
00
00
00
00
09
00
00
00
00
00
00
01
01
00
00
00
00
00
00
00
1B
00
00
00
00
00
00
00
00
00
00
00
00
00
00
00
01
02
04
00
00
00
00
00
00
00
00
00
00
00
00
00
01
05
00
04
00
00
00
00
00
00
00
00
00
01
00
00
00
00
14
0C
07
07
00
00
00
00
00
00
00
0B
00
03
00
03
0D
14
0C
14
00
00
00
00
00
00
00
00
00
00
02
0D
00
00
08
02
00
00
00
00
00
00
00
09
07
01
0D
07
05
09
01
00
00
00
00
00
00
01
00
00
0C
0F
02
09
0A
0B
0F
00
00
00
03
00
00
00
00
00
13
0C
01
08
10
1B
01
00
00
00
0F
06
02
01
12
00
09
00
05
3C
21
15
1B
14
1D
0F
01
01
01
0A
12
0B
0A
18
21
20
18
06
00
00
08
03
01
01
01
01
0B
05
16
10
15
1C
22
0D
0A
02
02
03
01
00
00
01
00
07
01
11
09
32
00
01
00
03
05
02
00
00
01
01
00
00
00
19
23
07
00
00
00
06
0D
01
00
00
00
00
00
00
00
00
0C
01
00
00
00
03
00
01
00
00
00
00
00
00
00
00
0A
00
00
00
00
00
00
01
01
00
00
00
00
00
00
02
35
00
00
00
00
00
00
00
00
00
00
00
00
00
00
00
00
0C
0D
00
00
00
00
00
00
00
00
00
00
00
00
04
00
24
18
0D
07
01
00
00
00
00
00
00
05
08
00
00
00
12
1D
1C
0E
14
0A
00
00
00
00
01
07
17
00
0D
02
07
2D
36
1A
26
00
00
00
00
01
01
00
00
02
00
05
1C
0F
11
0F
08
00
00
00
00
00
01
00
12
16
19
21
16
0E
20
1F
04
00
00
00
00
00
03
00
00
10
13
07
22
11
0D
18
00
00
00
02
00
00
09
0B
05
18
16
05
06
1D
25
16
00
00
00
16
10
09
13
19
01
14
1F
0C
34
47
1A
04
00
00
00
01
03
01
00
00
00
0E
24
7A
0A
1C
00
00
00
00
00
01
02
01
00
00
00
00
0E
09
1D
02
00
00
00
00
00
01
01
00
00
00
00
00
00
00
14
00
00
00
00
00
00
01
01
00
00
00
00
00
00
3A
01
00
00
00
00
00
01
00
00
00
00
00
00
00
00
00
00
00
00
00
00
00
00
01
00
00
00
00
00
00
00
00
00
00
00
00
00
00
00
01
00
00
00
00
00
00
00
00
00
00
00
00
00
00
00
01
01
00
00
00
00
00
00
00
04
11
00
00
00
00
00
01
01
00
00
00
00
00
07
00
34
1A
0C
08
02
00
00
00
01
00
00
00
00
00
16
00
1D
44
15
0B
00
04
00
00
00
00
00
01
0C
00
00
00
08
31
17
27
27
01
00
00
00
00
00
00
3F
01
00
04
1B
08
00
0F
03
02
00
00
00
01
01
00
03
19
16
2A
15
05
27
1E
04
01
00
00
00
00
01
00
00
13
15
06
0E
05
11
21
00
01
00
08
02
01
00
00
00
14
1B
02
0D
31
5E
1B
00
00
00
07
10
0B
00
00
00
0C
09
06
