28
31
09
01
00
00
00
00
00
00
00
00
00
03
0B
03
23
0A
00
00
00
00
00
00
00
00
00
00
00
00
09
0B
16
01
00
00
00
00
00
00
00
00
00
00
00
00
01
00
00
00
00
00
00
00
00
00
00
00
00
00
00
00
00
06
01
00
00
00
00
00
00
00
00
00
00
00
00
00
00
00
00
00
00
00
00
00
00
00
00
00
00
00
00
00
00
00
00
00
00
00
00
00
00
00
00
00
00
00
00
00
00
00
00
00
00
00
00
01
01
00
00
00
00
00
00
00
00
04
02
01
00
00
00
01
02
01
00
00
00
00
00
00
00
00
0E
1B
56
2E
00
02
02
02
00
00
00
00
00
00
00
00
07
00
13
15
1F
03
02
02
00
01
00
00
1D
08
16
12
03
37
07
03
15
04
02
00
00
01
00
06
00
15
00
02
10
0E
3A
0F
0E
00
02
01
00
01
00
0A
12
0E
00
00
00
12
01
08
02
00
03
01
01
01
04
1E
15
00
00
03
29
19
01
00
08
01
06
00
00
00
1D
14
0B
00
09
03
00
0A
00
05
14
19
16
0B
01
00
31
4B
17
08
13
11
2D
27
0D
01
00
00
00
00
00
00
00
00
00
04
05
07
2B
0A
01
00
00
00
00
00
00
00
00
00
00
00
03
09
12
01
00
00
00
00
00
00
00
00
00
00
00
00
01
00
00
00
00
00
00
00
00
00
00
00
00
00
00
00
00
0B
01
00
00
00
00
00
00
00
00
00
00
00
00
00
00
00
00
00
00
00
00
00
00
00
00
00
00
00
00
00
00
00
00
00
00
00
00
00
00
00
00
00
00
00
00
00
00
00
00
00
00
00
00
01
01
00
00
00
00
00
00
00
00
05
02
04
00
00
00
01
02
01
00
00
00
00
00
00
01
01
03
19
4E
2D
00
02
02
01
00
00
00
00
00
00
00
00
03
06
1A
12
26
04
02
01
00
01
00
00
17
0B
15
12
03
34
08
06
1A
04
02
00
00
01
00
06
00
0D
00
02
03
14
3B
0C
0C
00
01
01
00
00
00
0C
12
08
00
02
01
0E
06
06
02
00
02
01
01
01
04
1E
14
00
00
03
22
18
00
00
07
01
06
00
00
00
1E
14
0B
01
08
02
00
06
00
05
13
17
16
10
03
00
3B
54
15
0A
01
0D
27
23
09
01
00
00
00
00
00
00
00
00
01
03
08
06
23
09
00
00
00
00
00
00
00
00
00
00
00
00
07
09
0B
00
00
00
00
00
00
00
00
00
00
00
00
00
01
00
00
00
00
00
00
00
00
00
00
00
00
00
00
00
00
0A
01
00
00
00
00
00
00
00
00
00
00
00
00
00
00
01
00
00
00
00
00
00
00
00
00
00
00
00
00
00
00
00
00
00
00
00
00
00
00
00
00
00
00
00
00
00
00
06
00
00
00
00
00
01
01
00
00
00
00
00
00
00
00
04
03
03
00
00
00
01
02
01
00
00
00
00
00
00
01
00
08
15
4A
33
00
02
02
01
00
00
00
00
02
00
00
03
02
03
1A
11
20
03
02
01
00
01
00
00
14
0B
13
10
03
2A
0B
04
17
03
02
00
00
01
00
05
07
04
01
02
01
11
39
09
0C
00
01
01
00
01
00
0D
12
02
04
00
01
11
06
09
01
00
02
01
01
01
04
1D
13
01
00
02
24
12
00
00
06
01
06
00
00
00
1A
13
0C
02
09
02
00
05
01
0B
12
16
15
0F
03
01
2B
4E
16
09
01
0F
2A
1D
03
01
00
00
00
00
00
00
00
00
01
02
06
00
19
06
00
00
00
00
00
00
00
00
00
00
00
00
04
0B
03
00
00
00
00
00
00
00
00
00
00
00
00
00
01
00
01
00
00
00
00
00
00
00
00
00
00
00
00
00
00
05
01
00
00
00
00
00
00
00
00
00
00
00
00
00
00
0D
00
00
00
00
00
00
00
00
00
00
00
00
00
00
00
00
00
00
00
00
00
00
00
00
00
00
00
00
00
00
00
06
00
00
00
00
00
01
01
00
00
00
00
00
00
00
00
01
01
03
00
00
00
01
02
01
00
00
00
00
00
00
01
00
06
14
41
32
00
02
02
01
00
00
00
00
01
00
00
08
04
00
13
0F
21
05
02
01
00
01
00
00
09
09
0D
13
03
29
08
04
1D
03
02
00
00
01
00
06
04
03
01
01
01
10
37
06
0A
00
02
01
00
01
00
0D
10
00
01
00
00
0A
05
10
01
01
03
01
01
01
03
1A
12
01
00
01
1E
0B
00
00
06
01
06
00
00
00
1A
12
0B
05
0E
02
00
06
01
09
12
15
16
15
02
02
23
4F
15
09
01
0D
2C
1C
02
00
00
00
00
00
00
00
00
00
00
02
03
00
0C
05
00
00
00
00
00
00
00
00
00
00
00
00
03
0D
02
00
00
00
00
00
00
00
00
00
00
00
00
00
01
01
01
00
00
00
00
00
00
00
00
00
00
00
00
00
00
02
01
00
00
00
00
00
00
00
00
00
00
00
00
00
00
0D
00
00
00
00
00
00
00
00
00
00
00
00
00
00
00
00
00
00
00
00
00
00
00
00
00
00
00
00
00
00
00
04
00
00
00
00
00
01
01
00
00
00
00
00
00
00
00
00
01
02
00
00
00
01
02
01
00
00
00
00
00
00
02
00
00
13
41
2D
00
02
02
02
00
00
00
00
01
02
00
03
02
00
10
08
1F
08
02
02
00
01
00
00
02
05
0E
0F
02
1B
05
01
19
02
02
00
00
01
00
05
00
01
02
01
00
0E
34
04
0A
01
02
01
00
01
00
0F
0F
02
01
01
01
05
03
09
02
01
03
01
01
01
03
1C
12
01
00
01
1B
06
00
00
06
01
06
00
00
01
17
11
0B
05
0A
02
00
08
00
0A
12
15
14
13
02
00
22
61
14
0A
00
0C
2E
1D
01
00
00
00
00
00
00
00
00
00
01
03
01
00
06
05
00
00
00
00
00
00
00
00
00
00
00
00
04
05
05
00
00
00
00
00
00
00
00
00
00
00
00
00
01
02
00
00
00
00
00
00
00
00
00
00
00
00
00
00
00
00
01
00
00
00
00
00
00
00
00
00
00
00
00
00
00
09
00
00
00
00
00
00
00
00
00
00
00
00
00
00
00
00
00
00
00
00
00
00
00
00
00
00
00
00
00
00
00
02
00
00
00
00
00
01
01
00
00
00
00
00
00
00
00
00
01
02
00
00
00
01
02
01
00
00
00
00
00
00
00
00
00
12
3C
23
00
02
02
02
00
00
00
00
01
01
01
01
04
00
14
06
19
08
02
02
00
01
00
00
07
06
09
0C
02
17
03
00
14
04
03
00
01
01
00
06
03
00
01
00
07
0F
46
01
09
02
02
01
01
01
01
0E
0F
00
03
03
02
05
02
03
03
01
03
02
01
01
03
1A
11
01
00
00
16
06
00
00
07
02
06
00
00
01
16
0F
0B
07
15
02
01
05
00
08
11
15
15
10
01
01
18
4C
13
09
00
09
2F
18
00
01
00
00
00
00
00
00
00
00
01
02
01
00
09
05
00
00
00
00
00
00
00
00
00
00
00
00
01
03
01
00
00
00
00
00
00
00
00
00
00
00
00
00
00
00
01
00
00
00
00
00
00
00
00
00
00
00
00
00
00
00
01
00
00
00
00
00
00
00
00
00
00
00
00
00
00
05
00
00
00
00
00
00
00
00
00
00
00
00
00
00
00
00
00
00
00
00
00
01
00
00
00
00
00
00
00
00
00
01
00
00
00
00
00
01
01
00
00
00
00
00
00
00
00
00
00
02
00
00
00
02
02
01
00
00
00
00
00
00
00
01
04
10
36
15
00
02
02
01
00
00
00
00
00
07
00
05
01
01
0A
06
1A
09
02
02
00
01
00
00
04
03
08
0A
01
16
01
00
10
06
03
01
01
01
00
06
06
00
01
00
06
0D
3C
01
0A
02
02
01
01
01
01
0E
10
00
03
03
01
01
02
04
03
03
03
02
02
01
03
19
10
01
00
00
15
07
00
00
08
03
06
00
01
01
12
0E
09
07
15
01
00
0C
00
06
11
15
13
10
01
01
04
49
18
08
00
07
27
12
00
00
00
00
00
00
00
00
00
00
06
01
01
04
06
03
00
00
00
00
00
00
00
00
00
00
00
00
00
02
00
00
00
00
00
00
00
00
00
00
00
00
00
00
00
02
00
00
00
00
00
00
00
00
00
00
00
00
00
00
00
00
00
00
00
00
00
00
00
00
00
00
00
00
00
00
00
01
00
00
00
00
00
00
00
00
00
00
00
00
00
00
00
00
00
00
00
00
00
00
00
00
00
00
00
00
00
00
00
00
00
00
00
00
00
01
01
00
00
00
00
00
00
00
00
00
00
00
00
00
00
02
02
01
00
00
00
00
00
00
00
00
00
12
30
0E
00
02
02
02
00
00
00
00
01
00
00
01
00
00
0A
07
19
08
02
02
01
01
00
00
09
01
09
08
01
13
02
00
10
07
04
01
01
01
00
05
07
02
00
00
01
0A
38
03
08
02
02
01
01
01
01
0E
0F
00
02
08
01
02
00
00
04
03
04
04
02
01
04
17
0E
00
01
00
1A
09
00
00
12
04
06
00
01
01
11
0C
08
05
15
01
01
0D
02
03
11
14
14
0E
00
01
00
41
14
04
02
06
1F
0D
00
00
00
00
00
00
00
00
00
00
09
00
00
15
0C
04
00
00
00
00
00
00
00
00
00
00
00
02
01
00
02
00
00
00
00
00
00
00
00
00
00
00
00
00
00
00
00
00
00
00
00
00
00
00
00
00
00
00
00
00
00
00
00
00
00
00
00
00
00
00
00
00
00
00
00
00
00
00
00
00
00
00
00
00
00
00
00
00
00
00
00
00
00
00
00
00
00
00
00
01
00
00
00
00
00
00
00
00
00
00
00
00
00
00
00
01
01
00
00
01
00
00
00
00
00
00
00
00
00
00
00
01
03
01
00
00
00
00
00
00
00
00
00
11
2C
18
00
02
02
01
00
00
00
00
01
01
00
00
00
00
07
01
15
08
03
02
01
01
00
00
0C
01
03
05
00
18
00
07
05
07
05
01
01
01
00
05
00
05
00
00
02
08
28
00
08
02
02
01
01
01
01
0E
08
00
01
01
00
02
00
01
05
04
03
04
02
01
03
14
0D
00
00
00
0F
0A
00
00
13
03
06
00
01
01
11
0C
07
02
01
00
00
02
00
07
0F
12
12
0C
01
00
07
3B
10
04
00
05
1D
09
01
00
00
00
00
00
00
00
00
00
07
01
00
12
0C
01
00
00
00
00
00
00
00
00
00
00
00
02
00
00
04
00
00
00
00
00
00
00
00
00
00
00
00
00
01
00
00
00
00
00
00
00
00
00
00
00
00
00
00
00
00
00
00
00
00
00
00
00
00
00
00
00
00
00
00
00
00
00
00
00
00
00
00
00
00
00
00
00
00
00
00
00
00
00
00
00
00
00
00
00
00
00
00
00
00
00
00
00
00
00
00
00
00
00
00
01
01
00
00
00
00
00
00
00
00
03
00
01
00
00
00
02
03
01
00
00
00
00
00
00
00
00
00
17
2C
11
00
02
03
02
00
00
00
00
01
00
00
01
00
00
08
02
11
04
02
02
01
01
00
00
0B
04
04
05
00
0F
02
0F
04
06
05
01
01
01
00
05
00
00
00
00
0A
05
3F
00
08
03
02
02
01
02
02
0D
05
05
03
00
01
02
00
00
05
04
03
04
02
02
04
12
0C
00
00
00
09
04
00
00
12
04
05
00
01
01
0E
0D
06
00
03
01
00
00
00
01
0E
10
10
07
00
00
0E
40
11
06
00
04
0F
0C
06
00
00
00
00
00
00
00
00
00
0A
00
00
17
07
01
00
00
00
00
00
00
00
00
00
00
00
02
08
00
01
01
00
00
00
00
00
00
00
00
00
00
00
00
00
01
01
00
00
00
00
00
00
00
00
00
00
00
00
00
00
00
00
00
00
00
00
00
00
00
00
00
00
00
00
00
00
00
00
00
00
00
00
00
00
00
00
00
00
00
00
00
00
00
00
00
00
00
00
00
00
00
00
00
00
00
00
00
00
00
00
00
00
00
00
01
01
00
00
00
00
00
00
00
00
00
00
00
00
00
00
01
02
01
00
00
00
00
00
00
00
00
00
19
21
04
00
02
03
01
00
00
00
00
00
00
00
00
00
01
06
01
0B
06
03
02
01
01
00
00
03
01
05
04
00
0C
02
12
03
08
05
01
01
01
00
05
00
0A
00
00
05
02
1E
00
06
03
02
02
01
02
02
0C
05
01
00
00
00
01
00
00
05
04
03
04
02
02
03
0F
0B
01
00
00
06
01
00
00
12
03
05
00
02
01
0C
13
05
01
03
01
00
05
00
06
0E
0F
10
07
01
00
14
36
11
05
00
04
15
0A
08
00
00
00
00
00
00
00
00
00
09
01
00
15
03
00
01
00
00
00
00
00
00
00
00
00
00
00
07
02
02
01
00
00
00
00
00
00
00
00
00
00
00
00
03
02
04
00
00
00
00
00
00
00
00
00
00
00
00
00
00
00
00
00
00
00
00
00
00
00
00
00
00
00
00
00
00
00
00
00
00
00
00
00
00
00
00
00
00
00
00
00
00
00
00
00
00
00
00
00
00
00
00
00
00
00
00
00
00
00
00
00
00
00
00
00
00
00
00
00
00
00
00
00
00
00
00
00
00
00
00
01
02
00
00
00
00
00
00
00
00
00
00
12
19
03
00
02
03
01
00
00
00
00
00
00
00
05
00
00
05
02
07
06
03
02
00
01
00
00
01
05
05
03
01
05
02
07
04
09
05
01
01
01
00
04
02
0C
00
00
01
02
1A
00
06
03
02
02
01
03
01
0B
02
05
01
00
01
01
01
06
05
04
03
04
02
02
03
10
08
01
00
00
05
01
00
00
10
03
04
00
02
01
0D
14
07
00
00
02
00
0D
00
03
0C
0D
0E
07
04
01
21
24
13
03
01
03
0D
06
07
01
01
01
01
00
00
00
06
01
09
03
03
0C
05
03
02
00
00
02
00
00
00
00
00
00
00
08
0D
08
01
02
00
00
00
00
00
00
00
00
00
00
00
00
06
02
06
00
00
00
00
00
00
00
00
00
00
00
00
00
02
00
01
00
00
00
00
00
00
00
00
00
00
00
00
00
00
00
00
00
00
00
00
00
00
00
00
00
00
00
00
00
00
01
00
00
00
00
00
00
00
00
00
00
00
00
00
00
00
00
00
00
00
00
00
00
00
00
00
00
00
00
00
00
00
01
01
00
00
00
00
00
03
00
00
00
00
00
00
00
02
00
01
04
13
01
00
02
03
01
00
00
00
00
01
00
06
03
06
00
02
03
06
04
03
01
00
01
00
00
07
0C
03
05
01
0E
01
0A
06
0A
07
01
00
01
00
06
06
14
00
01
04
05
12
03
04
03
02
01
01
02
00
07
05
05
03
00
03
02
03
0B
04
04
03
04
02
01
01
28
0E
02
07
01
08
02
01
01
12
03
04
00
02
01
0B
10
0C
00
05
02
00
05
00
08
0E
0C
0C
07
04
03
1A
19
19
01
03
02
11
04
0A
05
06
02
06
00
00
00
05
03
06
05
04
10
10
05
05
00
04
03
00
00
00
00
01
05
09
11
08
07
02
03
00
00
00
03
00
00
00
00
00
02
00
01
05
02
08
00
00
00
01
02
00
00
00
00
00
00
00
00
02
02
02
00
00
00
00
05
00
00
00
00
00
00
00
00
00
02
00
00
00
00
00
01
00
00
00
00
00
00
00
00
00
02
00
00
00
00
00
00
00
00
00
00
00
00
00
00
00
00
00
00
00
00
00
00
00
00
00
00
00
00
00
00
00
04
03
01
00
00
00
00
03
00
00
00
00
00
00
00
05
00
0A
0F
0E
0C
00
01
03
00
00
00
00
01
03
01
0C
08
17
03
04
06
08
06
04
01
00
00
00
01
08
10
04
02
02
0F
09
08
09
07
06
00
00
00
00
02
16
0B
02
02
0A
08
17
05
04
03
02
01
00
01
00
05
05
05
06
01
05
04
04
0A
04
02
03
03
01
01
01
1B
0B
02
02
02
0A
04
01
05
0C
02
03
00
02
01
07
0D
06
02
04
03
00
0A
03
0D
08
0B
0A
05
06
04
0D
13
12
02
13
05
08
06
07
0A
06
04
05
00
00
00
05
03
07
05
04
0E
0B
06
06
07
0D
04
00
00
00
00
02
04
07
10
06
06
08
09
03
06
01
07
00
00
00
00
00
04
03
0A
04
07
0B
00
00
05
02
06
00
00
00
00
00
02
02
01
09
03
05
00
00
00
02
05
00
00
00
00
00
01
00
00
01
02
00
00
00
00
02
07
00
00
00
00
00
00
00
00
00
02
00
00
00
00
00
03
00
00
00
00
00
00
00
00
02
02
00
00
00
00
00
00
00
00
00
00
00
00
00
00
00
05
04
03
00
00
00
00
01
00
00
00
00
00
00
00
09
02
05
0C
0B
0B
00
00
02
00
00
00
00
02
02
05
09
07
11
04
07
05
09
03
02
00
00
00
00
01
08
0E
04
01
02
06
0B
08
0A
05
03
00
00
00
00
02
12
0C
05
02
08
03
11
05
04
02
02
00
00
00
00
02
07
10
05
07
05
0A
04
09
03
01
02
02
01
00
00
0A
07
04
06
02
06
04
01
03
06
01
02
00
01
01
07
07
05
04
08
03
02
08
04
0D
03
05
05
09
0A
04
09
13
0C
05
07
04
30
3F
14
00
00
00
00
00
00
00
00
00
00
04
08
06
1D
0B
00
00
00
00
00
00
00
00
00
00
00
00
0B
10
1F
01
00
00
00
00
00
00
00
00
00
00
00
00
01
00
00
00
00
00
00
00
00
00
00
00
00
00
00
00
00
00
02
00
00
00
00
00
00
00
00
00
00
00
00
00
00
00
00
00
00
00
00
00
00
00
00
00
00
00
00
00
00
00
00
00
00
00
00
00
00
00
00
00
00
00
00
00
00
00
00
00
00
00
00
01
01
00
00
00
00
00
00
00
00
00
01
00
00
00
00
00
02
01
00
00
00
00
00
00
00
00
00
1A
5B
32
00
02
02
02
00
00
00
00
00
00
00
00
04
00
1A
11
1B
03
03
02
01
01
00
00
20
0A
14
09
04
43
11
03
00
06
04
01
00
01
00
03
00
1A
00
02
15
14
4A
10
0F
01
02
01
01
01
00
08
15
12
00
00
00
0F
01
06
04
01
04
02
01
01
06
22
17
00
00
03
32
1A
01
00
09
02
08
00
01
01
22
15
0D
00
0C
04
00
0E
00
0F
18
1D
18
0C
00
00
46
44
19
07
11
13
