07
00
00
00
00
00
00
00
00
00
00
00
00
02
00
00
15
00
01
00
00
00
00
00
00
00
00
00
00
00
00
00
00
00
00
00
00
00
00
00
00
00
00
00
00
00
00
25
00
00
00
00
00
00
00
00
00
00
00
00
00
00
00
08
00
00
00
00
00
00
00
00
00
00
00
00
00
00
00
00
00
00
00
00
00
00
00
00
00
00
00
00
00
01
01
00
00
00
00
00
00
00
00
00
00
00
00
00
00
01
00
00
00
00
00
00
00
00
00
00
00
00
00
00
00
00
00
3C
07
00
00
00
00
00
00
00
00
00
00
00
00
02
04
3A
41
0C
00
00
00
00
00
00
00
00
00
01
01
08
22
2D
16
00
00
0B
0B
04
00
00
00
00
00
03
04
0C
00
2C
00
00
00
0E
24
07
00
00
00
00
00
15
00
09
35
01
00
05
57
00
00
00
00
00
00
00
02
10
00
1A
21
29
0B
00
12
13
00
00
00
00
00
00
00
03
00
0E
0E
00
00
08
00
06
00
00
00
00
00
00
04
00
00
00
00
04
00
00
18
05
00
00
00
07
01
05
00
02
00
00
1F
00
07
00
00
00
00
00
00
00
00
00
00
00
00
02
00
00
15
00
01
00
00
00
00
00
00
00
00
00
00
00
00
00
00
00
00
00
00
00
00
00
00
00
00
00
00
00
00
25
00
00
00
00
00
00
00
00
00
00
00
00
00
00
00
08
00
00
00
00
00
00
00
00
00
00
00
00
00
00
00
00
00
00
00
00
00
00
00
00
00
00
00
00
00
01
01
00
00
00
00
00
00
00
00
00
00
00
00
00
00
01
00
00
00
00
00
00
00
00
00
00
00
00
00
00
00
00
00
3C
07
00
00
00
00
00
00
00
00
00
00
00
00
02
04
3A
41
0C
00
00
00
00
00
00
00
00
00
01
01
08
22
2D
16
00
00
0B
0B
04
00
00
00
00
00
03
04
0C
00
2C
00
00
00
0E
24
07
00
00
00
00
00
15
00
09
35
01
00
05
57
00
00
00
00
00
00
00
02
10
00
1A
21
29
0B
00
12
13
00
00
00
00
00
00
00
03
00
0E
0E
00
00
08
00
06
00
00
00
00
00
00
04
00
00
00
00
04
00
00
18
05
00
00
00
07
01
05
00
02
00
00
1F
00
07
00
00
00
00
00
00
00
00
00
00
00
00
01
00
00
0B
00
00
00
00
00
00
00
00
00
00
00
00
00
00
00
01
00
00
00
00
00
00
00
00
00
00
00
00
00
00
09
00
00
00
00
00
00
00
00
00
00
00
00
00
00
00
08
00
00
00
00
00
00
00
00
00
00
00
00
00
00
00
06
00
00
00
00
00
00
00
00
00
00
00
00
00
00
00
06
00
00
00
00
00
00
00
00
00
00
00
00
00
00
00
00
00
00
00
00
00
00
00
00
00
00
00
00
00
00
01
18
04
04
00
00
00
00
00
00
00
00
00
00
00
00
02
16
10
03
00
04
00
00
00
00
00
00
00
00
02
19
0B
1A
0E
02
01
06
07
02
00
00
00
00
00
01
07
02
03
0F
00
07
04
06
0C
01
00
00
00
00
00
0E
00
09
0E
00
00
04
15
00
00
00
00
00
00
00
01
07
00
04
0B
1D
05
00
07
0B
00
00
00
00
00
00
00
00
00
02
08
01
02
06
00
00
00
00
00
00
00
00
02
00
00
00
00
02
02
00
04
02
00
00
00
04
04
05
00
05
00
00
0D
00
07
00
00
00
00
00
00
00
00
00
00
00
00
01
00
00
0B
00
00
00
00
00
00
00
00
00
00
00
00
00
00
00
01
00
00
00
00
00
00
00
00
00
00
00
00
00
00
09
00
00
00
00
00
00
00
00
00
00
00
00
00
00
00
08
00
00
00
00
00
00
00
00
00
00
00
00
00
00
00
06
00
00
00
00
00
00
00
00
00
00
00
00
00
00
00
06
00
00
00
00
00
00
00
00
00
00
00
00
00
00
00
00
00
00
00
00
00
00
00
00
00
00
00
00
00
00
01
18
04
04
00
00
00
00
00
00
00
00
00
00
00
00
02
16
10
03
00
04
00
00
00
00
00
00
00
00
02
19
0B
1A
0E
02
01
06
07
02
00
00
00
00
00
01
07
02
03
0F
00
07
04
06
0C
01
00
00
00
00
00
0E
00
09
0E
00
00
04
15
00
00
00
00
00
00
00
01
07
00
04
0B
1D
05
00
07
0B
00
00
00
00
00
00
00
00
00
02
08
01
02
06
00
00
00
00
00
00
00
00
02
00
00
00
00
02
02
00
04
02
00
00
00
04
04
05
00
05
00
00
0D
00
07
00
02
00
00
00
00
00
00
00
00
00
01
02
00
01
0C
02
01
00
00
00
00
00
00
00
00
00
00
00
02
00
02
00
00
00
00
00
00
00
00
00
00
00
00
00
00
07
00
00
00
00
00
00
00
00
00
00
00
00
00
00
00
03
00
00
00
00
00
00
00
00
00
00
00
00
00
00
00
04
00
00
00
00
00
00
00
00
00
00
00
00
00
00
00
02
00
00
00
00
00
00
00
00
00
00
00
00
00
00
00
00
00
00
00
00
00
00
00
00
00
00
00
00
00
00
00
13
02
02
00
00
00
00
00
00
00
00
00
00
00
00
00
09
0E
03
00
02
00
00
00
00
00
00
00
00
01
0F
06
1A
0C
03
02
05
09
02
00
00
00
00
00
00
04
02
03
0C
01
08
07
06
0C
01
00
00
00
00
00
08
00
04
08
01
01
04
13
01
00
00
00
00
00
00
00
05
00
04
09
15
04
02
08
09
00
00
00
00
00
00
00
00
00
03
04
01
02
04
00
00
00
00
00
00
00
00
03
00
00
00
01
01
03
02
05
04
00
00
00
03
02
05
00
06
00
00
0C
00
07
00
02
00
00
00
00
00
00
00
00
00
01
02
00
01
0C
02
01
00
00
00
00
00
00
00
00
00
00
00
02
00
02
00
00
00
00
00
00
00
00
00
00
00
00
00
00
07
00
00
00
00
00
00
00
00
00
00
00
00
00
00
00
03
00
00
00
00
00
00
00
00
00
00
00
00
00
00
00
04
00
00
00
00
00
00
00
00
00
00
00
00
00
00
00
02
00
00
00
00
00
00
00
00
00
00
00
00
00
00
00
00
00
00
00
00
00
00
00
00
00
00
00
00
00
00
00
13
02
02
00
00
00
00
00
00
00
00
00
00
00
00
00
09
0E
03
00
02
00
00
00
00
00
00
00
00
01
0F
06
1A
0C
03
02
05
09
02
00
00
00
00
00
00
04
02
03
0C
01
08
07
06
0C
01
00
00
00
00
00
08
00
04
08
01
01
04
13
01
00
00
00
00
00
00
00
05
00
04
09
15
04
02
08
09
00
00
00
00
00
00
00
00
00
03
04
01
02
04
00
00
00
00
00
00
00
00
03
00
00
00
01
01
03
02
05
04
00
00
00
03
02
05
00
06
00
00
0C
00
01
00
00
00
00
00
00
00
00
00
00
00
03
01
00
00
07
01
00
00
00
00
00
00
00
00
00
00
00
00
00
00
02
00
00
00
00
00
00
00
00
00
00
00
00
00
00
05
00
00
00
00
00
00
00
00
00
00
00
00
00
00
00
04
00
00
00
00
00
00
00
00
00
00
00
00
00
00
00
02
00
00
00
00
00
00
00
00
00
00
00
00
00
00
00
02
00
00
00
00
00
00
00
00
00
00
00
00
00
00
00
00
00
00
00
00
00
00
00
00
00
00
00
00
00
00
00
0D
02
02
00
00
00
00
00
00
00
00
00
00
00
00
01
07
0C
04
00
07
00
00
00
00
00
00
00
00
00
0E
07
14
03
03
00
02
04
03
00
00
00
00
00
00
02
02
01
09
00
04
07
04
09
01
00
00
00
00
00
05
00
04
07
00
01
02
0E
01
00
00
00
00
00
00
00
04
00
03
04
12
03
01
05
08
00
00
00
00
00
00
00
00
00
01
06
01
03
02
00
00
00
00
00
00
00
00
02
00
00
00
00
01
02
00
01
03
00
00
00
03
03
04
00
03
00
00
0B
00
01
00
00
00
00
00
00
00
00
00
00
00
03
01
00
00
07
01
00
00
00
00
00
00
00
00
00
00
00
00
00
00
02
00
00
00
00
00
00
00
00
00
00
00
00
00
00
05
00
00
00
00
00
00
00
00
00
00
00
00
00
00
00
04
00
00
00
00
00
00
00
00
00
00
00
00
00
00
00
02
00
00
00
00
00
00
00
00
00
00
00
00
00
00
00
02
00
00
00
00
00
00
00
00
00
00
00
00
00
00
00
00
00
00
00
00
00
00
00
00
00
00
00
00
00
00
00
0D
02
02
00
00
00
00
00
00
00
00
00
00
00
00
01
07
0C
04
00
07
00
00
00
00
00
00
00
00
00
0E
07
14
03
03
00
02
04
03
00
00
00
00
00
00
02
02
01
09
00
04
07
04
09
01
00
00
00
00
00
05
00
04
07
00
01
02
0E
01
00
00
00
00
00
00
00
04
00
03
04
12
03
01
05
08
00
00
00
00
00
00
00
00
00
01
06
01
03
02
00
00
00
00
00
00
00
00
02
00
00
00
00
01
02
00
01
03
00
00
00
03
03
04
00
03
00
00
0B
00
03
00
00
00
00
00
00
00
00
00
01
00
02
01
00
00
07
01
00
00
00
00
00
00
00
00
00
00
00
07
01
00
02
00
00
00
00
00
00
00
00
00
00
00
00
01
02
04
00
00
00
00
00
00
00
00
00
00
00
00
00
00
00
08
00
00
00
00
00
00
00
00
00
00
00
00
00
00
00
09
00
00
00
00
00
00
00
00
00
00
00
00
00
00
00
01
00
00
00
00
00
00
00
00
01
00
00
00
00
00
00
00
00
00
00
00
00
00
00
00
00
00
00
00
00
00
00
0B
02
02
00
00
00
00
00
00
00
00
00
00
00
00
00
01
0A
03
01
08
00
00
00
00
00
00
00
00
00
0D
05
11
04
01
02
03
04
02
00
00
00
00
00
00
03
06
00
07
00
04
04
02
06
01
00
00
00
00
00
04
00
01
06
00
02
02
0E
00
00
00
00
00
00
00
00
03
00
02
04
0F
02
00
04
05
00
00
00
00
00
00
00
00
00
02
03
00
02
02
00
01
00
00
00
00
00
00
01
00
00
00
01
00
01
02
02
02
00
00
00
02
02
03
02
03
00
00
07
00
03
00
00
00
00
00
00
00
00
00
01
00
02
01
00
00
07
01
00
00
00
00
00
00
00
00
00
00
00
07
01
00
02
00
00
00
00
00
00
00
00
00
00
00
00
01
02
04
00
00
00
00
00
00
00
00
00
00
00
00
00
00
00
08
00
00
00
00
00
00
00
00
00
00
00
00
00
00
00
09
00
00
00
00
00
00
00
00
00
00
00
00
00
00
00
01
00
00
00
00
00
00
00
00
01
00
00
00
00
00
00
00
00
00
00
00
00
00
00
00
00
00
00
00
00
00
00
0B
02
02
00
00
00
00
00
00
00
00
00
00
00
00
00
01
0A
03
01
08
00
00
00
00
00
00
00
00
00
0D
05
11
04
01
02
03
04
02
00
00
00
00
00
00
03
06
00
07
00
04
04
02
06
01
00
00
00
00
00
04
00
01
06
00
02
02
0E
00
00
00
00
00
00
00
00
03
00
02
04
0F
02
00
04
05
00
00
00
00
00
00
00
00
00
02
03
00
02
02
00
01
00
00
00
00
00
00
01
00
00
00
01
00
01
02
02
02
00
00
00
02
02
03
02
03
00
00
07
00
07
00
00
00
00
00
00
00
00
00
01
01
02
00
00
04
05
00
00
00
00
00
00
00
00
00
00
00
01
09
00
00
00
00
00
00
00
00
00
00
00
00
00
00
00
01
02
03
00
00
00
00
00
00
00
00
00
00
00
00
00
00
01
05
00
00
00
00
00
00
00
00
00
00
00
00
00
00
01
02
00
00
00
00
00
00
00
00
00
00
00
00
00
00
00
04
00
00
00
00
00
00
00
00
00
00
00
00
00
00
00
00
00
00
00
00
00
00
00
00
00
00
00
00
00
00
01
0B
01
01
00
00
00
00
00
00
00
00
00
00
00
01
02
05
07
01
01
07
00
00
00
00
00
00
00
00
00
07
05
13
02
02
02
02
06
02
00
00
00
00
00
00
04
04
00
04
00
01
02
00
04
01
00
00
00
00
00
02
00
02
04
00
02
03
0B
00
00
00
00
00
00
00
00
02
00
04
03
0C
02
00
02
04
00
00
00
00
00
00
00
00
00
01
04
00
01
02
00
00
00
00
00
00
00
00
01
00
00
00
02
00
00
02
04
00
00
00
00
02
02
02
04
04
00
00
08
00
07
00
00
00
00
00
00
00
00
00
01
01
02
00
00
04
05
00
00
00
00
00
00
00
00
00
00
00
01
09
00
00
00
00
00
00
00
00
00
00
00
00
00
00
00
01
02
03
00
00
00
00
00
00
00
00
00
00
00
00
00
00
01
05
00
00
00
00
00
00
00
00
00
00
00
00
00
00
01
02
00
00
00
00
00
00
00
00
00
00
00
00
00
00
00
04
00
00
00
00
00
00
00
00
00
00
00
00
00
00
00
00
00
00
00
00
00
00
00
00
00
00
00
00
00
00
01
0B
01
01
00
00
00
00
00
00
00
00
00
00
00
01
02
05
07
01
01
07
00
00
00
00
00
00
00
00
00
07
05
13
02
02
02
02
06
02
00
00
00
00
00
00
04
04
00
04
00
01
02
00
04
01
00
00
00
00
00
02
00
02
04
00
02
03
0B
00
00
00
00
00
00
00
00
02
00
04
03
0C
02
00
02
04
00
00
00
00
00
00
00
00
00
01
04
00
01
02
00
00
00
00
00
00
00
00
01
00
00
00
02
00
00
02
04
00
00
00
00
02
02
02
04
04
00
00
08
00
02
00
00
00
00
04
00
00
00
00
02
01
03
01
00
02
04
00
02
00
01
01
00
00
00
00
06
02
02
05
00
00
02
00
00
00
00
02
00
00
00
00
02
01
00
01
01
03
00
00
00
00
00
00
00
00
00
00
00
00
00
00
02
02
00
00
00
00
00
00
00
00
00
00
00
00
00
00
01
03
00
00
00
00
00
00
00
00
00
00
00
00
00
00
01
02
00
00
00
00
00
00
00
00
00
00
00
00
00
00
00
00
00
00
00
00
00
00
00
00
00
00
00
00
00
00
01
07
01
00
00
00
00
00
00
00
00
00
00
00
00
01
02
07
07
01
01
06
00
00
00
00
00
00
00
00
01
07
0B
09
02
01
02
01
02
02
00
00
00
00
00
00
02
04
00
03
00
02
00
01
06
01
00
00
00
00
00
02
00
03
03
00
01
02
09
00
00
00
00
00
00
00
00
02
00
02
04
04
01
00
02
02
00
00
00
00
00
00
00
02
01
02
02
00
01
02
00
01
00
00
00
00
00
00
01
00
00
00
00
00
00
00
04
00
00
00
00
02
02
02
02
06
00
00
02
00
02
00
00
00
00
04
00
00
00
00
02
01
03
01
00
02
04
00
02
00
01
01
00
00
00
00
06
02
02
05
00
00
02
00
00
00
00
02
00
00
00
00
02
01
00
01
01
03
00
00
00
00
00
00
00
00
00
00
00
00
00
00
02
02
00
00
00
00
00
00
00
00
00
00
00
00
00
00
01
03
00
00
00
00
00
00
00
00
00
00
00
00
00
00
01
02
00
00
00
00
00
00
00
00
00
00
00
00
00
00
00
00
00
00
00
00
00
00
00
00
00
00
00
00
00
00
01
07
01
00
00
00
00
00
00
00
00
00
00
00
00
01
02
07
07
01
01
06
00
00
00
00
00
00
00
00
01
07
0B
09
02
01
02
01
02
02
00
00
00
00
00
00
02
04
00
03
00
02
00
01
06
01
00
00
00
00
00
02
00
03
03
00
01
02
09
00
00
00
00
00
00
00
00
02
00
02
04
04
01
00
02
02
00
00
00
00
00
00
00
02
01
02
02
00
01
02
00
01
00
00
00
00
00
00
01
00
00
00
00
00
00
00
04
00
00
00
00
02
02
02
02
06
00
00
02
00
00
00
00
35
00
00
5F
31
00
41
00
00
4E
1F
23
0B
3A
00
04
00
00
09
2B
14
00
00
03
00
32
24
06
24
1C
17
00
00
00
00
00
02
00
00
04
24
09
00
00
1F
2A
00
00
00
00
00
28
5D
2D
00
23
00
31
1A
00
0F
00
18
18
00
0B
4F
0A
1A
00
00
00
44
1D
0E
00
00
07
00
08
00
00
00
00
2B
00
0F
00
0B
00
47
00
00
27
36
33
27
00
08
00
00
07
23
10
00
04
1D
00
00
5C
48
00
16
00
15
00
00
00
19
40
1F
02
00
36
1B
00
00
00
00
11
1E
00
00
01
18
00
00
12
00
00
00
00
2D
00
15
00
11
10
00
00
00
04
00
00
00
34
00
15
00
2F
22
00
07
10
27
0F
24
00
00
00
2D
00
00
00
31
00
27
19
18
07
00
3E
00
00
1E
00
00
3C
00
00
02
00
35
29
00
00
00
00
00
00
00
00
45
41
1A
00
00
00
1D
02
19
02
00
00
00
61
18
00
0C
1F
00
00
23
15
07
00
00
2F
29
00
1D
00
35
1E
00
22
26
4F
04
00
02
00
13
00
0C
00
15
00
00
2E
2B
00
03
00
00
00
35
00
00
5F
31
00
41
00
00
4E
1F
23
0B
3A
00
04
00
00
09
2B
14
00
00
03
00
32
24
06
24
1C
17
00
00
00
00
00
02
00
00
04
24
09
00
00
1F
2A
00
00
00
00
00
28
5D
2D
00
23
00
31
1A
00
0F
00
18
18
00
0B
4F
0A
1A
00
00
00
44
1D
0E
00
00
07
00
08
00
00
00
00
2B
00
0F
00
0B
00
47
00
00
27
36
33
27
00
08
00
00
07
23
10
00
04
1D
00
00
5C
48
00
16
00
15
00
00
00
19
40
1F
02
00
36
1B
00
00
00
00
11
1E
00
00
01
18
00
00
12
00
00
00
00
2D
00
15
00
11
10
00
00
00
04
00
00
00
34
00
15
00
2F
22
00
07
10
27
0F
24
00
00
00
2D
00
00
00
31
00
27
19
18
07
00
3E
00
00
1E
00
00
3C
00
00
02
00
35
29
00
00
00
00
00
00
00
00
45
41
1A
00
00
00
1D
02
19
02
00
00
00
61
18
00
0C
1F
00
00
23
15
07
00
00
2F
29
00
1D
00
35
1E
00
22
26
4F
04
00
02
00
13
00
0C
00
15
00
00
2E
2B
00
03
