00
2B
11
00
00
00
00
00
00
00
00
00
00
07
00
00
23
01
00
00
00
00
00
00
00
00
00
00
00
00
0E
0C
15
00
00
00
00
00
00
00
00
00
00
00
00
00
00
00
00
00
00
00
00
00
00
00
00
00
00
00
00
00
00
00
02
00
00
00
00
00
00
00
00
00
00
00
00
00
00
00
00
00
00
00
00
00
00
00
00
00
00
00
00
00
00
00
00
00
00
00
00
00
00
00
00
00
00
00
00
00
00
00
00
00
00
00
00
00
00
00
00
00
00
00
00
00
00
00
00
00
00
00
00
00
00
00
00
00
00
00
00
00
00
00
00
22
3C
20
00
00
01
00
00
00
00
00
00
00
00
00
14
02
0E
0A
07
00
02
01
00
00
00
00
2A
07
00
00
02
03
11
04
00
07
02
00
00
00
00
04
00
0E
00
00
00
00
2E
10
06
01
02
00
00
00
00
00
08
06
00
00
00
00
00
00
02
00
02
02
00
00
02
12
09
00
00
01
1C
09
00
00
04
01
04
00
00
01
10
07
04
00
07
00
00
1D
00
0B
0D
0D
10
03
00
00
2B
34
0C
01
00
0E
00
2B
11
00
00
00
00
00
00
00
00
00
00
07
00
00
23
01
00
00
00
00
00
00
00
00
00
00
00
00
0E
0C
15
00
00
00
00
00
00
00
00
00
00
00
00
00
00
00
00
00
00
00
00
00
00
00
00
00
00
00
00
00
00
00
02
00
00
00
00
00
00
00
00
00
00
00
00
00
00
00
00
00
00
00
00
00
00
00
00
00
00
00
00
00
00
00
00
00
00
00
00
00
00
00
00
00
00
00
00
00
00
00
00
00
00
00
00
00
00
00
00
00
00
00
00
00
00
00
00
00
00
00
00
00
00
00
00
00
00
00
00
00
00
00
00
22
3C
20
00
00
01
00
00
00
00
00
00
00
00
00
14
02
0E
0A
07
00
02
01
00
00
00
00
2A
07
00
00
02
03
11
04
00
07
02
00
00
00
00
04
00
0E
00
00
00
00
2E
10
06
01
02
00
00
00
00
00
08
06
00
00
00
00
00
00
02
00
02
02
00
00
02
12
09
00
00
01
1C
09
00
00
04
01
04
00
00
01
10
07
04
00
07
00
00
1D
00
0B
0D
0D
10
03
00
00
2B
34
0C
01
00
0E
00
0C
01
01
00
00
00
00
00
00
00
00
00
02
00
00
1F
01
00
00
00
00
00
00
00
00
00
00
00
00
02
04
07
00
00
00
00
00
00
00
00
00
00
00
00
00
00
00
00
00
00
00
00
00
00
00
00
00
00
00
00
00
00
00
00
00
00
00
00
00
00
00
00
00
00
00
00
00
00
0D
00
00
00
00
00
00
00
00
00
00
00
00
00
00
00
00
00
00
00
00
00
00
00
00
00
00
00
00
00
00
00
00
00
00
00
00
00
00
00
00
00
00
00
00
00
00
00
06
00
00
00
00
00
00
00
00
00
00
00
00
00
00
00
00
00
0C
18
27
00
01
00
00
00
00
00
00
00
00
00
05
02
00
0A
09
0B
00
00
00
00
00
00
00
13
09
01
0B
00
00
0E
00
0C
02
00
00
00
00
00
07
00
04
00
00
00
00
1D
04
04
00
00
00
00
00
00
03
06
00
00
00
00
00
09
00
00
00
00
00
00
00
00
0C
06
00
00
00
10
09
00
00
01
00
02
00
00
00
09
06
03
00
08
00
00
06
00
04
05
06
09
02
00
00
08
1F
07
03
00
05
00
0C
01
01
00
00
00
00
00
00
00
00
00
02
00
00
1F
01
00
00
00
00
00
00
00
00
00
00
00
00
02
04
07
00
00
00
00
00
00
00
00
00
00
00
00
00
00
00
00
00
00
00
00
00
00
00
00
00
00
00
00
00
00
00
00
00
00
00
00
00
00
00
00
00
00
00
00
00
00
0D
00
00
00
00
00
00
00
00
00
00
00
00
00
00
00
00
00
00
00
00
00
00
00
00
00
00
00
00
00
00
00
00
00
00
00
00
00
00
00
00
00
00
00
00
00
00
00
06
00
00
00
00
00
00
00
00
00
00
00
00
00
00
00
00
00
0C
18
27
00
01
00
00
00
00
00
00
00
00
00
05
02
00
0A
09
0B
00
00
00
00
00
00
00
13
09
01
0B
00
00
0E
00
0C
02
00
00
00
00
00
07
00
04
00
00
00
00
1D
04
04
00
00
00
00
00
00
03
06
00
00
00
00
00
09
00
00
00
00
00
00
00
00
0C
06
00
00
00
10
09
00
00
01
00
02
00
00
00
09
06
03
00
08
00
00
06
00
04
05
06
09
02
00
00
08
1F
07
03
00
05
09
04
00
00
00
00
00
00
00
00
00
00
00
02
00
00
09
00
00
00
00
00
00
00
00
00
00
00
00
00
00
02
00
00
00
00
00
00
00
00
00
00
00
00
00
00
00
00
00
00
00
00
00
00
00
00
00
00
00
00
00
00
00
00
00
00
00
00
00
00
00
00
00
00
00
00
00
00
00
07
00
00
00
00
00
00
00
00
00
00
00
00
00
00
00
00
00
00
00
00
00
00
00
00
00
00
00
00
00
00
00
02
00
00
00
00
00
00
00
00
00
00
00
00
00
00
00
00
00
00
00
00
00
00
00
00
00
00
00
00
00
00
00
00
00
0C
17
22
00
02
01
00
00
00
00
00
00
00
00
00
00
00
08
03
0C
01
01
00
00
00
00
00
04
06
01
07
00
00
00
00
07
01
01
00
00
00
00
05
00
00
00
00
01
00
16
01
02
00
00
00
00
00
00
03
05
00
00
00
00
00
02
01
00
00
00
00
00
00
00
0B
06
02
00
00
0B
05
00
00
01
00
02
00
00
00
06
04
03
00
09
00
00
00
00
02
04
04
07
00
00
00
02
14
05
02
00
03
09
04
00
00
00
00
00
00
00
00
00
00
00
02
00
00
09
00
00
00
00
00
00
00
00
00
00
00
00
00
00
02
00
00
00
00
00
00
00
00
00
00
00
00
00
00
00
00
00
00
00
00
00
00
00
00
00
00
00
00
00
00
00
00
00
00
00
00
00
00
00
00
00
00
00
00
00
00
00
07
00
00
00
00
00
00
00
00
00
00
00
00
00
00
00
00
00
00
00
00
00
00
00
00
00
00
00
00
00
00
00
02
00
00
00
00
00
00
00
00
00
00
00
00
00
00
00
00
00
00
00
00
00
00
00
00
00
00
00
00
00
00
00
00
00
0C
17
22
00
02
01
00
00
00
00
00
00
00
00
00
00
00
08
03
0C
01
01
00
00
00
00
00
04
06
01
07
00
00
00
00
07
01
01
00
00
00
00
05
00
00
00
00
01
00
16
01
02
00
00
00
00
00
00
03
05
00
00
00
00
00
02
01
00
00
00
00
00
00
00
0B
06
02
00
00
0B
05
00
00
01
00
02
00
00
00
06
04
03
00
09
00
00
00
00
02
04
04
07
00
00
00
02
14
05
02
00
03
0F
03
00
00
00
00
00
00
00
00
00
00
04
01
00
00
02
00
00
00
00
00
00
00
00
00
00
00
00
00
00
02
00
00
00
00
00
00
00
00
00
00
00
00
00
00
00
00
01
00
00
00
00
00
00
00
00
00
00
00
00
00
00
00
00
00
00
00
00
00
00
00
00
00
00
00
00
00
00
02
00
00
00
00
00
00
00
00
00
00
00
00
00
00
00
00
00
00
00
00
00
00
00
00
00
00
00
00
00
00
00
00
00
00
00
00
00
00
00
00
00
00
00
00
00
00
00
00
00
00
00
00
00
00
01
00
00
00
00
00
00
00
00
00
00
0A
10
13
00
02
01
00
00
00
00
00
00
00
00
00
00
00
05
02
0B
05
01
01
00
00
00
00
04
03
00
05
00
00
00
00
09
02
01
00
00
00
00
04
02
00
00
00
00
01
11
02
02
00
00
00
00
00
00
03
04
00
00
00
00
00
02
02
01
00
01
01
00
00
01
09
04
02
00
00
0B
04
00
00
04
01
02
00
00
00
05
05
02
00
09
00
00
03
00
02
04
04
07
00
00
00
00
0E
05
00
00
02
0F
03
00
00
00
00
00
00
00
00
00
00
04
01
00
00
02
00
00
00
00
00
00
00
00
00
00
00
00
00
00
02
00
00
00
00
00
00
00
00
00
00
00
00
00
00
00
00
01
00
00
00
00
00
00
00
00
00
00
00
00
00
00
00
00
00
00
00
00
00
00
00
00
00
00
00
00
00
00
02
00
00
00
00
00
00
00
00
00
00
00
00
00
00
00
00
00
00
00
00
00
00
00
00
00
00
00
00
00
00
00
00
00
00
00
00
00
00
00
00
00
00
00
00
00
00
00
00
00
00
00
00
00
00
01
00
00
00
00
00
00
00
00
00
00
0A
10
13
00
02
01
00
00
00
00
00
00
00
00
00
00
00
05
02
0B
05
01
01
00
00
00
00
04
03
00
05
00
00
00
00
09
02
01
00
00
00
00
04
02
00
00
00
00
01
11
02
02
00
00
00
00
00
00
03
04
00
00
00
00
00
02
02
01
00
01
01
00
00
01
09
04
02
00
00
0B
04
00
00
04
01
02
00
00
00
05
05
02
00
09
00
00
03
00
02
04
04
07
00
00
00
00
0E
05
00
00
02
08
02
01
00
00
00
00
00
00
00
00
00
03
02
00
02
07
01
00
00
00
00
00
00
00
00
00
00
00
04
00
00
00
00
00
00
00
00
00
00
00
00
00
00
00
00
02
00
02
00
00
00
00
00
00
00
00
00
00
00
00
00
00
00
00
00
00
00
00
00
00
00
00
00
00
00
00
00
00
00
00
00
00
00
00
00
00
00
00
00
00
00
00
00
00
00
00
00
00
00
00
00
00
00
00
00
00
00
00
00
00
00
00
00
00
00
00
00
00
00
00
00
00
00
00
00
00
00
00
00
00
00
00
00
00
00
00
00
00
00
00
00
00
00
00
0A
13
15
00
02
00
00
00
00
00
00
00
00
00
00
00
00
03
02
08
03
01
01
00
00
00
00
06
00
00
04
00
00
00
07
04
04
02
00
00
00
00
04
01
00
00
00
02
00
12
00
03
01
00
00
00
00
00
04
02
00
00
00
00
00
00
01
02
00
01
01
00
00
00
07
04
02
00
00
05
02
00
00
04
00
01
00
00
00
04
04
02
00
04
00
00
00
00
01
04
04
05
00
01
00
06
0F
04
01
00
02
08
02
01
00
00
00
00
00
00
00
00
00
03
02
00
02
07
01
00
00
00
00
00
00
00
00
00
00
00
04
00
00
00
00
00
00
00
00
00
00
00
00
00
00
00
00
02
00
02
00
00
00
00
00
00
00
00
00
00
00
00
00
00
00
00
00
00
00
00
00
00
00
00
00
00
00
00
00
00
00
00
00
00
00
00
00
00
00
00
00
00
00
00
00
00
00
00
00
00
00
00
00
00
00
00
00
00
00
00
00
00
00
00
00
00
00
00
00
00
00
00
00
00
00
00
00
00
00
00
00
00
00
00
00
00
00
00
00
00
00
00
00
00
00
00
0A
13
15
00
02
00
00
00
00
00
00
00
00
00
00
00
00
03
02
08
03
01
01
00
00
00
00
06
00
00
04
00
00
00
07
04
04
02
00
00
00
00
04
01
00
00
00
02
00
12
00
03
01
00
00
00
00
00
04
02
00
00
00
00
00
00
01
02
00
01
01
00
00
00
07
04
02
00
00
05
02
00
00
04
00
01
00
00
00
04
04
02
00
04
00
00
00
00
01
04
04
05
00
01
00
06
0F
04
01
00
02
04
01
00
00
00
00
00
00
00
00
00
00
03
01
00
00
01
00
00
00
00
00
00
00
00
00
00
00
00
00
02
02
00
00
00
00
00
00
00
00
00
00
00
00
00
00
01
00
04
00
00
00
00
00
00
00
00
00
00
00
00
00
00
00
00
00
00
00
00
00
00
00
00
00
00
00
00
00
00
00
00
00
00
00
00
00
00
00
00
00
00
00
00
00
00
02
00
00
00
00
00
00
00
00
00
00
00
00
00
00
00
00
00
00
00
00
00
00
00
00
00
00
00
00
00
00
00
00
00
00
00
00
00
00
00
00
00
00
00
00
00
00
00
00
00
04
0C
05
00
01
00
00
00
00
00
00
00
00
00
02
00
00
04
02
04
03
01
00
00
00
00
00
02
00
01
02
00
00
00
04
02
04
02
00
00
00
00
03
01
02
00
00
00
00
0C
00
02
01
00
00
00
00
00
03
01
00
00
00
00
00
00
02
01
01
01
01
00
00
00
04
02
01
00
00
00
02
00
00
04
00
01
00
00
00
04
05
02
00
02
00
00
03
00
01
03
03
05
01
04
01
09
12
07
00
00
00
04
01
00
00
00
00
00
00
00
00
00
00
03
01
00
00
01
00
00
00
00
00
00
00
00
00
00
00
00
00
02
02
00
00
00
00
00
00
00
00
00
00
00
00
00
00
01
00
04
00
00
00
00
00
00
00
00
00
00
00
00
00
00
00
00
00
00
00
00
00
00
00
00
00
00
00
00
00
00
00
00
00
00
00
00
00
00
00
00
00
00
00
00
00
00
02
00
00
00
00
00
00
00
00
00
00
00
00
00
00
00
00
00
00
00
00
00
00
00
00
00
00
00
00
00
00
00
00
00
00
00
00
00
00
00
00
00
00
00
00
00
00
00
00
00
04
0C
05
00
01
00
00
00
00
00
00
00
00
00
02
00
00
04
02
04
03
01
00
00
00
00
00
02
00
01
02
00
00
00
04
02
04
02
00
00
00
00
03
01
02
00
00
00
00
0C
00
02
01
00
00
00
00
00
03
01
00
00
00
00
00
00
02
01
01
01
01
00
00
00
04
02
01
00
00
00
02
00
00
04
00
01
00
00
00
04
05
02
00
02
00
00
03
00
01
03
03
05
01
04
01
09
12
07
00
00
00
03
00
03
02
02
00
00
00
00
00
01
00
03
02
00
09
05
01
01
00
01
00
00
00
00
00
00
00
02
04
03
02
00
02
00
00
00
00
00
00
00
00
00
00
00
00
02
00
09
00
00
00
00
00
00
00
00
00
00
00
00
00
01
00
00
00
00
00
00
01
00
00
00
00
00
00
00
00
00
00
00
00
00
00
00
00
00
00
00
00
00
00
00
00
00
01
00
00
00
00
00
00
00
00
00
00
00
00
00
00
00
00
00
00
00
00
00
00
00
00
00
00
00
00
00
00
00
00
00
00
00
00
00
00
00
00
00
00
00
00
00
00
01
00
04
05
08
07
00
00
00
00
00
00
00
00
00
00
03
05
05
00
00
02
04
02
01
00
00
00
00
00
02
06
00
00
00
04
02
02
02
02
01
00
00
00
00
02
0F
02
00
00
03
02
07
02
01
00
00
00
00
00
00
01
00
02
01
00
01
00
02
04
00
00
01
01
00
00
00
07
03
01
01
00
02
00
00
00
02
00
01
00
00
00
04
06
02
00
02
00
00
04
00
04
02
03
04
02
04
01
06
0F
07
00
06
01
03
00
03
02
02
00
00
00
00
00
01
00
03
02
00
09
05
01
01
00
01
00
00
00
00
00
00
00
02
04
03
02
00
02
00
00
00
00
00
00
00
00
00
00
00
00
02
00
09
00
00
00
00
00
00
00
00
00
00
00
00
00
01
00
00
00
00
00
00
01
00
00
00
00
00
00
00
00
00
00
00
00
00
00
00
00
00
00
00
00
00
00
00
00
00
01
00
00
00
00
00
00
00
00
00
00
00
00
00
00
00
00
00
00
00
00
00
00
00
00
00
00
00
00
00
00
00
00
00
00
00
00
00
00
00
00
00
00
00
00
00
00
01
00
04
05
08
07
00
00
00
00
00
00
00
00
00
00
03
05
05
00
00
02
04
02
01
00
00
00
00
00
02
06
00
00
00
04
02
02
02
02
01
00
00
00
00
02
0F
02
00
00
03
02
07
02
01
00
00
00
00
00
00
01
00
02
01
00
01
00
02
04
00
00
01
01
00
00
00
07
03
01
01
00
02
00
00
00
02
00
01
00
00
00
04
06
02
00
02
00
00
04
00
04
02
03
04
02
04
01
06
0F
07
00
06
01
00
1A
0C
41
0C
04
00
31
18
16
4C
0D
00
00
00
21
0E
00
00
17
27
2A
00
3B
00
00
00
3E
2A
0B
27
00
31
00
08
13
00
07
00
14
00
20
00
00
00
38
00
00
29
1A
1A
0F
00
00
00
0F
2F
00
55
00
00
4B
00
00
00
11
00
5C
00
1A
2A
00
00
00
19
00
00
28
00
00
00
00
00
13
02
00
00
00
00
00
0B
00
27
00
10
37
00
00
05
00
00
00
35
31
00
00
18
00
00
38
0C
00
0F
17
00
00
15
00
0D
00
00
00
00
2B
22
35
00
1D
56
13
3A
00
1D
00
00
2B
0D
0C
24
06
18
00
00
00
00
00
00
28
30
00
00
00
00
02
41
03
00
00
00
00
00
38
00
00
00
1A
00
00
16
22
00
00
00
00
02
11
00
52
35
34
00
00
00
00
00
02
00
00
60
28
09
00
04
45
1F
00
08
00
2C
00
00
29
00
33
00
00
00
00
17
1F
28
26
00
00
00
0E
07
18
00
09
00
00
09
00
00
40
2B
00
00
00
00
00
2E
2D
0B
21
00
27
00
00
00
00
26
0E
00
00
38
00
1A
00
00
3F
1F
00
0D
35
00
1A
0C
41
0C
04
00
31
18
16
4C
0D
00
00
00
21
0E
00
00
17
27
2A
00
3B
00
00
00
3E
2A
0B
27
00
31
00
08
13
00
07
00
14
00
20
00
00
00
38
00
00
29
1A
1A
0F
00
00
00
0F
2F
00
55
00
00
4B
00
00
00
11
00
5C
00
1A
2A
00
00
00
19
00
00
28
00
00
00
00
00
13
02
00
00
00
00
00
0B
00
27
00
10
37
00
00
05
00
00
00
35
31
00
00
18
00
00
38
0C
00
0F
17
00
00
15
00
0D
00
00
00
00
2B
22
35
00
1D
56
13
3A
00
1D
00
00
2B
0D
0C
24
06
18
00
00
00
00
00
00
28
30
00
00
00
00
02
41
03
00
00
00
00
00
38
00
00
00
1A
00
00
16
22
00
00
00
00
02
11
00
52
35
34
00
00
00
00
00
02
00
00
60
28
09
00
04
45
1F
00
08
00
2C
00
00
29
00
33
00
00
00
00
17
1F
28
26
00
00
00
0E
07
18
00
09
00
00
09
00
00
40
2B
00
00
00
00
00
2E
2D
0B
21
00
27
00
00
00
00
26
0E
00
00
38
00
1A
00
00
3F
1F
00
0D
35
