0B
53
26
00
00
00
00
00
00
00
00
00
00
00
12
00
18
00
02
00
00
00
00
00
00
00
00
00
00
00
18
0D
34
01
00
00
00
00
00
00
00
00
00
00
00
00
00
00
01
00
00
00
00
00
00
00
00
00
00
00
00
00
00
00
04
00
00
00
00
00
00
00
00
00
00
00
00
00
00
00
00
00
00
00
00
00
00
00
00
00
00
00
00
00
00
00
00
00
00
00
00
01
00
00
00
00
00
00
00
00
00
00
00
00
00
00
00
00
00
00
00
00
00
00
00
00
00
00
00
00
00
00
00
00
02
00
00
00
00
00
00
00
00
00
00
15
6E
23
01
00
02
01
00
00
00
00
00
00
00
00
17
00
0A
15
26
02
03
03
00
00
00
00
34
1A
09
00
02
22
1E
0E
00
0E
06
01
00
00
00
00
00
1D
00
00
0B
13
71
11
0F
03
04
01
00
00
00
00
16
21
00
00
00
08
00
05
06
01
04
03
02
01
04
25
15
00
00
05
28
18
09
00
0B
02
07
00
02
02
19
0F
0D
00
00
01
00
1A
00
09
22
26
1C
0A
00
00
58
56
1B
00
0A
12
13
22
0B
00
00
00
00
00
00
00
00
00
00
03
05
00
19
00
01
00
00
00
00
00
00
00
00
00
00
00
04
02
1B
00
00
00
00
00
00
00
00
00
00
00
00
00
01
00
00
00
00
00
00
00
00
00
00
00
00
00
00
00
00
00
02
00
00
00
00
00
00
00
00
00
00
00
00
00
00
00
00
00
00
00
00
00
00
00
00
00
00
00
00
00
00
00
00
00
00
00
00
00
00
00
00
00
00
00
00
00
00
00
01
00
00
00
00
01
00
00
00
00
00
00
00
00
00
01
00
05
00
00
00
01
02
00
00
00
00
00
00
00
00
00
00
0C
56
1D
02
03
02
01
00
00
00
01
00
00
00
00
10
06
0A
15
29
01
01
01
00
00
00
00
28
1E
0A
0F
01
1F
13
03
0E
04
02
00
00
00
00
04
00
18
00
01
0E
07
41
0B
0B
00
01
01
00
00
00
0A
11
0E
00
00
00
10
05
04
02
00
02
01
01
00
02
1B
10
00
00
04
16
1A
04
00
06
01
04
00
00
01
19
0E
0A
00
00
01
00
11
00
00
14
19
16
09
00
00
29
59
13
03
04
0C
0C
1A
04
00
00
00
00
00
00
00
00
00
00
02
04
02
1F
00
00
00
00
00
00
00
00
00
00
00
00
00
05
08
0D
00
00
00
00
00
00
00
00
00
00
00
00
00
00
00
00
00
00
00
00
00
00
00
00
00
00
00
00
00
00
0C
01
00
00
00
00
00
00
00
00
00
00
00
00
00
00
00
00
00
00
00
00
00
00
00
00
00
00
00
00
00
00
00
00
00
00
00
00
00
00
00
00
00
00
00
00
00
00
00
00
00
00
00
00
01
00
00
00
00
00
00
00
00
00
0B
00
05
00
00
00
01
01
00
00
00
00
00
00
00
00
00
00
0C
45
26
01
02
01
01
00
00
00
00
02
00
00
00
02
07
10
15
27
02
01
01
00
00
00
00
15
13
0C
10
02
1A
0B
00
15
02
01
00
00
00
00
06
00
09
00
01
06
08
32
06
0A
00
01
00
00
00
00
0A
10
00
00
00
00
10
0A
0E
01
00
02
01
01
00
02
18
0E
00
00
02
16
16
01
00
05
00
04
00
00
00
11
0D
0A
00
04
01
00
0A
00
02
10
13
13
0C
00
00
1D
44
12
05
00
0A
16
13
02
00
00
00
00
00
00
00
00
00
00
02
01
01
17
00
00
00
00
00
00
00
00
00
00
00
00
00
05
07
09
00
00
00
00
00
00
00
00
00
00
00
00
00
00
00
00
00
00
00
00
00
00
00
00
00
00
00
00
00
00
0B
01
00
00
00
00
00
00
00
00
00
00
00
00
00
00
06
00
00
00
00
00
00
00
00
00
00
00
00
00
00
00
00
00
00
00
00
00
00
00
00
00
00
00
00
00
00
00
03
00
00
00
00
00
01
00
00
00
00
00
00
00
00
00
02
00
06
00
00
00
01
01
00
00
00
00
00
00
00
00
00
01
0B
3E
30
00
02
01
01
00
00
00
00
01
00
00
04
00
02
0E
0F
25
03
01
01
00
00
00
00
10
12
0C
11
02
22
0C
03
15
02
01
00
00
01
00
08
00
03
00
01
06
0B
2E
05
09
00
01
00
00
00
00
0B
0F
00
00
00
00
0C
0A
10
01
00
02
01
01
00
02
16
0E
00
00
01
19
0D
00
00
04
01
04
00
00
00
10
0E
09
00
04
01
00
06
00
07
10
11
12
0D
02
00
19
3B
11
05
00
0A
1A
10
01
00
00
00
00
00
00
00
00
00
00
01
00
01
13
02
00
00
00
00
00
00
00
00
00
00
00
00
02
0A
02
00
00
00
00
00
00
00
00
00
00
00
00
00
00
00
01
00
00
00
00
00
00
00
00
00
00
00
00
00
00
07
01
00
00
00
00
00
00
00
00
00
00
00
00
00
00
0B
00
00
00
00
00
00
00
00
00
00
00
00
00
00
00
00
00
00
00
00
00
00
00
00
00
00
00
00
00
00
00
04
00
00
00
00
00
01
00
00
00
00
00
00
00
00
00
02
00
05
00
00
00
01
02
01
00
00
00
00
00
00
01
00
03
09
3B
2E
00
02
01
01
00
00
00
00
01
00
00
08
01
00
0B
0C
1A
07
01
01
00
00
00
00
05
0B
09
0E
01
15
04
00
17
03
01
00
00
01
00
08
00
03
00
01
00
0B
2F
03
08
01
01
00
00
00
00
0C
0E
00
00
00
00
05
07
0D
01
01
02
01
01
01
02
15
0E
02
00
01
15
06
00
00
04
01
04
00
00
00
0F
0C
09
02
0D
01
00
04
00
02
10
10
11
0A
01
00
16
44
10
06
00
09
1B
0E
00
00
00
00
00
00
00
00
00
00
01
03
00
00
09
02
00
00
00
00
00
00
00
00
00
00
00
00
00
0A
04
00
00
00
00
00
00
00
00
00
00
00
00
00
00
01
00
00
00
00
00
00
00
00
00
00
00
00
00
00
00
03
01
00
00
00
00
00
00
00
00
00
00
00
00
00
00
09
00
00
00
00
00
00
00
00
00
00
00
00
00
00
00
00
00
00
00
00
00
00
00
00
00
00
00
00
00
00
00
03
00
00
00
00
00
01
01
00
00
00
00
00
00
00
00
00
00
02
00
00
00
01
02
01
00
00
00
00
00
00
01
00
00
0A
3B
2B
00
02
02
01
00
00
00
00
00
00
00
00
04
00
0C
08
1E
07
01
01
00
01
00
00
04
0A
0A
0E
01
14
00
00
17
03
01
00
00
01
00
07
03
00
01
01
00
0C
31
00
06
01
01
01
01
01
00
0B
0C
00
00
00
00
04
04
08
02
01
02
01
01
01
02
15
0D
02
00
00
11
08
00
00
05
01
04
00
00
00
0E
0B
09
03
0D
01
00
03
00
02
0F
0F
10
0E
00
00
0D
42
0F
05
00
07
1F
0F
00
00
00
00
00
00
00
00
00
00
01
02
00
00
02
01
00
00
00
00
00
00
00
00
00
00
00
00
00
05
00
00
00
00
00
00
00
00
00
00
00
00
00
00
00
00
01
00
00
00
00
00
00
00
00
00
00
00
00
00
00
00
01
00
00
00
00
00
00
00
00
00
00
00
00
00
00
07
00
00
00
00
00
00
00
00
00
00
00
00
00
00
00
00
00
00
00
00
00
00
00
00
00
00
00
00
00
00
00
02
00
00
00
00
00
01
01
00
00
00
00
00
00
00
00
00
00
02
00
00
00
01
02
01
00
00
00
00
00
00
00
00
00
0E
36
1B
00
02
02
01
00
00
00
00
00
03
00
01
01
00
08
05
17
07
01
02
00
00
00
00
06
06
08
0B
01
15
00
00
10
04
02
00
00
01
01
08
05
00
00
00
00
0B
29
01
07
01
01
01
01
01
01
0A
0C
00
01
00
00
01
04
05
02
01
02
01
01
01
02
15
0C
02
00
00
0F
07
00
00
09
01
04
00
00
01
0D
0A
08
03
11
01
00
04
00
04
0E
0F
10
0D
01
01
0B
35
0D
05
00
05
1C
0B
00
00
00
00
00
00
00
00
00
00
03
02
00
03
08
01
00
00
00
00
00
00
00
00
00
00
00
00
01
05
00
00
00
00
00
00
00
00
00
00
00
00
00
00
00
02
00
00
00
00
00
00
00
00
00
00
00
00
00
00
00
00
00
00
00
00
00
00
00
00
00
00
00
00
00
00
00
04
00
00
00
00
00
00
00
00
00
00
00
00
00
00
00
00
00
00
00
00
00
00
00
00
00
00
00
00
00
00
00
01
00
00
00
00
00
01
01
00
00
00
00
00
00
00
00
00
00
00
00
00
00
01
02
01
00
00
00
00
00
00
00
00
00
0C
33
10
00
02
02
01
00
00
00
00
00
00
00
03
00
00
0A
06
18
08
01
01
00
00
00
00
04
04
07
09
01
13
00
01
11
05
02
00
00
01
00
07
05
02
00
00
04
08
29
02
07
02
01
01
01
01
01
0A
0D
00
02
06
01
02
01
04
02
02
02
02
01
01
02
12
0B
01
00
00
0F
06
00
00
0C
02
04
00
01
01
0B
09
07
03
0D
01
00
08
00
02
0D
0F
10
0A
00
01
04
36
0F
03
00
06
17
0A
00
00
00
00
00
00
00
00
00
01
0A
02
00
0B
0A
05
00
00
00
00
00
00
00
00
00
00
00
00
00
02
00
00
00
00
00
00
00
00
00
00
00
00
00
00
00
00
00
00
00
00
00
00
00
00
00
00
00
00
00
00
00
00
00
00
00
00
00
00
00
00
00
00
00
00
00
00
00
03
00
00
00
00
00
00
00
00
00
00
00
00
00
00
00
00
00
00
00
00
00
00
00
00
00
00
00
00
00
00
00
01
00
00
00
00
00
01
01
00
00
00
00
00
00
00
00
00
00
01
00
00
00
01
02
01
00
00
00
00
00
00
00
00
00
0B
30
12
00
03
02
01
00
00
00
00
01
00
00
00
00
00
07
02
13
08
02
01
00
00
00
00
0D
03
06
08
01
16
00
07
0A
05
02
00
00
01
00
07
06
05
00
00
00
09
22
01
06
02
01
01
01
01
00
0A
08
00
01
00
01
02
02
04
03
02
02
03
02
01
02
11
0A
00
00
00
0A
09
00
00
0C
03
04
00
01
01
0B
08
06
01
0D
01
00
01
00
03
0D
0E
10
08
00
01
05
31
0C
03
00
05
16
08
04
00
00
00
00
00
00
00
00
00
09
01
00
0F
0E
00
00
00
00
00
00
00
00
00
00
00
00
04
03
00
05
00
00
00
00
00
00
00
00
00
00
00
00
00
03
01
00
00
00
00
00
00
00
00
00
00
00
00
00
00
00
00
00
00
00
00
00
00
00
00
00
00
00
00
00
00
00
02
00
00
00
00
00
00
00
00
00
00
00
00
00
00
00
00
00
00
00
00
00
00
00
00
00
00
00
00
00
00
00
00
00
00
00
00
00
01
01
00
00
00
00
00
00
00
00
00
00
01
00
00
00
01
02
01
00
00
00
00
00
00
00
00
00
0D
2C
1C
00
02
02
01
00
00
00
00
01
00
00
00
00
00
06
03
17
07
02
01
00
00
00
00
08
03
04
07
00
0D
01
0E
06
04
02
01
00
01
00
06
01
06
01
00
08
03
23
00
07
02
01
01
01
01
01
0A
06
02
02
00
01
02
00
01
03
02
02
03
02
01
02
0F
09
01
00
00
0A
05
00
00
0C
02
03
00
01
01
0A
07
05
00
05
01
00
01
00
01
0C
0C
0D
04
02
00
0D
33
0B
03
00
04
0D
05
04
00
00
00
00
00
00
00
00
00
06
02
00
0E
0C
01
01
00
00
00
00
00
00
00
00
00
00
02
02
00
02
00
00
00
00
00
00
00
00
00
00
00
00
00
01
00
00
00
00
00
00
00
00
00
00
00
00
00
00
00
01
00
00
00
00
00
00
00
00
00
00
00
00
00
00
00
00
01
00
00
00
00
00
00
00
00
00
00
00
00
00
00
00
00
00
00
00
00
00
00
00
00
00
00
00
00
00
00
00
00
00
00
00
00
00
01
00
00
00
00
00
00
00
00
00
00
00
02
00
00
00
01
02
00
00
00
00
00
00
00
00
00
00
11
26
0A
00
02
02
01
00
00
00
00
00
00
00
00
00
00
07
04
0B
06
02
01
01
00
00
00
07
05
05
05
01
07
04
0D
04
04
02
01
00
01
01
06
00
05
00
00
06
04
22
00
06
02
01
01
01
01
01
09
04
06
00
00
00
01
00
03
03
02
02
02
02
01
02
0D
08
00
00
00
06
02
00
00
0B
02
03
00
01
01
08
11
04
00
03
01
00
00
00
01
0C
0B
0C
05
01
01
0E
2E
0E
03
00
03
0A
08
04
00
00
00
00
00
00
00
00
00
07
01
00
0E
03
01
01
00
00
00
00
00
00
00
00
00
00
00
06
02
00
00
00
00
00
00
00
00
00
00
00
00
00
00
02
03
01
00
00
00
00
00
00
00
00
00
00
00
00
00
01
00
00
00
00
00
00
00
00
00
00
00
00
00
00
00
00
01
00
00
00
00
00
00
00
00
00
00
00
00
00
00
00
00
00
00
00
00
00
00
00
00
00
00
00
00
00
00
00
00
00
00
00
00
00
00
00
00
00
00
00
00
00
00
00
00
00
00
00
00
00
01
02
00
00
00
00
00
00
00
00
00
00
10
1F
03
01
02
01
01
00
00
00
00
00
00
00
01
00
00
05
04
0B
07
02
01
00
00
00
00
04
06
05
05
00
03
00
0B
07
05
02
01
00
01
00
05
00
0A
00
00
07
03
14
01
05
02
01
01
01
01
01
08
03
00
00
00
01
01
00
03
03
03
02
02
02
01
02
0A
07
01
00
00
04
02
00
00
0A
02
03
00
02
01
09
10
03
00
01
02
00
04
00
04
0B
0A
0B
04
02
00
14
25
0C
02
00
03
09
03
03
00
00
00
01
00
00
00
01
00
07
02
00
08
05
02
01
00
00
00
00
00
00
00
00
00
00
05
08
05
04
02
00
00
00
00
00
00
00
00
00
00
00
00
05
02
03
00
00
00
00
00
00
00
00
00
00
00
00
00
02
00
01
00
00
00
00
00
00
00
00
00
00
00
00
00
00
01
00
00
00
00
00
00
00
00
00
00
00
00
00
00
00
01
00
00
00
00
00
00
00
00
00
00
00
00
00
00
00
01
00
00
00
00
00
00
00
00
00
00
00
00
00
00
00
00
01
00
00
00
00
01
01
00
00
00
00
00
00
00
02
00
05
07
1D
02
01
02
01
01
00
00
00
00
00
00
03
08
05
00
04
03
09
07
04
01
00
00
00
00
04
08
06
04
01
0B
03
06
04
05
04
00
00
01
00
06
08
0D
00
01
02
01
0F
03
04
02
01
01
01
01
00
06
04
07
00
00
02
00
04
08
02
02
02
02
02
01
02
0F
06
03
01
01
07
03
00
02
09
02
02
00
02
01
0A
0F
07
00
02
02
00
03
00
01
09
09
0A
05
05
03
17
18
11
02
04
02
08
04
06
03
03
02
04
00
00
00
05
02
07
03
03
10
0A
04
02
00
00
02
00
00
00
00
00
01
01
09
07
05
01
05
00
00
00
01
00
00
00
00
00
00
00
00
07
02
0F
00
00
00
00
01
00
00
00
00
00
00
00
00
03
00
01
00
00
00
00
02
00
00
00
00
00
00
00
00
00
03
00
00
00
00
00
00
00
00
00
00
00
00
00
00
00
02
00
00
00
00
00
00
00
00
00
00
00
00
00
00
00
01
00
00
00
00
00
00
00
00
00
00
00
00
00
00
00
07
03
02
00
00
00
00
02
00
00
00
00
00
00
00
03
00
05
08
16
06
01
01
02
00
00
00
00
00
03
00
09
08
0F
05
04
06
06
06
03
01
00
00
00
00
05
11
03
03
01
0C
09
07
06
05
04
00
00
00
00
06
10
0E
02
01
0B
07
14
04
03
02
01
01
00
01
00
04
04
06
05
00
04
02
04
08
02
02
02
02
01
01
01
23
0D
02
03
02
06
02
00
03
07
02
02
00
02
01
08
0F
08
01
02
02
00
0A
01
07
07
09
08
05
05
04
0F
10
16
02
0A
03
02
03
03
05
05
02
06
00
00
00
03
03
07
03
03
10
09
03
05
01
06
02
00
00
00
00
01
04
06
0C
05
04
04
05
01
02
00
04
00
00
00
00
00
02
01
05
02
04
07
00
00
01
01
01
00
00
00
00
00
01
00
00
06
04
03
00
00
00
01
04
00
00
00
00
00
00
00
00
00
03
00
00
00
00
00
02
00
00
00
00
00
00
00
00
00
01
00
00
00
00
00
00
00
00
00
00
00
00
00
00
00
02
00
00
00
00
00
00
00
00
00
00
00
00
00
00
00
02
02
02
00
00
00
00
01
00
00
00
00
00
00
00
04
00
08
0A
11
10
01
00
01
00
00
00
00
01
04
09
08
07
0F
04
05
06
06
03
03
00
00
00
00
00
05
11
04
00
01
0D
06
04
07
03
02
00
00
00
00
03
16
07
03
01
07
03
0B
04
02
02
01
01
00
00
00
02
03
0A
04
00
03
04
03
06
02
01
02
02
01
01
00
0E
08
04
03
01
05
02
00
02
04
01
02
00
01
01
04
07
04
02
02
02
01
07
02
08
03
06
05
04
06
04
07
0E
0A
02
0A
03
32
00
0B
00
00
00
00
00
00
00
00
3A
11
00
2C
54
00
17
42
00
00
2D
34
26
00
70
11
54
00
13
06
1B
51
00
3E
00
00
00
00
1A
00
00
35
00
00
00
33
0A
00
50
05
00
00
0F
51
0B
01
00
00
00
10
31
46
00
00
00
0F
00
00
00
15
00
4B
00
00
00
2A
00
00
00
00
31
59
1D
00
00
00
00
09
28
00
16
2C
00
27
23
25
00
00
00
19
00
3F
11
00
10
00
1C
00
00
0C
00
00
05
00
00
00
04
4D
6E
51
21
21
00
00
18
61
00
00
00
00
17
00
03
8E
00
00
4B
00
40
00
00
61
2F
1B
00
00
39
00
19
00
1F
00
00
00
00
29
23
1B
00
27
00
00
00
00
00
07
00
6B
00
00
2D
18
00
24
00
00
00
1E
3E
1B
00
14
4C
00
28
4D
1F
00
3A
00
23
04
41
5D
3F
00
00
2E
00
58
00
00
12
35
52
10
00
40
00
1B
1D
00
12
00
00
1B
56
2B
00
00
2D
23
00
12
04
00
00
00
08
00
1B
00
00
32
00
3E
58
3C
00
00
00
00
76
02
38
00
0E
0C
00
0D
02
00
00
09
00
