02
04
02
00
FF
FC
FD
04
09
04
FE
FF
01
02
03
01
02
03
01
FD
FA
F9
FC
06
0C
05
FB
FB
FE
00
02
01
01
01
FD
F8
F5
F5
FC
09
10
06
F9
F5
F8
FD
00
00
01
FE
F8
F4
F1
F3
FC
09
11
06
F6
F3
F4
F9
FE
00
00
FA
F4
F0
EF
F1
FA
06
06
FE
F4
F2
F3
F7
FC
FF
FE
F7
F1
EE
EC
EE
F9
00
01
F8
F0
EF
F2
F5
FB
FF
FF
F8
F0
ED
EB
EF
F8
02
FF
F4
ED
E9
EC
F1
FA
00
00
FC
F5
F0
EE
F1
FA
09
0A
F8
EE
E6
E7
EF
FC
FF
01
00
FE
FA
F7
F6
FE
0C
13
07
F8
F3
F2
F9
FE
00
01
02
02
00
00
FD
FE
0B
11
0A
01
FE
FE
FF
FF
FF
03
02
02
02
02
02
03
08
0B
05
02
00
01
01
03
00
06
03
03
03
04
04
08
0D
0B
07
01
00
00
01
03
05
03
03
02
04
06
09
0A
0C
0E
0A
02
FF
01
01
04
03
02
02
03
04
07
08
06
0B
0E
0A
04
FF
00
01
05
05
02
03
03
04
04
06
02
06
0B
0B
03
00
00
02
05
05
01
02
02
02
02
01
01
02
04
04
03
01
00
02
03
03
02
04
02
00
00
FD
FD
04
0A
06
00
FF
01
02
03
01
02
04
02
FE
FB
FA
FD
08
0F
07
FC
FB
FE
00
02
01
02
02
FF
F9
F6
F5
FD
0A
11
05
F7
F5
F9
FE
00
00
01
FF
FA
F7
F3
F4
FD
08
0E
02
F5
F4
F6
FB
FF
00
01
FC
F6
F3
F2
F3
FA
04
05
FC
F5
F4
F6
F9
FE
00
00
FA
F4
F1
F0
F0
F8
FF
01
FA
F4
F4
F6
F8
FD
FF
00
FB
F4
F1
EF
F0
F9
03
01
FA
F1
EF
F0
F5
FB
00
00
FD
F8
F3
F2
F3
FA
09
0A
FC
F3
EC
ED
F3
FC
FF
02
00
FE
FB
F9
F8
FE
0B
10
07
FB
F5
F5
FA
FE
FF
02
02
02
01
01
FE
FF
09
10
0B
03
FE
FF
FF
00
00
03
02
02
03
02
02
04
07
0A
05
03
01
01
01
03
01
06
03
02
03
03
04
08
0C
0A
05
00
00
00
01
03
07
04
04
02
04
05
08
08
0B
0C
08
02
FF
01
01
05
04
03
03
03
04
07
07
03
0A
0C
0A
04
00
00
02
05
06
02
03
03
04
04
06
02
05
0B
0B
03
00
00
02
06
06
01
02
02
02
02
01
02
02
04
04
03
01
00
02
03
04
02
04
02
01
FF
FD
FF
05
0B
06
00
00
01
03
03
01
02
04
02
FE
FB
FA
FE
0A
0F
06
FC
FC
FF
01
02
02
01
02
FF
FA
F7
F6
FD
0A
10
05
F9
F7
FA
FE
01
01
01
00
FB
F7
F3
F4
FC
08
0E
03
F7
F4
F6
FB
FF
01
01
FD
F8
F4
F1
F3
FB
04
06
FE
F7
F4
F7
FA
FE
00
00
FB
F7
F4
F0
F1
F9
01
03
F9
F4
F5
F6
F9
FD
00
01
FC
F7
F4
F0
F1
F9
03
01
F9
F2
F0
F3
F7
FC
00
01
FF
FA
F6
F4
F4
FC
09
09
FB
F3
EE
EF
F4
FD
00
02
01
FF
FD
FA
FA
FF
0B
11
06
FB
F7
F7
FB
FE
00
02
02
02
01
01
FF
FE
0A
0F
09
02
FF
FF
00
00
00
03
03
02
02
02
03
02
06
0A
04
01
01
01
01
04
01
07
04
02
03
04
05
06
0B
0B
06
01
00
01
01
04
08
04
04
02
04
06
07
06
0A
0D
08
02
FF
01
01
06
04
03
03
03
04
07
07
02
07
0B
09
04
00
00
02
05
07
02
03
03
04
04
05
01
05
09
0A
05
01
00
02
06
07
01
02
02
02
02
01
02
02
05
04
03
01
00
02
04
04
02
04
03
00
FF
FD
FF
06
0B
07
00
01
01
03
03
02
03
04
03
FE
FB
FB
FE
09
0F
08
FF
FD
FF
01
02
02
02
02
00
F9
F6
F6
FE
0B
13
08
FC
F8
FA
FE
01
01
01
00
FC
F7
F3
F5
FE
0B
10
04
F8
F6
F7
FB
FF
01
02
FE
F9
F5
F1
F3
FD
06
07
FD
F7
F4
F6
F9
FE
00
01
FD
F8
F4
F1
F1
FB
01
02
FA
F3
F4
F6
F9
FD
00
01
FE
F8
F5
F1
F1
FB
04
00
F9
F0
EF
F3
F7
FC
00
01
00
FB
F8
F6
F6
FD
08
09
FB
F2
EE
F0
F5
FD
00
02
01
00
FE
FC
FB
FF
0A
10
05
FB
F8
F9
FC
FF
00
02
02
02
01
01
FF
FE
09
0F
08
04
00
00
00
00
00
03
03
02
03
02
03
02
06
0A
05
03
01
01
01
04
02
07
04
03
03
04
04
05
08
0A
06
02
01
01
01
04
09
04
04
02
05
06
07
04
07
0C
08
03
00
01
02
06
04
03
03
03
04
07
07
02
06
08
08
04
00
00
02
06
07
03
03
03
04
05
05
01
05
09
08
04
01
00
02
06
07
01
02
02
02
02
01
02
03
05
04
03
01
00
02
04
04
02
04
02
01
00
FE
FF
05
0C
07
02
01
02
03
03
02
03
04
02
FF
FB
FB
FF
09
10
09
FF
FE
00
01
02
02
02
02
FF
FA
F7
F6
FE
0C
11
08
FC
F9
FB
FE
01
01
01
00
FB
F7
F3
F5
FF
0B
10
06
F9
F6
F7
FB
FF
00
02
FD
F8
F4
F2
F4
FF
0A
09
FF
F5
F4
F6
F9
FE
00
02
FD
F7
F4
F1
F2
FC
03
03
F9
F2
F4
F6
F9
FD
00
01
FF
F9
F5
F1
F3
FB
02
FF
F8
F0
F0
F3
F8
FE
01
02
01
FD
F9
F6
F6
FD
08
07
FB
F3
F0
F2
F7
FF
00
03
02
00
FF
FD
FB
FF
09
0F
07
FE
F9
FA
FD
00
00
02
03
02
01
02
00
FE
07
0E
0A
05
01
01
01
00
00
03
03
02
03
03
03
02
02
08
04
03
01
01
01
04
02
07
04
03
03
04
04
05
06
07
05
02
01
01
01
04
09
04
04
03
05
06
06
03
05
0A
06
02
00
02
01
07
05
03
03
03
04
07
06
02
05
07
06
04
00
00
02
06
07
03
03
03
04
05
04
01
04
08
07
04
01
01
02
07
08
01
02
03
02
02
02
01
02
04
04
02
01
01
02
04
04
02
04
03
01
00
FE
01
06
0B
05
01
01
02
03
03
02
03
04
02
FE
FC
FD
01
0B
10
08
FF
FE
00
01
03
02
01
02
FF
F9
F8
F8
01
0C
10
05
FA
F9
FB
FE
01
01
01
FF
FA
F6
F4
F7
FE
09
0D
02
F8
F7
F8
FB
FF
01
02
FD
F8
F4
F2
F6
FC
07
07
FE
F7
F5
F7
F9
FE
00
01
FD
F7
F3
F0
F2
FC
03
04
FC
F6
F5
F6
F9
FE
00
02
FF
F9
F5
F1
F2
FB
05
02
FB
F4
F2
F5
F9
FF
01
02
01
FD
F9
F6
F6
FC
07
08
FD
F6
F3
F5
F9
FF
00
03
02
01
00
FD
FC
FD
07
0E
06
FC
FA
FB
FE
00
00
02
03
02
02
02
00
FD
05
0C
08
03
01
01
01
00
00
03
03
02
03
03
03
02
01
08
04
03
02
02
01
04
02
07
04
03
03
04
03
04
03
05
04
01
01
01
02
04
09
04
04
02
05
05
04
04
03
07
05
02
00
01
01
07
05
03
03
03
04
07
04
00
04
04
04
03
00
00
02
06
07
02
03
03
04
04
03
FF
03
06
06
03
01
01
02
07
08
01
02
02
02
02
01
01
02
04
04
02
01
01
02
04
05
02
04
02
01
00
FF
02
08
0B
07
00
01
02
03
03
02
02
04
02
FE
FB
FD
01
09
0D
04
FD
FE
00
01
03
02
02
02
FF
F9
F7
F9
FF
09
0E
05
FB
F9
FB
FE
01
01
01
FF
FA
F7
F4
F7
FF
0A
0E
05
FA
F7
F8
FB
FF
01
02
FD
F8
F4
F2
F7
FE
06
08
00
F9
F6
F7
FA
FF
00
01
FD
F7
F4
F1
F2
FC
01
02
FC
F6
F6
F8
FB
FF
00
02
FF
FA
F6
F2
F1
FA
02
00
FB
F6
F5
F8
FC
FF
01
02
01
FE
FA
F8
F6
FC
05
08
FF
F9
F6
F7
FB
00
00
03
02
01
00
FE
FD
FE
07
0D
07
FF
FC
FD
FF
00
00
02
02
02
02
02
00
FD
03
0B
07
03
01
01
01
00
00
02
03
02
03
02
03
02
FF
04
01
00
02
02
01
04
02
07
04
03
03
03
02
05
03
05
02
00
01
01
01
04
0A
04
04
02
04
04
02
01
02
06
05
01
00
01
02
06
05
03
03
03
04
06
02
FD
03
02
02
03
00
00
02
06
07
02
03
03
04
04
03
FF
02
05
04
02
01
01
02
06
08
02
02
02
02
02
01
01
02
04
04
02
01
01
02
04
05
02
04
02
00
00
FE
02
0A
0E
08
02
01
02
03
03
01
02
04
02
FE
FB
FD
02
0E
10
09
FF
FE
00
01
03
02
02
02
FF
FA
F8
F8
00
0A
10
07
FB
F8
FB
FF
02
01
01
00
FA
F7
F6
F6
FE
08
0C
03
F9
F7
F9
FD
00
01
02
FF
F9
F5
F4
F6
FD
04
05
FF
F9
F8
FA
FC
FF
00
01
FE
F9
F5
F3
F3
FB
02
03
FC
FA
F9
FA
FD
FF
00
02
00
FC
F8
F4
F3
FA
03
02
FD
FA
F7
FA
FD
00
01
02
02
FE
FC
F9
F8
FB
04
06
FF
FA
F8
F9
FD
00
00
03
02
02
00
FE
FD
FD
05
0B
05
FF
FD
FE
FF
00
00
02
02
02
02
02
01
FE
05
0B
06
04
02
01
01
00
00
03
03
02
03
02
03
02
01
06
02
03
02
02
01
04
02
07
04
02
03
03
02
01
FF
02
02
01
01
01
02
05
09
04
04
02
04
03
01
FE
FE
FF
00
00
00
01
01
06
05
03
03
03
03
04
01
FC
02
00
FF
02
00
00
02
06
07
02
03
03
04
03
02
FE
01
05
04
02
01
01
02
07
08
02
02
03
02
02
02
01
02
04
03
02
01
01
02
04
05
01
04
02
00
00
FF
01
09
0E
0A
03
01
03
03
03
01
02
04
02
FE
FC
FD
02
0F
14
0B
00
FF
01
02
03
02
02
02
00
FA
F8
F9
02
0F
12
09
FD
FA
FD
FF
02
01
01
01
FE
F9
F5
F7
FF
08
0D
05
FC
F9
FB
FE
00
01
02
FF
FD
F8
F4
F6
FD
03
05
00
FC
F9
FB
FD
FF
00
01
FF
FC
FA
F5
F4
FC
00
02
FC
FB
FB
FC
FD
FF
01
02
00
FD
FB
F7
F6
FB
02
03
FE
FC
F9
FB
FE
00
01
02
02
FF
FD
FB
FA
FD
07
09
00
FC
FA
FB
FD
00
00
03
02
02
01
FF
FE
FD
07
0D
05
FF
FE
FE
FF
00
00
02
03
02
02
02
00
FC
03
08
03
03
01
01
01
01
00
03
03
02
03
02
02
FF
FE
02
00
01
01
01
01
04
02
08
04
02
03
02
01
FF
FC
01
01
01
01
01
02
05
0A
04
04
02
04
03
FF
FD
FC
FF
00
00
00
01
02
06
05
03
03
03
03
05
00
FB
00
FF
FE
01
01
01
02
05
07
02
03
03
03
03
01
FE
01
04
03
01
01
01
02
06
08
02
02
02
02
02
01
01
01
03
03
02
01
01
02
04
04
01
03
02
01
00
FE
01
09
0E
09
03
02
03
03
03
01
02
04
03
FF
FC
FD
02
0F
12
0C
02
00
02
02
03
02
02
02
01
FD
F9
F9
02
10
15
0C
00
FB
FE
00
02
01
01
01
FF
FC
F7
F9
04
0F
13
09
FF
FA
FB
FE
00
01
02
00
FF
FB
F7
FB
02
0A
0B
05
FF
FB
FC
FE
FF
00
02
00
FE
FC
F9
F9
FF
04
07
01
FD
FC
FC
FD
FF
01
02
01
FE
FD
FA
F9
FD
03
03
FE
FB
F9
FB
FE
00
01
02
02
FF
FE
FC
FB
FD
04
06
FE
FB
FA
FA
FD
00
00
03
02
02
01
FF
FD
FC
05
0A
03
FF
FE
FE
FF
00
00
02
03
02
02
02
00
FB
02
07
05
04
02
01
01
01
00
03
03
02
02
03
02
FD
FC
02
00
02
02
01
01
04
02
08
04
03
03
02
01
FD
F8
FE
00
00
01
01
02
05
0A
04
04
02
04
02
FF
FB
F8
FC
FF
01
01
01
02
06
05
03
03
03
03
04
FF
FC
FE
FE
FE
01
01
01
02
05
08
02
03
03
04
02
01
FF
01
03
04
02
02
01
02
06
08
01
02
02
02
02
02
01
02
03
03
02
02
01
02
04
05
02
04
02
01
01
00
00
08
0D
09
03
02
02
04
03
01
02
04
03
00
FF
FE
02
0E
13
0C
03
00
01
02
03
02
02
03
02
FF
FD
FB
04
13
18
0D
01
FC
FE
00
02
01
01
01
00
FE
FB
FB
07
14
17
0C
FF
FB
FB
FE
00
01
03
01
FF
FD
FB
FD
07
0F
10
06
FE
FB
FB
FD
00
00
02
00
FE
FD
FC
FD
04
09
0A
02
FD
FC
FC
FD
00
00
02
01
FF
FE
FC
FC
02
07
06
01
FC
FA
FC
FE
00
01
02
02
00
FE
FD
FB
FE
06
06
00
FC
FA
FA
FD
00
00
03
02
02
01
FF
FD
FB
03
07
03
FF
FE
FE
FF
00
00
02
03
02
02
02
FF
F9
FF
04
02
03
02
01
01
00
01
02
02
02
03
02
02
FB
FA
FF
FF
02
02
01
01
04
02
08
04
03
02
03
01
FC
F6
FC
FF
01
01
01
02
05
0B
04
04
03
04
03
FF
FA
F8
FA
FD
00
01
02
02
06
05
03
03
03
03
03
FF
FB
FD
FC
FE
01
01
01
02
05
08
02
03
02
03
02
02
FF
00
02
04
03
02
02
02
06
08
01
02
02
02
02
02
01
02
04
04
02
01
01
03
04
05
01
04
02
02
01
01
04
0A
0E
08
03
02
02
04
03
01
02
03
03
01
00
02
07
10
13
0B
02
00
02
02
03
02
02
03
02
FF
FE
FF
08
13
16
0B
FF
FB
FE
00
02
02
01
01
00
FE
FD
FF
0A
15
15
09
FD
FB
FB
FE
01
01
02
00
FF
FD
FC
01
0B
13
10
07
FE
FA
FC
FE
00
01
02
01
FE
FD
FC
01
0C
0F
0C
05
FD
FB
FC
FD
00
00
02
01
FF
FE
FC
FF
07
0A
07
03
FD
F9
FB
FE
00
01
02
03
00
FF
FD
FD
01
06
08
02
FE
FA
FA
FD
00
00
04
02
02
01
FF
FD
FC
03
08
05
00
FE
FE
FF
00
00
02
02
02
02
02
FF
F9
FF
02
02
03
02
01
01
01
00
02
03
02
03
03
02
FB
F9
FD
FE
01
02
01
01
04
03
08
03
02
03
03
01
FC
F8
FB
FF
01
01
01
01
04
0B
04
04
03
04
03
FF
FB
F8
FC
FE
00
01
01
01
07
05
03
03
03
03
04
FF
FB
FD
FC
FC
01
01
01
02
05
08
03
03
02
03
02
02
FF
01
02
04
03
02
02
02
06
09
02
02
02
02
02
02
02
02
04
03
02
01
02
02
04
05
02
04
03
02
02
02
06
0B
0E
09
04
02
03
04
03
01
02
04
03
01
01
04
09
12
13
0B
01
00
02
02
03
02
02
02
02
FF
FF
02
0C
15
15
0A
FF
FB
FE
00
02
01
01
01
FF
FE
FE
03
0D
16
14
0A
FD
FA
FB
FE
01
01
03
01
FF
FD
FE
05
0D
12
0E
06
FE
FA
FC
FE
00
01
02
01
FE
FD
FD
03
0D
0E
0C
03
FD
FC
FC
FE
00
01
03
02
FF
FE
FC
01
09
0A
06
02
FC
F9
FB
FD
00
01
02
03
00
FF
FD
FF
03
08
07
03
FD
F9
F9
FD
00
00
04
02
02
01
00
FE
FF
06
0B
08
01
FE
FE
FF
00
00
02
03
02
02
02
FF
FC
04
08
07
05
03
01
01
01
00
02
03
02
03
02
02
FE
FD
00
02
03
02
02
01
05
02
08
04
02
03
03
01
FC
F9
FC
FE
01
01
01
02
04
0C
03
05
02
04
03
FF
FA
F8
FB
FE
00
01
02
02
06
05
03
03
03
03
04
FF
FB
FD
FB
FD
02
01
01
02
06
08
02
03
02
03
03
02
FF
01
03
04
03
02
02
02
06
09
01
02
02
02
02
02
02
02
04
04
02
02
02
03
04
05
01
04
03
02
02
02
05
0A
0D
09
04
03
03
04
03
01
02
04
04
02
02
04
08
10
12
0C
04
02
03
02
03
02
02
03
02
01
01
03
0A
13
15
0C
02
FE
FF
01
02
02
01
01
01
00
00
04
0C
14
13
09
FF
FD
FC
FF
01
01
02
00
FF
FE
00
07
0D
10
0D
05
FF
FB
FC
FE
00
01
02
01
FE
FE
00
05
0D
0C
0A
02
FD
FC
FC
FE
00
01
03
02
FF
FD
FE
02
0A
0B
06
02
FC
F9
FB
FD
01
01
02
03
00
FE
FE
00
06
09
08
04
FE
F9
F9
FD
00
01
04
03
02
01
00
FF
02
07
0B
09
02
FD
FD
FF
00
00
02
02
02
02
03
01
FF
06
0B
09
05
02
01
01
01
01
03
03
02
03
03
03
01
02
06
05
03
03
02
02
04
03
08
04
02
03
02
01
FF
00
01
02
02
02
01
02
05
0C
03
05
03
04
03
00
FA
FC
01
FF
00
01
02
02
06
05
03
03
03
03
04
00
FC
FF
FE
00
03
02
02
02
05
09
03
03
02
03
03
03
00
02
04
05
03
02
03
03
06
09
02
02
02
02
03
03
02
02
03
04
02
02
02
03
04
05
02
03
03
02
03
03
05
08
0B
07
04
03
03
04
03
01
02
05
04
02
02
04
07
0D
0F
0A
04
04
04
03
03
03
02
03
03
02
02
03
09
10
10
0A
04
02
02
02
03
02
01
02
02
02
02
04
0A
11
10
0A
04
01
FF
00
01
01
03
01
01
01
03
07
0C
0F
0D
08
01
FE
FE
FF
00
01
02
01
FF
00
02
06
0D
0D
0B
05
FE
FE
FE
FF
00
01
03
02
FF
FF
00
04
0A
0B
06
03
FD
FA
FD
FF
01
00
02
03
00
FF
FF
02
07
09
07
03
FD
FA
FA
FD
00
00
04
03
02
01
00
00
04
09
0B
09
01
FE
FE
FF
00
00
02
03
03
02
03
01
02
08
0C
0A
06
03
01
01
01
01
03
03
02
03
03
03
03
05
09
08
05
03
02
01
05
03
09
04
03
03
03
02
01
06
06
06
03
02
01
02
05
0D
04
05
02
04
04
02
FF
03
08
04
02
02
02
02
06
05
04
03
03
03
05
02
FF
02
03
04
04
02
02
03
06
09
02
03
02
03
03
04
01
02
04
06
04
03
03
03
06
0A
01
02
02
02
03
03
02
02
03
04
03
02
03
03
04
06
02
04
03
02
03
03
05
08
0A
07
04
04
03
05
03
01
03
05
04
02
02
05
06
0C
0D
09
04
04
04
03
04
03
02
03
04
02
02
03
09
0F
0F
0A
04
02
03
03
03
02
02
03
02
03
03
05
0A
10
0E
09
03
02
02
02
02
01
04
02
02
02
03
07
0B
0E
0C
08
04
02
02
01
01
00
03
02
01
02
04
06
0C
0C
0C
07
01
02
01
01
01
01
03
03
01
01
03
05
0A
0C
07
05
00
FD
00
01
01
01
03
04
01
01
01
03
08
0B
09
05
00
FE
FE
00
01
00
05
03
03
02
01
02
06
0B
0D
0B
04
00
00
00
01
00
02
03
03
03
03
03
05
0A
0C
0A
07
03
02
01
01
01
03
04
02
03
03
04
06
07
09
08
05
03
02
01
05
04
0B
04
03
03
03
03
05
09
09
08
03
02
02
02
05
0F
04
05
03
05
04
05
06
09
0D
08
04
02
03
02
07
06
04
04
03
04
06
05
04
07
09
08
04
02
03
03
06
0B
03
03
03
04
05
06
03
03
05
07
05
03
03
03
07
0C
02
02
02
02
03
04
03
02
03
04
03
02
03
03
04
06
