0D
00
08
00
00
01
01
00
00
00
00
00
01
07
05
04
1C
06
01
01
01
01
01
00
00
00
01
01
00
01
05
07
02
00
00
01
01
00
00
00
00
00
00
01
01
00
01
37
00
00
01
01
00
00
00
00
00
00
00
00
01
01
01
23
00
00
00
00
00
00
00
00
00
00
00
01
01
01
01
00
00
00
00
00
00
00
00
00
00
00
00
00
00
01
01
00
00
00
00
00
00
00
00
00
01
00
01
00
01
01
00
00
00
00
00
00
00
00
00
00
00
00
00
00
00
00
00
24
10
08
00
00
00
00
00
00
00
00
00
00
01
01
0C
46
4F
09
02
0D
01
00
00
00
00
00
00
03
01
05
3F
51
32
09
0B
0A
1C
0A
00
00
00
00
00
05
12
0E
08
2F
03
07
0B
0E
1F
03
00
00
00
00
00
17
0B
14
30
05
09
0C
30
05
00
00
00
00
00
00
01
16
03
13
24
35
13
0B
16
1F
01
00
00
00
00
00
00
02
01
08
1A
06
07
10
00
06
00
00
00
00
00
00
0C
02
00
00
05
07
04
0C
0A
07
00
03
02
08
11
18
12
0F
00
01
1A
05
13
00
08
00
00
01
01
00
00
00
00
00
01
06
07
03
1C
08
01
01
01
01
01
00
00
00
01
01
00
01
04
07
08
00
00
01
01
00
00
00
00
00
00
00
01
00
01
30
00
00
00
01
00
00
00
00
00
00
00
00
01
01
01
1E
01
00
00
00
00
00
00
00
00
00
00
01
01
01
01
00
00
00
00
00
00
00
00
00
00
00
00
00
00
01
01
00
00
00
00
00
00
00
00
00
01
00
00
00
00
01
00
00
00
00
00
00
00
00
00
00
00
00
00
00
00
00
00
31
0E
0D
00
00
00
00
00
00
00
00
00
00
01
01
0C
43
43
0A
04
09
01
00
00
00
00
00
00
03
00
04
36
51
30
09
07
09
1A
09
00
00
00
00
00
05
0F
0B
08
28
03
09
0D
0E
15
02
00
00
00
00
00
14
0B
18
27
04
0C
0C
27
05
01
00
00
00
00
00
01
16
04
10
1C
33
12
0D
14
1C
01
00
00
00
00
00
00
01
01
06
17
05
09
0E
01
06
00
00
00
00
00
00
0B
02
00
01
0D
06
04
09
0C
07
00
02
02
09
12
14
0C
10
01
01
1A
05
10
00
07
00
00
01
01
00
00
00
00
00
01
05
06
04
1B
07
01
00
01
01
01
00
00
00
00
00
00
00
05
07
08
00
00
01
01
00
00
00
00
00
00
00
01
00
01
2A
01
00
00
01
00
00
00
00
00
00
00
00
01
01
01
24
01
00
00
00
00
00
00
00
00
00
00
01
01
01
01
01
00
00
00
00
00
00
00
00
00
00
00
00
00
01
01
10
00
00
00
00
00
00
00
00
01
00
00
00
00
01
00
01
00
00
00
00
00
00
00
00
00
00
00
00
00
00
01
2E
0C
0F
00
00
00
00
00
00
00
00
00
01
01
02
10
3B
41
06
03
0A
01
00
00
00
00
00
00
03
06
3A
2B
4D
2D
09
07
0B
16
08
00
00
00
00
00
04
10
09
0A
25
03
09
0C
0A
14
01
00
00
00
00
00
13
06
15
21
04
0A
0C
1E
05
01
00
00
00
00
00
01
14
04
0D
18
32
13
0B
15
19
01
00
00
00
00
00
00
01
01
05
15
05
09
0C
00
04
00
00
00
00
00
00
0B
02
00
01
0E
06
05
09
08
08
00
02
01
09
0C
11
09
0E
01
01
16
05
0E
00
05
00
00
01
01
00
00
00
00
00
01
05
07
03
15
07
01
00
01
01
01
00
00
00
00
00
00
00
03
06
08
00
00
01
00
00
00
00
00
00
00
00
01
00
01
27
01
00
00
00
00
00
00
00
00
00
00
00
01
01
00
24
00
00
00
00
00
00
00
00
00
00
00
01
01
01
01
15
00
00
00
00
00
00
00
00
00
00
00
00
00
01
01
0F
00
00
00
00
00
00
00
00
01
00
01
00
00
01
00
00
00
00
00
00
00
00
00
00
00
00
01
00
00
00
02
29
0C
10
00
00
00
00
00
00
00
00
01
01
01
02
0E
38
3D
06
03
0B
00
00
00
00
00
00
00
03
05
35
28
43
29
08
07
0A
13
08
00
00
00
00
00
04
0B
09
08
21
03
09
0A
08
12
01
00
00
00
00
00
12
05
16
1F
04
0A
0C
19
04
01
00
00
00
00
00
01
14
04
0E
15
52
10
0D
10
18
01
00
00
00
00
00
00
01
01
04
16
05
0A
0A
00
04
00
00
00
00
00
00
09
02
00
01
0A
05
03
06
08
08
00
02
01
0A
0B
10
0E
0C
01
02
17
05
0F
00
05
00
00
00
01
00
00
00
00
00
01
06
06
05
13
06
01
00
01
01
01
00
00
00
01
00
00
00
07
06
08
00
00
01
00
00
00
00
00
00
00
00
01
00
01
24
00
00
00
00
00
00
00
00
00
00
00
00
01
01
01
1D
00
00
00
00
00
00
00
00
00
00
00
01
01
01
01
14
00
00
00
00
00
00
00
00
00
00
00
00
00
01
01
0D
00
00
00
00
00
00
00
00
01
01
01
00
01
01
01
00
00
00
00
00
00
00
00
00
00
00
01
00
00
00
02
26
0A
0D
00
00
00
00
00
00
00
00
01
01
01
02
0C
31
3A
05
03
0E
00
00
00
00
00
00
00
02
05
35
25
39
22
09
05
0A
16
09
00
00
00
00
00
03
0B
0A
08
1E
03
0C
15
0A
12
01
00
00
00
00
00
10
04
12
1C
04
08
0C
18
04
01
00
00
00
00
00
01
11
04
0B
15
46
0E
0B
0F
15
01
00
00
00
00
00
00
01
01
06
11
04
09
08
00
03
00
00
00
00
00
00
09
01
00
01
0B
05
03
07
07
07
00
02
01
08
0C
10
08
0C
01
01
13
04
0D
00
04
00
00
00
00
00
00
00
00
00
01
04
05
03
13
05
01
00
01
00
01
00
00
00
01
01
00
01
05
06
08
00
00
01
00
00
00
00
00
00
01
01
01
00
01
20
00
00
00
00
00
00
00
00
00
00
00
00
01
01
01
1B
00
00
00
00
00
00
00
00
00
00
00
01
01
01
01
17
00
00
00
00
00
00
00
00
00
00
00
00
01
01
01
0C
00
00
00
00
00
00
00
00
01
01
01
00
01
01
01
00
00
00
00
00
00
00
00
00
00
00
01
00
00
00
02
24
0A
0A
00
00
00
00
00
00
00
00
01
01
01
02
0C
2B
34
04
03
0B
00
00
00
00
00
00
00
02
05
2E
22
39
1E
07
06
09
15
08
00
00
00
00
00
03
09
0A
08
1E
03
0D
11
09
13
01
00
00
00
00
00
0D
04
12
1A
03
07
09
21
04
01
00
00
00
00
00
01
0E
02
08
13
3F
0E
0A
0D
15
01
00
00
00
00
00
00
01
00
05
0F
04
07
06
00
04
00
00
00
00
00
00
08
01
00
01
0B
05
03
08
08
07
00
02
01
06
0A
0F
08
0B
01
01
14
04
0A
00
03
00
00
01
00
00
00
00
00
00
01
04
05
05
12
06
01
00
01
00
01
00
00
00
00
01
00
01
04
05
06
00
00
01
00
00
00
00
00
00
01
01
01
00
01
1E
00
00
00
00
00
00
00
00
00
00
00
00
01
01
01
18
00
00
00
00
00
00
00
00
00
00
00
01
01
01
01
17
00
00
00
00
00
00
00
00
00
00
01
00
01
02
01
0B
00
00
00
00
00
00
00
00
01
01
01
00
01
01
01
00
00
00
00
00
00
00
00
00
00
00
01
00
00
00
02
26
09
0B
00
00
00
00
00
00
00
00
01
01
01
02
0A
2D
2F
05
02
0C
00
00
00
00
00
00
00
01
04
2A
1D
37
1A
05
05
08
11
07
00
00
00
00
00
02
06
09
07
1A
02
0C
14
08
14
01
00
00
00
00
00
0A
02
0F
18
03
07
07
20
04
01
00
00
00
00
00
01
0C
03
0B
10
42
0D
08
0C
15
01
00
00
00
00
00
00
01
00
05
0E
04
06
08
00
03
00
00
00
00
00
00
07
01
00
01
07
04
03
07
05
06
00
01
01
09
0A
0E
06
0A
01
01
16
03
08
00
04
00
00
00
00
00
00
00
00
01
05
04
04
03
0E
05
01
00
01
00
00
00
00
00
00
01
01
00
04
04
05
00
00
00
00
00
00
00
00
00
01
01
01
00
01
1C
00
00
00
00
00
00
00
00
00
00
00
00
01
01
01
16
00
00
00
00
00
00
00
00
00
00
01
01
01
01
01
16
00
00
00
00
00
00
00
00
00
00
01
00
01
02
01
09
00
00
00
00
00
00
00
00
01
01
01
01
01
01
01
00
00
00
00
00
00
00
00
00
00
01
01
00
00
00
02
33
09
08
00
00
00
00
00
00
00
00
00
01
01
02
0A
1E
2F
07
02
0D
00
00
00
00
00
00
00
01
05
29
20
2E
18
07
06
07
0E
08
00
00
00
00
00
02
06
08
06
19
02
07
0F
07
13
02
00
00
00
00
00
09
03
12
18
03
09
06
1F
03
01
00
00
00
00
00
01
0C
03
0D
10
37
0D
07
0C
12
01
00
00
00
00
00
00
01
00
05
11
04
07
08
00
03
00
00
00
00
00
00
07
01
00
01
0A
04
03
06
05
05
00
01
01
0B
0B
0D
06
09
01
01
14
04
09
00
04
00
00
01
01
00
00
00
01
03
07
05
05
04
0E
05
01
00
00
00
01
00
00
00
01
01
01
03
05
05
05
00
00
00
00
00
00
00
00
00
01
01
01
01
01
17
00
00
00
00
00
00
00
00
00
00
00
00
01
01
00
16
00
00
00
00
00
00
00
00
00
00
01
01
01
01
01
13
00
00
00
00
00
00
00
01
00
00
01
00
01
02
01
08
00
00
00
00
00
00
00
00
01
01
01
01
01
01
01
01
00
00
00
00
00
00
00
00
00
01
01
01
00
00
02
2F
08
09
00
00
00
00
00
00
00
00
01
01
01
02
0A
1E
2F
07
02
0A
00
00
00
00
00
00
00
01
06
26
1A
2A
1D
07
04
06
0E
07
00
00
00
00
00
01
06
09
06
16
02
05
14
06
10
02
00
00
00
00
00
08
03
0F
16
03
08
07
21
03
00
00
00
00
00
00
00
0B
04
0D
0D
25
0B
06
09
0E
01
00
00
00
00
00
00
01
00
05
0C
04
05
09
01
05
00
00
00
00
00
00
05
01
00
01
0D
04
02
07
04
06
00
01
01
0A
08
0B
07
09
01
01
17
03
05
00
04
00
00
01
00
00
00
00
01
02
08
05
03
03
10
06
01
00
00
00
01
00
00
00
01
01
01
11
06
06
05
00
00
00
00
00
00
00
00
00
01
01
01
02
06
13
00
00
00
00
00
00
00
00
00
00
00
00
01
01
01
17
00
00
00
00
00
00
00
00
00
00
01
01
01
01
01
18
00
00
00
00
00
00
00
01
01
00
01
00
01
01
01
07
00
00
00
00
00
00
00
00
02
01
01
00
01
01
01
00
00
00
00
00
00
00
00
00
00
01
01
00
00
00
01
2A
07
08
00
00
00
00
00
00
00
00
01
01
01
02
09
1F
25
06
03
0E
00
00
00
00
00
00
00
01
05
24
19
2F
17
05
06
08
0C
08
00
00
00
00
00
01
0A
14
04
14
02
08
0C
05
0E
02
00
00
00
00
00
07
01
0E
13
03
09
07
1F
03
01
00
00
00
00
00
01
09
02
0B
0D
28
0C
08
0A
10
01
00
00
00
00
00
00
01
00
05
0C
03
07
07
02
04
00
00
00
00
00
00
05
02
00
01
0F
04
01
06
05
06
00
01
01
09
08
0B
08
06
01
01
13
04
10
00
04
00
00
00
00
00
00
00
01
04
0B
04
05
05
11
05
01
00
00
00
00
00
00
01
01
01
01
11
04
08
04
00
00
00
00
00
00
00
00
00
01
01
01
01
06
0F
00
00
00
00
00
00
00
00
00
00
00
00
01
01
04
17
00
00
00
00
00
00
00
00
00
00
00
01
01
01
02
12
00
00
00
00
00
00
00
01
01
01
01
00
01
01
01
13
00
00
00
00
00
00
00
00
01
01
01
00
01
01
01
00
00
00
00
00
00
00
00
00
00
01
01
00
00
00
01
25
07
05
00
00
00
00
00
00
00
00
01
01
00
02
08
16
20
08
03
12
00
00
00
00
00
00
00
01
05
1E
18
2F
12
04
06
08
0E
05
00
00
00
00
00
02
0C
14
04
13
02
09
0E
06
11
02
00
00
00
00
00
06
00
0F
13
02
0C
07
1E
04
01
00
00
00
00
00
01
07
02
0B
0D
2A
0A
08
0A
0F
01
00
00
00
00
00
00
01
01
07
0B
03
04
08
02
06
00
00
00
00
00
00
05
02
00
01
0A
04
02
07
09
05
00
01
01
07
0B
0B
0E
08
01
01
0D
03
0E
00
04
03
00
00
01
00
00
00
02
04
08
04
06
06
11
05
02
00
00
00
00
00
00
00
01
01
01
13
03
07
05
00
00
00
00
00
00
00
00
00
01
01
01
02
06
10
00
00
00
00
00
00
00
00
00
00
00
00
01
01
03
13
00
00
00
00
00
00
00
00
00
00
00
01
01
01
02
0E
00
00
00
00
00
00
00
00
01
01
00
00
00
01
02
15
00
00
00
00
00
00
00
00
01
01
01
00
01
01
01
01
00
00
00
00
00
00
00
00
00
01
01
00
00
00
01
20
07
05
00
00
00
00
00
00
00
00
02
01
00
02
09
19
1E
06
03
0F
00
00
00
00
00
00
00
02
05
1B
18
26
12
07
06
06
0D
04
00
00
00
00
00
02
0A
0C
04
0E
02
06
09
07
11
02
00
00
00
00
01
06
04
0A
0F
02
0C
07
1B
05
00
00
00
00
00
00
00
08
02
0D
0C
24
0A
06
07
0F
00
00
00
00
00
00
00
01
01
09
0C
03
06
08
03
06
00
00
00
00
00
00
06
05
01
02
0A
03
01
09
0C
04
00
01
01
08
0D
09
0E
08
01
01
0E
04
10
00
04
04
01
07
08
00
00
00
06
05
08
05
04
08
0C
05
04
00
00
04
01
00
00
00
04
01
01
0E
03
06
07
01
00
00
00
01
00
00
00
00
01
00
01
02
05
0E
01
00
00
00
00
00
00
00
00
00
00
01
01
01
03
0E
00
00
00
00
00
00
00
00
00
00
01
01
01
01
02
0C
00
00
00
00
00
00
00
00
00
00
00
00
00
01
03
12
00
00
00
00
00
00
00
00
01
01
01
00
00
01
01
02
00
00
00
00
00
00
00
00
00
01
00
00
00
00
01
1F
06
05
00
00
00
00
00
00
00
00
02
01
00
01
07
0F
17
08
05
0D
00
00
00
00
00
00
00
02
04
13
1D
1B
0C
08
07
06
0C
05
00
00
00
00
00
03
0B
0A
05
0F
02
08
0B
07
13
02
00
00
00
00
01
06
0A
08
0F
02
0A
07
1F
04
00
00
00
00
00
00
00
08
05
0D
0C
19
08
06
05
09
00
00
00
00
00
00
00
08
03
08
0B
03
09
07
04
04
00
00
00
00
00
00
06
08
01
04
0C
03
02
08
09
07
00
01
01
08
0A
07
0E
07
02
02
09
04
10
00
04
05
05
10
06
00
00
00
06
06
09
05
04
05
0E
05
05
02
0B
04
01
00
00
00
13
0A
08
0E
05
08
08
01
00
00
02
08
00
00
00
00
01
06
01
02
05
0D
06
00
00
00
00
06
00
00
00
00
02
01
00
01
05
08
01
00
00
00
00
04
00
00
00
00
00
00
01
01
03
0D
00
00
00
00
00
01
00
00
00
00
01
01
01
01
02
06
00
00
00
00
00
00
00
00
01
01
01
00
00
00
01
01
00
00
00
00
00
00
00
00
00
01
00
00
00
00
01
22
06
06
00
00
00
00
00
00
00
00
02
01
00
01
06
11
19
09
03
0B
00
00
00
00
00
00
00
04
04
0A
23
0F
0A
05
07
04
09
07
00
00
00
00
00
03
0A
13
06
10
02
07
09
05
13
02
00
00
00
00
00
05
08
0A
0E
02
09
07
1E
05
01
00
00
00
00
00
00
07
05
0A
0D
18
07
06
07
0B
01
00
00
00
00
00
00
06
04
09
07
03
07
06
03
06
00
00
00
00
00
00
07
05
02
05
09
03
01
05
08
06
00
02
01
09
0A
07
0C
0F
03
03
0E
04
0A
01
03
07
07
0C
05
00
00
00
06
05
06
05
05
09
0D
06
07
10
12
05
00
00
00
00
0B
08
07
0E
05
05
07
07
03
07
08
0A
00
00
00
00
01
0B
07
0F
05
0F
07
00
00
03
05
08
00
00
00
00
00
0F
09
03
08
09
03
00
00
00
04
04
00
00
00
00
00
03
01
01
03
09
00
00
00
00
01
08
00
00
00
00
01
00
01
01
02
08
00
00
00
00
00
00
00
00
01
00
01
00
01
01
07
06
00
00
00
00
00
00
00
00
00
01
01
00
00
00
01
1C
05
05
00
00
00
00
00
00
00
00
01
00
00
01
0D
0C
11
06
03
0E
00
00
00
00
00
00
00
06
03
0F
1E
0B
0F
07
09
04
08
05
00
00
00
00
00
03
09
0E
04
0C
02
08
0B
07
0F
05
00
00
00
00
00
03
08
08
0C
02
06
05
1B
04
02
00
00
00
00
00
00
05
06
11
09
0E
07
07
0C
08
02
00
00
00
00
00
00
0A
05
08
09
03
05
06
03
07
01
00
00
00
00
00
06
06
03
04
06
03
02
07
0A
0B
01
02
01
08
08
06
0A
15
04
05
09
04
09
00
08
00
00
01
01
00
00
00
00
00
01
06
01
00
22
02
02
01
01
01
01
00
00
00
01
01
00
01
03
00
00
00
00
01
01
00
00
00
00
00
01
01
01
00
02
47
00
00
01
01
00
00
00
00
00
00
00
00
01
01
01
27
00
00
00
00
00
00
00
00
00
00
00
01
01
01
01
00
00
00
00
00
00
00
00
00
00
00
01
00
01
02
01
00
00
00
00
00
00
00
00
00
02
01
01
01
01
01
00
00
00
00
00
00
00
00
00
00
00
01
01
01
01
00
01
33
15
00
00
00
00
00
00
00
00
00
01
01
01
02
0E
52
68
09
00
15
00
00
00
00
00
00
00
03
01
06
59
56
3A
04
0C
0B
26
0F
00
00
00
00
00
06
18
16
05
3E
02
00
05
05
36
06
00
00
00
00
00
1E
07
11
3E
05
04
0F
48
03
00
00
00
00
00
00
01
1B
02
1E
2F
41
14
02
1D
2A
00
00
00
00
00
00
00
03
02
0F
1B
06
00
11
00
07
00
00
00
00
00
00
0D
01
00
00
00
08
03
0D
0A
00
00
02
01
09
0B
1E
0E
15
00
00
1B
04
