07
00
00
01
00
00
00
00
00
00
00
00
00
02
02
00
00
05
02
00
00
00
00
00
00
00
00
00
00
00
04
0C
00
00
00
00
00
00
00
00
00
00
00
00
00
00
00
1D
06
00
00
00
00
00
00
00
00
00
00
00
00
00
00
02
00
00
00
00
00
00
00
00
00
00
00
00
00
00
00
00
01
02
01
00
00
00
00
00
00
00
00
00
00
00
00
00
03
02
01
00
00
00
00
00
00
00
00
00
00
00
00
00
0C
04
02
02
02
01
00
00
00
00
00
00
00
00
00
3F
02
25
07
04
04
06
00
00
00
00
00
00
00
00
08
A8
0E
00
00
09
04
05
00
00
00
00
00
04
00
02
0A
4E
02
09
00
02
00
00
00
00
00
00
00
05
00
00
06
22
00
00
02
00
00
00
00
00
00
00
00
09
2E
00
11
01
08
00
00
00
00
00
00
00
00
00
00
00
00
00
03
3F
0C
16
00
07
00
00
00
00
00
00
00
00
00
0E
04
02
0A
00
00
00
00
00
00
00
00
00
03
00
00
00
28
02
00
00
00
00
00
00
00
00
0B
14
0D
0D
00
00
00
00
07
00
00
01
00
00
00
00
00
00
00
00
00
02
02
00
00
05
02
00
00
00
00
00
00
00
00
00
00
00
04
0C
00
00
00
00
00
00
00
00
00
00
00
00
00
00
00
1D
06
00
00
00
00
00
00
00
00
00
00
00
00
00
00
02
00
00
00
00
00
00
00
00
00
00
00
00
00
00
00
00
01
02
01
00
00
00
00
00
00
00
00
00
00
00
00
00
03
02
01
00
00
00
00
00
00
00
00
00
00
00
00
00
0C
04
02
02
02
01
00
00
00
00
00
00
00
00
00
3F
02
25
07
04
04
06
00
00
00
00
00
00
00
00
08
A8
0E
00
00
09
04
05
00
00
00
00
00
04
00
02
0A
4E
02
09
00
02
00
00
00
00
00
00
00
05
00
00
06
22
00
00
02
00
00
00
00
00
00
00
00
09
2E
00
11
01
08
00
00
00
00
00
00
00
00
00
00
00
00
00
03
3F
0C
16
00
07
00
00
00
00
00
00
00
00
00
0E
04
02
0A
00
00
00
00
00
00
00
00
00
03
00
00
00
28
02
00
00
00
00
00
00
00
00
0B
14
0D
0D
00
00
00
00
06
00
02
01
00
00
00
00
00
00
00
00
00
02
04
00
02
04
01
00
00
00
00
00
00
00
00
00
00
00
02
08
00
00
00
00
00
00
00
00
00
00
00
00
00
00
00
0E
07
00
00
00
00
00
00
00
00
00
00
00
00
00
00
05
00
00
00
00
00
00
00
00
00
00
00
00
00
00
00
06
00
00
00
00
00
00
00
00
00
00
00
00
00
00
00
03
00
00
00
00
00
00
00
00
00
00
00
00
00
00
00
0C
01
00
00
00
00
00
00
00
00
00
00
00
00
00
00
26
02
03
01
00
00
01
00
00
00
00
00
00
00
00
04
3C
00
00
01
09
00
00
00
00
00
00
00
02
01
0E
06
18
01
07
02
01
02
00
00
00
00
00
00
02
01
07
03
0C
01
02
07
05
00
00
00
00
00
00
00
02
15
02
0C
01
0C
02
07
01
00
00
00
00
00
00
00
00
04
01
03
0C
04
09
02
04
00
00
00
00
00
00
00
00
00
05
02
02
03
01
00
00
00
00
00
00
00
00
04
01
00
00
0A
02
00
04
01
01
00
00
00
01
03
07
15
03
00
00
04
02
06
00
02
01
00
00
00
00
00
00
00
00
00
02
04
00
02
04
01
00
00
00
00
00
00
00
00
00
00
00
02
08
00
00
00
00
00
00
00
00
00
00
00
00
00
00
00
0E
07
00
00
00
00
00
00
00
00
00
00
00
00
00
00
05
00
00
00
00
00
00
00
00
00
00
00
00
00
00
00
06
00
00
00
00
00
00
00
00
00
00
00
00
00
00
00
03
00
00
00
00
00
00
00
00
00
00
00
00
00
00
00
0C
01
00
00
00
00
00
00
00
00
00
00
00
00
00
00
26
02
03
01
00
00
01
00
00
00
00
00
00
00
00
04
3C
00
00
01
09
00
00
00
00
00
00
00
02
01
0E
06
18
01
07
02
01
02
00
00
00
00
00
00
02
01
07
03
0C
01
02
07
05
00
00
00
00
00
00
00
02
15
02
0C
01
0C
02
07
01
00
00
00
00
00
00
00
00
04
01
03
0C
04
09
02
04
00
00
00
00
00
00
00
00
00
05
02
02
03
01
00
00
00
00
00
00
00
00
04
01
00
00
0A
02
00
04
01
01
00
00
00
01
03
07
15
03
00
00
04
02
05
00
02
01
00
00
00
00
00
00
00
00
00
03
04
00
02
03
01
00
00
00
00
00
00
00
00
00
00
00
04
08
02
00
00
00
00
00
00
00
00
00
00
00
00
00
00
0C
08
00
00
00
00
00
00
00
00
00
00
00
00
00
00
09
00
00
00
00
00
00
00
00
00
00
00
00
00
00
00
05
00
00
00
00
00
00
00
00
00
00
00
00
00
00
00
04
00
00
00
00
00
00
00
00
00
00
00
00
00
00
00
09
00
00
00
00
00
00
00
00
00
00
00
00
00
00
00
24
02
02
00
00
00
01
00
00
00
00
00
00
00
00
06
39
00
00
03
07
00
00
00
00
00
00
00
02
01
0E
07
0E
02
05
02
01
04
01
00
00
00
00
00
02
04
06
04
0B
01
04
07
05
02
00
00
00
00
00
00
02
13
05
0C
01
09
03
06
02
00
00
00
00
00
00
00
00
04
03
02
0A
04
08
04
06
00
00
00
00
00
00
00
00
00
04
04
02
04
02
00
01
00
00
00
00
00
00
04
01
00
00
09
02
00
05
02
01
00
00
01
03
04
06
15
01
00
01
05
02
05
00
02
01
00
00
00
00
00
00
00
00
00
03
04
00
02
03
01
00
00
00
00
00
00
00
00
00
00
00
04
08
02
00
00
00
00
00
00
00
00
00
00
00
00
00
00
0C
08
00
00
00
00
00
00
00
00
00
00
00
00
00
00
09
00
00
00
00
00
00
00
00
00
00
00
00
00
00
00
05
00
00
00
00
00
00
00
00
00
00
00
00
00
00
00
04
00
00
00
00
00
00
00
00
00
00
00
00
00
00
00
09
00
00
00
00
00
00
00
00
00
00
00
00
00
00
00
24
02
02
00
00
00
01
00
00
00
00
00
00
00
00
06
39
00
00
03
07
00
00
00
00
00
00
00
02
01
0E
07
0E
02
05
02
01
04
01
00
00
00
00
00
02
04
06
04
0B
01
04
07
05
02
00
00
00
00
00
00
02
13
05
0C
01
09
03
06
02
00
00
00
00
00
00
00
00
04
03
02
0A
04
08
04
06
00
00
00
00
00
00
00
00
00
04
04
02
04
02
00
01
00
00
00
00
00
00
04
01
00
00
09
02
00
05
02
01
00
00
01
03
04
06
15
01
00
01
05
02
05
00
02
01
00
00
00
00
00
00
00
00
00
03
03
00
02
03
01
00
00
00
00
00
00
00
00
00
00
00
04
07
02
01
00
00
00
00
00
00
00
00
00
00
00
00
00
09
05
01
00
00
00
00
00
00
00
00
00
00
00
00
00
09
00
00
00
00
00
00
00
00
00
00
00
00
00
00
00
06
00
00
00
00
00
00
00
00
00
00
00
00
00
00
00
03
00
00
00
00
00
00
00
00
00
00
00
00
00
00
00
08
00
00
00
00
00
01
00
00
00
00
00
00
00
00
00
1F
02
02
00
00
00
01
00
00
00
00
00
00
00
00
04
2C
00
00
02
04
00
00
00
00
00
00
00
02
00
0B
04
0C
07
03
02
02
04
01
00
00
00
00
00
02
03
04
03
09
01
04
02
04
00
00
00
00
00
00
00
03
0D
03
08
00
09
02
04
01
00
00
00
00
00
00
00
00
03
02
03
07
04
07
02
02
00
00
00
00
00
00
00
00
00
04
07
01
01
02
00
01
00
00
00
00
00
00
03
00
00
00
07
01
00
04
04
00
00
00
00
02
04
04
0E
02
00
01
02
02
05
00
02
01
00
00
00
00
00
00
00
00
00
03
03
00
02
03
01
00
00
00
00
00
00
00
00
00
00
00
04
07
02
01
00
00
00
00
00
00
00
00
00
00
00
00
00
09
05
01
00
00
00
00
00
00
00
00
00
00
00
00
00
09
00
00
00
00
00
00
00
00
00
00
00
00
00
00
00
06
00
00
00
00
00
00
00
00
00
00
00
00
00
00
00
03
00
00
00
00
00
00
00
00
00
00
00
00
00
00
00
08
00
00
00
00
00
01
00
00
00
00
00
00
00
00
00
1F
02
02
00
00
00
01
00
00
00
00
00
00
00
00
04
2C
00
00
02
04
00
00
00
00
00
00
00
02
00
0B
04
0C
07
03
02
02
04
01
00
00
00
00
00
02
03
04
03
09
01
04
02
04
00
00
00
00
00
00
00
03
0D
03
08
00
09
02
04
01
00
00
00
00
00
00
00
00
03
02
03
07
04
07
02
02
00
00
00
00
00
00
00
00
00
04
07
01
01
02
00
01
00
00
00
00
00
00
03
00
00
00
07
01
00
04
04
00
00
00
00
02
04
04
0E
02
00
01
02
02
03
00
02
01
00
00
00
00
00
00
00
00
00
02
02
00
00
02
01
01
00
00
00
00
00
00
00
00
00
00
02
05
00
01
00
00
00
00
00
00
00
00
00
00
00
00
02
08
06
01
00
00
00
00
00
00
00
00
00
00
00
00
00
05
00
01
00
00
00
00
00
00
00
00
00
00
00
00
00
00
00
00
00
00
00
00
00
00
00
00
00
00
00
00
00
03
00
00
00
00
00
00
00
00
00
00
00
00
00
00
00
06
00
00
00
00
00
01
00
00
00
00
00
00
00
00
00
18
01
02
00
00
00
01
00
00
00
00
00
00
00
00
03
30
00
00
00
02
00
00
00
00
00
00
00
02
00
07
03
09
05
02
00
00
02
00
00
00
00
00
00
02
02
04
02
07
00
00
02
04
01
00
00
00
00
00
00
02
0A
05
06
00
04
01
00
01
00
00
00
00
00
00
00
00
02
02
02
06
03
07
01
03
00
00
00
00
00
00
00
00
00
02
05
00
01
01
00
00
00
00
00
00
00
00
02
00
00
00
04
00
00
02
02
01
00
00
00
02
03
03
07
01
00
00
02
01
03
00
02
01
00
00
00
00
00
00
00
00
00
02
02
00
00
02
01
01
00
00
00
00
00
00
00
00
00
00
02
05
00
01
00
00
00
00
00
00
00
00
00
00
00
00
02
08
06
01
00
00
00
00
00
00
00
00
00
00
00
00
00
05
00
01
00
00
00
00
00
00
00
00
00
00
00
00
00
00
00
00
00
00
00
00
00
00
00
00
00
00
00
00
00
03
00
00
00
00
00
00
00
00
00
00
00
00
00
00
00
06
00
00
00
00
00
01
00
00
00
00
00
00
00
00
00
18
01
02
00
00
00
01
00
00
00
00
00
00
00
00
03
30
00
00
00
02
00
00
00
00
00
00
00
02
00
07
03
09
05
02
00
00
02
00
00
00
00
00
00
02
02
04
02
07
00
00
02
04
01
00
00
00
00
00
00
02
0A
05
06
00
04
01
00
01
00
00
00
00
00
00
00
00
02
02
02
06
03
07
01
03
00
00
00
00
00
00
00
00
00
02
05
00
01
01
00
00
00
00
00
00
00
00
02
00
00
00
04
00
00
02
02
01
00
00
00
02
03
03
07
01
00
00
02
01
02
00
01
04
02
01
00
00
00
00
00
00
00
02
02
00
02
02
02
01
00
00
00
00
00
00
00
00
00
00
03
04
02
00
01
00
00
00
00
00
00
00
00
00
00
00
02
08
06
01
00
00
00
00
00
00
00
00
00
00
00
00
02
06
00
00
00
00
00
00
00
00
00
00
00
00
00
00
00
03
00
00
00
00
00
00
00
00
00
00
00
00
00
00
00
05
00
00
00
00
00
00
00
00
00
00
00
00
00
00
00
04
01
00
00
00
00
01
00
00
00
00
00
00
00
00
00
12
01
02
00
00
00
01
00
00
00
00
00
00
00
00
02
1F
04
02
00
02
00
00
00
00
00
00
00
02
00
08
03
0D
04
02
01
01
02
00
00
00
00
00
00
02
00
04
02
07
00
04
03
07
02
00
00
00
00
00
00
02
0A
04
04
00
03
00
01
01
00
00
00
00
00
00
00
01
04
00
02
03
02
06
03
02
00
00
00
00
00
00
00
00
00
02
02
00
02
02
00
02
00
00
00
00
00
00
03
03
00
00
02
00
00
02
01
01
00
00
00
01
07
02
05
05
00
00
00
01
02
00
01
04
02
01
00
00
00
00
00
00
00
02
02
00
02
02
02
01
00
00
00
00
00
00
00
00
00
00
03
04
02
00
01
00
00
00
00
00
00
00
00
00
00
00
02
08
06
01
00
00
00
00
00
00
00
00
00
00
00
00
02
06
00
00
00
00
00
00
00
00
00
00
00
00
00
00
00
03
00
00
00
00
00
00
00
00
00
00
00
00
00
00
00
05
00
00
00
00
00
00
00
00
00
00
00
00
00
00
00
04
01
00
00
00
00
01
00
00
00
00
00
00
00
00
00
12
01
02
00
00
00
01
00
00
00
00
00
00
00
00
02
1F
04
02
00
02
00
00
00
00
00
00
00
02
00
08
03
0D
04
02
01
01
02
00
00
00
00
00
00
02
00
04
02
07
00
04
03
07
02
00
00
00
00
00
00
02
0A
04
04
00
03
00
01
01
00
00
00
00
00
00
00
01
04
00
02
03
02
06
03
02
00
00
00
00
00
00
00
00
00
02
02
00
02
02
00
02
00
00
00
00
00
00
03
03
00
00
02
00
00
02
01
01
00
00
00
01
07
02
05
05
00
00
00
01
04
00
02
03
02
01
00
00
00
00
01
00
00
01
02
00
02
01
02
04
05
01
00
00
00
00
00
00
00
01
02
02
01
03
00
00
04
03
00
00
00
00
00
00
00
00
02
04
07
01
00
00
01
03
00
00
00
00
00
00
00
00
00
06
00
00
00
00
00
02
00
00
00
00
00
00
00
00
00
01
00
00
00
00
00
01
00
00
00
00
00
00
00
00
00
03
00
00
00
00
00
00
00
00
00
00
00
00
00
00
00
05
01
00
00
00
00
00
00
00
00
00
00
00
00
00
00
0B
00
02
00
00
00
01
00
00
00
00
00
00
00
00
02
1A
01
01
00
00
00
00
00
00
00
00
00
02
01
0A
07
0B
04
04
01
01
02
00
00
00
00
00
00
02
00
02
01
03
00
02
04
03
00
00
00
00
00
00
00
00
07
01
05
00
02
00
00
01
00
00
00
00
00
00
00
01
02
01
00
05
02
04
01
04
00
00
00
00
00
00
00
00
00
01
02
00
01
01
00
01
00
00
00
00
00
00
01
03
00
00
04
00
00
04
00
02
00
00
00
00
03
02
05
03
00
00
02
00
04
00
02
03
02
01
00
00
00
00
01
00
00
01
02
00
02
01
02
04
05
01
00
00
00
00
00
00
00
01
02
02
01
03
00
00
04
03
00
00
00
00
00
00
00
00
02
04
07
01
00
00
01
03
00
00
00
00
00
00
00
00
00
06
00
00
00
00
00
02
00
00
00
00
00
00
00
00
00
01
00
00
00
00
00
01
00
00
00
00
00
00
00
00
00
03
00
00
00
00
00
00
00
00
00
00
00
00
00
00
00
05
01
00
00
00
00
00
00
00
00
00
00
00
00
00
00
0B
00
02
00
00
00
01
00
00
00
00
00
00
00
00
02
1A
01
01
00
00
00
00
00
00
00
00
00
02
01
0A
07
0B
04
04
01
01
02
00
00
00
00
00
00
02
00
02
01
03
00
02
04
03
00
00
00
00
00
00
00
00
07
01
05
00
02
00
00
01
00
00
00
00
00
00
00
01
02
01
00
05
02
04
01
04
00
00
00
00
00
00
00
00
00
01
02
00
01
01
00
01
00
00
00
00
00
00
01
03
00
00
04
00
00
04
00
02
00
00
00
00
03
02
05
03
00
00
02
00
00
1B
3A
11
00
0A
00
17
00
00
0C
23
00
00
00
1B
00
1F
00
5A
25
0E
00
00
00
00
30
2A
17
00
00
00
2D
07
27
24
00
2B
0B
18
00
26
00
00
13
00
63
0C
00
00
00
38
01
00
00
00
33
00
00
0D
00
00
00
18
06
00
00
00
06
22
4A
00
00
22
04
44
00
00
13
33
00
30
00
00
00
00
00
16
00
00
07
00
00
48
2A
00
00
02
0E
06
39
00
00
00
6E
37
18
13
00
32
00
01
05
00
22
00
1F
1C
1A
00
00
00
27
00
1A
00
00
3C
00
00
00
00
27
00
00
1C
00
27
11
00
00
11
05
34
00
00
1A
33
17
00
05
39
00
00
2E
5F
30
1B
0B
22
00
00
00
10
24
00
00
32
00
00
00
00
52
00
33
00
53
24
25
00
0B
23
25
3D
22
02
00
00
31
06
5D
3B
00
2D
1F
4C
0C
09
22
22
00
4B
00
5B
30
29
28
26
00
07
1E
00
00
00
20
00
41
0E
32
2A
00
00
24
00
00
04
00
1F
00
00
00
00
1C
00
4B
00
00
3F
00
00
00
00
60
0C
00
2B
13
0C
00
30
00
1D
35
0C
00
0A
00
1B
3A
11
00
0A
00
17
00
00
0C
23
00
00
00
1B
00
1F
00
5A
25
0E
00
00
00
00
30
2A
17
00
00
00
2D
07
27
24
00
2B
0B
18
00
26
00
00
13
00
63
0C
00
00
00
38
01
00
00
00
33
00
00
0D
00
00
00
18
06
00
00
00
06
22
4A
00
00
22
04
44
00
00
13
33
00
30
00
00
00
00
00
16
00
00
07
00
00
48
2A
00
00
02
0E
06
39
00
00
00
6E
37
18
13
00
32
00
01
05
00
22
00
1F
1C
1A
00
00
00
27
00
1A
00
00
3C
00
00
00
00
27
00
00
1C
00
27
11
00
00
11
05
34
00
00
1A
33
17
00
05
39
00
00
2E
5F
30
1B
0B
22
00
00
00
10
24
00
00
32
00
00
00
00
52
00
33
00
53
24
25
00
0B
23
25
3D
22
02
00
00
31
06
5D
3B
00
2D
1F
4C
0C
09
22
22
00
4B
00
5B
30
29
28
26
00
07
1E
00
00
00
20
00
41
0E
32
2A
00
00
24
00
00
04
00
1F
00
00
00
00
1C
00
4B
00
00
3F
00
00
00
00
60
0C
00
2B
13
0C
00
30
00
1D
35
0C
00
0A
