FE
FC
FD
FF
01
04
03
FF
FC
FE
01
01
00
FD
FD
FE
FE
FD
FE
01
08
09
07
00
FC
01
08
08
03
00
FE
FD
FF
FF
00
07
0D
0D
08
00
FB
03
0D
11
0C
05
01
FF
FE
FF
05
08
0D
0C
07
FD
F9
03
0F
14
12
0D
04
FF
FC
FE
05
08
0B
0A
06
FB
FB
07
12
17
13
12
07
00
FB
FA
02
06
07
07
02
FC
FE
0C
15
1B
18
12
07
FF
FB
F7
FC
02
02
01
FA
F8
03
0D
1A
21
1F
12
03
FE
FD
F9
F7
FA
FB
FA
F4
F4
FC
07
16
27
25
14
03
FF
FF
FD
FC
F9
F9
F6
F2
EF
F2
FA
09
10
12
06
00
FF
FF
FE
FD
FC
FB
F9
F2
EC
ED
F3
FB
00
FF
FF
00
FF
FE
FC
FE
FE
FE
FB
F3
EC
EE
F4
FB
FE
FE
FF
FF
00
FC
FC
FE
FD
FD
FA
F1
EA
EE
F3
FD
00
FF
FF
00
FC
FD
FB
FE
FD
FB
F5
EC
EA
E9
F1
FA
FF
FE
FF
01
FD
FF
FE
FE
FE
F9
F3
EE
F0
ED
EF
F9
FE
FD
FE
FF
FD
FE
FD
FE
FD
FA
F6
F6
F8
F7
F6
FA
FD
FC
FD
FF
FC
FF
FE
FE
FE
FB
FB
FC
FD
FE
FE
FD
FE
FD
FD
00
FC
FF
FD
FE
FF
02
04
03
FF
FC
FE
00
00
00
FF
FE
FE
FF
FF
FF
02
08
0A
06
FE
FA
FF
05
07
04
01
FF
FE
00
00
02
08
0C
0B
05
FD
FA
03
0C
0F
0B
05
02
00
FF
FF
06
09
0D
0A
03
FE
FD
05
0F
12
10
0A
04
00
FD
FE
05
0A
0B
07
03
FE
FF
03
0C
11
0F
0D
05
00
FD
FB
01
07
08
05
02
FF
00
05
0E
13
0F
0C
05
00
FC
FA
FC
01
04
FF
FB
FB
01
07
13
1A
17
0E
02
FF
FE
FB
FA
FB
FC
FC
F7
F7
FC
04
10
1F
1E
10
02
FF
00
FD
FC
FB
FA
F8
F5
F3
F5
FB
05
0C
0C
05
01
00
00
FF
FE
FE
FD
FB
F5
F1
F1
F7
FC
01
00
01
00
00
FF
FC
FF
FF
FF
FD
F7
F0
F2
F8
FD
FF
FF
00
00
00
FD
FD
FF
FF
FE
FC
F5
EF
F2
F6
FE
01
00
FF
02
FD
FF
FD
FF
FE
FC
F8
F0
EF
EF
F5
FD
00
FF
FF
02
FE
00
FF
FF
FF
FB
F6
F2
F4
F1
F3
FA
FF
FE
FE
00
FD
00
FF
FF
FE
FC
F8
F9
FA
F9
F8
FB
FE
FE
FE
00
FD
00
FF
FF
FF
FD
FD
FD
FE
FF
FF
FE
FF
FE
FE
01
FE
FF
FD
FE
FF
01
04
02
FE
FA
FC
00
00
00
FE
FE
FF
FF
FE
FF
02
08
09
06
FD
F9
FD
05
06
03
01
FF
FE
00
FF
01
07
0B
0B
06
FD
F8
00
08
0C
09
04
01
00
FF
FE
05
08
0B
0B
04
FB
F8
01
0B
0F
0E
08
02
00
FD
FD
03
08
0A
08
03
FB
FD
05
0D
10
0D
09
04
00
FC
FB
00
05
07
05
01
FE
01
08
0D
10
0D
09
03
FF
FD
F9
FC
00
02
00
FC
FC
03
07
10
16
12
0A
00
FE
FF
FB
FA
FC
FB
FB
F8
F8
FC
03
0C
19
18
0C
01
FF
FF
FD
FD
FB
FB
F9
F6
F3
F5
F9
02
08
09
04
02
00
00
FF
FE
FE
FD
FB
F6
F2
F2
F8
FC
00
00
01
01
FF
FF
FC
FF
FF
FF
FD
F8
F2
F3
F8
FD
FF
FF
00
FF
FF
FD
FD
FF
FE
FE
FD
F6
F1
F3
F6
FD
00
FF
FF
01
FC
FF
FD
FF
FE
FC
F8
F3
F1
F1
F6
FC
00
FF
FF
02
FE
00
FE
FF
FF
FB
F8
F5
F6
F3
F5
FB
FF
FE
FE
FF
FC
00
FF
FF
FF
FC
FA
F9
FB
FA
F9
FB
FE
FE
FE
00
FC
00
FF
FF
FF
FD
FD
FD
FE
FF
FF
FE
FF
FE
FE
01
FE
00
FE
FF
FF
02
05
03
FF
FA
FC
00
00
00
FF
FF
00
01
FF
FF
02
09
0A
05
FE
FA
FD
03
06
03
01
00
FF
01
00
00
07
0D
0C
06
FE
FB
00
07
0A
09
04
01
01
00
FF
03
09
0D
0B
04
FD
FC
02
0A
0D
0D
08
03
01
FE
FF
02
07
0B
08
03
FB
FC
04
0B
0F
0C
0A
04
01
FD
FC
00
03
06
07
01
FC
00
0A
10
12
0E
09
03
00
FE
FB
FE
00
01
01
FE
FC
05
0C
13
18
13
0A
00
00
FF
FC
FB
FD
FC
FB
FA
FA
FF
05
0E
19
17
0A
01
01
00
FE
FD
FC
FC
FA
F8
F6
F7
FB
03
09
0A
06
03
01
01
FF
FF
FF
FE
FD
F8
F4
F4
F8
FC
00
01
02
02
00
00
FD
FF
00
00
FE
F9
F4
F4
F9
FD
00
00
01
00
00
FE
FE
00
00
FF
FE
F8
F2
F4
F7
FE
01
00
00
02
FC
00
FE
00
FF
FE
FB
F6
F4
F2
F7
FD
01
00
00
02
FF
01
00
00
FF
FC
FA
F7
F8
F6
F6
FC
00
FF
FF
00
FD
00
FF
00
00
FD
FB
FB
FC
FC
FA
FC
FF
FF
FF
01
FD
01
00
00
00
FF
FE
FE
00
00
00
FF
00
00
FF
01
FF
01
FF
FF
FF
01
04
02
00
FB
FC
FF
00
00
FF
FF
00
00
FF
FE
00
07
09
05
00
FB
FD
02
03
02
00
00
FF
01
00
00
04
0B
0B
05
FE
FB
00
06
08
07
04
02
00
01
00
03
05
0B
09
03
FC
FD
03
0A
0D
0C
08
03
01
FE
FE
02
05
08
07
01
FC
FF
06
0C
10
0D
0B
04
01
FD
FC
FF
03
05
05
FF
FE
03
09
0E
12
10
0A
03
01
FE
FB
FD
FF
01
00
FC
FC
07
0A
14
19
15
0C
03
01
00
FC
FB
FB
FB
FB
F9
FA
FF
06
0F
1A
18
0D
02
01
00
FE
FE
FD
FB
F9
F8
F6
F7
FC
05
0B
0B
06
03
01
01
FF
FF
FF
FE
FD
F8
F4
F4
F9
FC
00
01
02
02
00
00
FE
00
00
00
FE
FA
F4
F4
F9
FD
FF
00
01
00
00
FE
FE
00
00
FF
FE
F8
F3
F4
F7
FE
01
00
00
02
FC
00
FE
00
FF
FE
FB
F6
F4
F2
F6
FD
01
00
00
02
FF
01
FF
00
00
FD
FA
F8
F8
F6
F6
FC
00
FF
FF
00
FD
00
00
00
00
FE
FC
FC
FD
FC
FB
FC
FF
FF
FF
01
FD
01
00
00
00
FF
FE
FE
FF
00
00
FF
00
FF
FF
01
FF
01
FF
FF
FF
00
02
02
FF
FC
FD
FF
00
00
FF
FF
00
00
FF
FF
01
03
05
05
00
FD
FE
02
04
02
00
00
FF
01
00
00
05
06
07
06
01
FE
02
07
09
07
03
01
00
00
00
03
06
05
05
04
FE
FD
03
09
0D
0B
08
03
01
FE
FF
01
05
04
02
02
FD
FE
06
0C
10
0C
09
04
02
FD
FC
FF
03
03
00
FF
FE
02
0B
10
13
0F
0A
05
02
FE
FA
FC
FE
00
FE
FB
FC
07
0C
15
1A
18
0F
06
02
FF
FC
FA
F9
FB
FB
F8
FA
FF
07
10
1C
1B
11
05
01
00
FE
FD
FC
FA
F8
F7
F6
F8
FD
05
0C
0C
07
02
01
01
00
FF
FF
FE
FD
F8
F4
F4
F8
FC
00
01
01
01
00
00
FE
00
00
00
FE
F9
F5
F4
F8
FD
FE
00
01
00
00
FE
FE
00
00
FF
FE
F8
F3
F4
F7
FE
01
00
01
01
FC
00
FE
00
FF
FE
FB
F7
F3
F2
F7
FD
01
00
00
02
FF
00
FF
00
00
FD
FB
F9
F8
F6
F6
FC
00
FF
FF
00
FD
01
00
00
00
FE
FC
FC
FD
FC
FB
FC
FF
FF
FF
00
FD
01
00
00
00
FF
FF
FF
00
00
FF
FF
00
00
FF
02
FF
00
FF
FF
00
01
02
00
FF
FD
FE
FF
00
FF
FE
FF
00
00
00
FF
01
04
03
02
FF
FD
FF
03
05
02
00
00
FF
01
01
00
03
06
05
02
FF
FF
04
08
0A
07
03
02
00
00
00
02
02
05
03
00
FE
00
07
0C
0D
0B
07
03
01
FE
FE
01
01
03
01
01
FE
01
07
0B
0F
0C
0B
06
02
FD
FA
FE
FE
00
00
FE
FE
02
09
0F
13
12
0D
07
02
FD
F9
FA
FB
FB
FC
FB
FC
06
0D
17
1E
1B
12
07
02
FF
FB
F8
F8
F8
F8
F8
F9
01
0A
14
1F
1E
13
05
01
00
FE
FD
FB
FA
F8
F7
F6
F9
FE
06
0C
0D
06
03
01
01
00
FF
FF
FD
FC
F8
F5
F5
F8
FC
00
01
01
01
00
00
FE
00
00
00
FE
F9
F5
F4
F8
FC
FF
FF
00
00
FF
FE
FE
00
00
FF
FE
F9
F3
F4
F7
FD
00
00
00
01
FC
00
FE
00
FF
FE
FC
F7
F4
F2
F7
FD
00
00
00
02
FF
00
FF
00
00
FD
FB
F9
F9
F7
F7
FC
00
FF
FF
00
FD
00
FF
00
00
FE
FC
FC
FD
FC
FB
FD
FF
FF
FF
00
FD
01
00
00
00
FF
FF
FF
00
00
FF
FF
00
00
FF
01
FE
00
FF
00
FF
01
02
01
00
FD
FE
FF
01
00
FF
FF
00
01
00
00
01
04
04
03
01
FF
00
03
05
03
01
00
FF
00
00
00
03
05
05
01
00
FE
03
08
0A
08
05
01
00
00
FD
01
01
03
04
00
FE
00
05
0B
0F
0F
0A
04
01
FD
FB
FD
FF
00
02
00
FF
00
07
0E
13
11
0E
07
02
FD
F8
F8
FC
FC
00
FF
FF
03
0C
13
16
14
0F
07
02
FE
F8
F5
F6
F7
FA
F9
FC
07
0E
18
1E
1C
13
08
01
FF
FA
F7
F5
F5
F5
F5
F9
01
0A
14
20
1F
13
05
01
00
FE
FD
FA
F9
F7
F7
F6
FA
FF
09
0F
10
08
03
01
00
00
00
FF
FE
FD
F8
F5
F5
F9
FC
00
01
01
01
01
00
FE
00
00
00
FE
FA
F5
F4
F9
FC
FE
FF
01
00
00
FE
FE
00
00
FF
FF
FA
F4
F4
F7
FD
00
00
00
01
FB
00
FE
00
FF
FE
FC
F8
F5
F3
F7
FD
00
00
00
02
FE
00
FF
00
00
FD
FB
FA
F9
F7
F8
FC
FF
FF
FF
00
FD
00
FF
00
00
FE
FC
FC
FD
FD
FC
FD
FF
FF
FF
00
FD
01
00
00
00
FF
FE
FF
00
00
00
FF
00
00
FF
01
FE
01
FF
FF
01
00
02
01
01
FF
FF
00
00
00
FF
FF
00
00
FF
FF
01
02
03
04
03
01
01
04
05
03
01
FF
FF
01
FF
FE
01
02
03
05
03
01
04
09
0C
0B
06
02
00
FF
FD
FC
FF
01
01
03
01
00
06
0D
12
12
0B
04
00
FE
F9
F7
FC
FF
FE
01
FF
00
08
11
16
14
0F
06
01
FD
F7
F2
F5
FB
FB
FF
FF
04
0F
15
18
16
0F
07
01
FD
F8
F3
EF
F4
F5
F8
FC
0A
11
1A
1E
1B
12
07
01
FF
FB
F7
F4
F1
F2
F3
F8
03
0B
14
1E
1D
12
05
01
00
FE
FC
FB
F9
F6
F6
F6
FA
FF
09
0F
10
09
04
01
01
00
FF
FF
FE
FC
F9
F6
F5
F8
FC
00
01
02
01
00
00
FE
00
00
00
FE
FA
F6
F6
F9
FC
FE
00
01
00
FF
FE
FE
00
00
00
FE
FA
F5
F6
F8
FE
00
00
00
01
FB
00
FE
00
FF
FE
FC
F9
F6
F5
F9
FD
00
00
00
01
FF
00
FF
00
FF
FD
FC
FA
FA
F9
F9
FD
00
FF
FF
00
FD
00
00
00
FF
FE
FC
FD
FD
FD
FC
FD
FF
FF
FF
00
FD
01
00
00
00
FF
FF
FF
00
00
00
FF
00
FF
00
01
FF
01
FF
FF
FF
01
02
01
02
00
01
01
01
00
FF
FF
00
00
FF
FE
FF
03
03
03
03
02
02
06
07
03
01
00
FF
00
FF
FC
FC
02
04
04
04
03
07
0C
0F
0B
05
01
00
00
FD
F9
F8
FE
02
03
02
05
0B
12
14
12
0A
03
01
FE
F9
F5
F4
F9
FF
01
02
07
0E
14
17
13
0F
06
01
FD
F7
F2
F0
F3
FA
FD
02
08
13
16
19
16
10
07
01
FD
F8
F2
EF
EE
F2
F5
FC
0B
11
1A
1E
1B
11
06
01
FF
FB
F7
F3
F0
F0
F1
F9
03
0B
14
1D
1C
11
04
01
00
FE
FD
FB
F8
F6
F6
F7
FA
FF
08
0E
10
09
04
01
00
00
FF
FF
FE
FC
F9
F7
F7
F9
FD
00
01
02
01
00
00
FE
00
00
00
FE
FB
F7
F6
FA
FD
FE
FF
01
00
FF
FE
FE
00
FF
FF
FE
FB
F6
F6
F9
FE
00
00
00
01
FC
00
FE
00
FF
FE
FC
F9
F7
F6
F9
FD
00
FF
00
01
FF
00
FF
FF
00
FD
FC
FB
FB
F9
FA
FD
00
FF
FF
00
FD
00
00
00
00
FE
FD
FD
FD
FD
FC
FD
00
FF
FF
00
FD
01
00
00
00
FF
FF
FF
FF
00
FF
FF
00
00
FF
01
FF
00
FF
FF
FF
FF
01
02
03
01
01
02
01
01
FF
00
00
00
FF
FE
FD
FE
00
03
03
03
05
08
07
03
01
00
FF
01
FF
FC
FA
FB
00
03
04
06
0A
0D
0E
0A
04
01
00
00
FD
F9
F6
F8
FD
01
06
09
0D
11
12
12
09
03
00
FE
F9
F4
F2
F4
FA
01
08
09
0F
15
17
13
0D
04
01
FD
F7
F2
EF
F0
F5
FE
07
09
13
18
19
14
0E
06
01
FD
F7
F3
EF
EE
EF
F5
FE
0B
12
18
1B
18
10
06
01
FF
FB
F7
F3
F0
F0
F1
F9
04
0B
13
1B
1B
10
04
01
FF
FE
FD
FA
F8
F6
F6
F8
FC
01
08
0E
0F
08
04
01
00
00
FF
FF
FE
FD
FA
F8
F8
FA
FD
00
01
01
01
00
00
FE
00
00
00
FF
FB
F8
F8
FB
FD
FE
00
01
00
FF
FE
FE
00
00
FF
FE
FB
F7
F8
FA
FF
00
00
00
01
FC
FF
FE
00
FF
FE
FD
FA
F8
F6
FA
FE
00
00
00
01
FF
00
FF
00
00
FE
FD
FB
FB
F9
FA
FE
00
FF
00
00
FD
00
00
00
00
FE
FD
FD
FE
FE
FC
FE
00
00
FF
00
FD
01
00
00
00
FF
FF
FF
00
00
FF
00
00
00
00
00
FF
00
FF
FF
FF
FF
FF
FF
01
01
02
02
01
00
FF
FF
00
00
FF
FE
FD
FD
FC
FF
03
04
05
08
07
04
01
00
00
00
FF
FC
FA
F9
FA
00
05
06
0A
0E
0E
0A
04
01
00
00
FD
FA
F6
F5
F8
00
06
0A
0F
12
12
0F
08
02
00
FE
FA
F6
F4
F2
F6
01
08
0C
10
14
14
11
0C
04
01
FD
F7
F4
F1
F0
F3
FF
07
0B
12
15
16
13
0D
05
01
FD
F8
F3
F0
EF
EF
F6
00
0B
11
16
1A
17
10
05
01
FF
FB
F7
F3
F1
F1
F3
FB
05
0C
13
1A
19
0F
04
01
FF
FF
FD
FA
F8
F6
F8
FA
FE
02
09
0D
0E
07
03
01
01
00
FF
FF
FE
FD
FA
F9
FA
FC
FE
01
01
01
01
01
00
FF
00
00
00
FE
FC
F9
F9
FC
FE
FF
00
00
FF
FF
FD
FE
00
00
FF
FF
FB
F8
F9
FA
FE
00
00
00
00
FC
00
FE
00
FF
FE
FC
FA
F8
F7
FB
FE
00
00
00
00
FF
00
00
00
00
FE
FC
FB
FB
FA
FA
FE
00
00
FF
FF
FD
01
00
00
00
FF
FD
FE
FE
FE
FC
FE
00
00
00
FF
FD
01
00
00
00
00
FF
FF
FF
00
00
00
00
00
00
00
FF
00
00
FF
FF
00
00
FF
FF
FE
FF
01
01
00
FF
FF
00
00
FF
FE
FE
FE
FE
FE
FE
FF
02
06
06
03
01
00
FF
00
FF
FD
FB
FC
FC
FE
FF
03
08
0B
0D
09
04
01
00
00
FD
FA
F7
F8
FA
FF
02
07
0B
0F
11
0F
08
02
00
FE
FB
F7
F4
F4
F8
00
04
08
0C
12
13
0F
0A
03
01
FD
F9
F5
F2
F2
F7
FF
05
07
10
14
14
10
0B
05
01
FD
F9
F4
F1
F1
F3
F8
00
0A
11
16
19
14
0F
05
01
FF
FC
F7
F4
F2
F3
F5
FD
06
0C
12
1A
19
0F
04
01
FF
FF
FD
FA
F9
F8
F9
FB
FF
03
09
0D
0D
07
03
01
00
00
00
FF
FE
FD
FB
FB
FC
FE
FF
01
01
01
01
01
00
FF
00
00
00
FF
FD
FB
FB
FD
FF
FF
00
01
00
00
FE
FF
00
00
FF
FF
FB
F9
FA
FB
FF
00
00
00
00
FC
00
FE
00
FF
FE
FD
FB
F9
F8
FB
FE
00
00
00
00
FF
00
FF
00
00
FE
FC
FB
FB
FA
FB
FE
00
00
00
00
FD
00
00
00
00
FF
FD
FD
FE
FD
FC
FE
00
00
FF
00
FD
00
00
00
00
FF
FF
FF
00
00
00
00
00
00
00
00
FF
01
00
FF
00
00
00
FF
FF
FE
FE
FF
00
00
FF
00
00
00
00
FF
FF
00
FF
FF
FE
FD
FE
00
02
01
00
00
00
01
00
FE
FE
FF
FF
FF
FD
FC
00
04
08
06
03
01
00
00
FE
FC
FB
FD
FE
FE
FD
01
05
0A
0B
0B
06
02
01
FE
FB
F8
F8
FA
FD
FF
00
02
09
0E
0F
0C
08
03
01
FE
F9
F5
F4
F7
FC
FE
02
05
0C
10
11
0F
09
03
01
FE
F9
F5
F3
F4
F8
FB
FF
08
0D
12
16
13
0D
04
01
FF
FC
F9
F5
F4
F6
F8
FD
04
0A
10
16
15
0E
03
01
FF
FF
FE
FB
FA
FA
FB
FC
FF
03
08
0C
0C
06
02
01
00
00
00
FF
FE
FE
FD
FC
FD
FF
FF
01
01
01
01
00
00
FF
00
00
00
FF
FE
FC
FD
FF
FF
FF
00
01
00
00
FE
FF
00
00
00
FF
FD
FB
FD
FD
00
00
00
00
00
FC
00
FF
00
FF
FF
FD
FB
FA
FA
FC
FE
00
00
00
00
FF
00
00
00
00
FE
FD
FB
FC
FA
FB
FE
00
00
00
FF
FD
00
00
00
00
FF
FD
FE
FE
FD
FC
FE
00
00
00
00
FD
01
00
01
00
FF
FF
FF
00
00
FF
00
00
00
00
00
FF
01
00
00
00
00
00
FF
FF
FE
FE
00
00
00
00
00
00
00
00
00
00
00
FF
FF
FE
FD
FE
00
00
00
00
00
00
00
00
FF
FF
00
00
FF
FE
FD
FE
00
01
02
01
01
00
00
FF
FE
FF
00
FF
FF
FE
FE
FF
01
04
06
05
01
00
FF
FD
FB
FD
FE
FF
FF
FE
00
03
07
09
09
07
03
01
FF
FA
F8
F9
FD
FE
FE
00
02
08
0C
0C
0B
07
02
01
FE
FA
F7
F6
F9
FD
FD
FF
05
0A
0D
10
0D
09
03
01
FF
FD
F9
F7
F7
FA
FB
FE
03
07
0B
11
11
0C
03
01
00
FF
FF
FC
FB
FB
FC
FD
FF
01
06
09
0A
06
02
01
00
00
00
00
FF
FE
FE
FD
FD
FF
00
01
01
01
01
01
00
FF
00
00
00
FF
FE
FD
FE
FF
FF
FF
00
01
00
00
FE
FF
00
00
FF
FF
FE
FC
FE
FE
00
00
00
00
00
FC
00
FF
00
00
FF
FE
FC
FB
FB
FD
FF
00
00
00
00
FF
00
FF
00
00
FE
FD
FC
FC
FC
FC
FF
00
00
00
FF
FE
00
00
00
00
FF
FE
FE
FF
FE
FD
FF
00
00
00
00
FD
01
00
00
00
00
FF
00
00
00
FF
00
00
00
00
00
FF
00
00
00
00
00
00
FF
FF
FE
FF
00
00
00
FF
00
00
01
FF
00
00
00
FF
FF
FE
FE
FE
00
00
00
00
00
00
00
00
00
00
00
00
FF
FE
FE
FF
00
00
00
00
00
00
00
00
00
00
00
00
FF
FE
FE
FF
00
01
01
01
01
00
00
FF
FF
FF
FF
FF
FF
FE
FE
FF
01
02
02
03
02
01
FF
FD
FC
FE
FF
FF
FE
FF
FF
03
04
05
05
05
02
01
FF
FD
FB
FB
FE
FF
FE
FE
02
05
08
0A
08
05
01
01
00
FE
FC
FB
FC
FD
FD
FE
01
04
07
09
08
05
02
01
00
00
FE
FE
FD
FD
FD
FD
FE
00
02
05
06
04
02
01
01
00
00
00
FF
FF
FE
FD
FE
FF
FF
01
02
01
01
01
00
FF
00
00
00
FF
FE
FE
FE
FF
FF
00
00
00
00
00
FE
FF
00
00
00
FF
FE
FD
FE
FE
00
00
00
00
00
FD
00
FF
00
FF
FF
FE
FD
FC
FC
FE
FF
01
00
00
FF
FF
00
00
00
00
FF
FE
FE
FD
FD
FD
FF
00
00
00
FF
FE
00
00
00
00
00
FE
FF
FF
FE
FE
FF
00
00
00
FF
FE
01
00
01
00
00
FF
00
00
00
00
00
00
00
00
00
FF
